{
  "version": "1.0",
  "truncation": null,
  "padding": {
    "strategy": "BatchLongest",
    "direction": "Right",
    "pad_to_multiple_of": null,
    "pad_id": 0,
    "pad_type_id": 0,
    "pad_token": "<pad>"
  },
  "added_tokens": [
    {
      "id": 0,
      "content": "<pad>",
      "single_word": false,
      "lstrip": false,
      "rstrip": false,
      "normalized": false,
      "special": true
    },
    {
      "id": 1,
      "content": "<unk>",
      "single_word": false,
      "lstrip": false,
      "rstrip": false,
      "normalized": false,
      "special": true
    },
    {
      "id": 2,
      "content": "<s>",
      "single_word": false,
      "lstrip": false,
      "rstrip": false,
      "normalized": false,
      "special": true
    },
    {
      "id": 3,
      "content": "</s>",
      "single_word": false,
      "lstrip": false,
      "rstrip": false,
      "normalized": false,
      "special": true
    },
    {
      "id": 4,
      "content": "<user>",
      "single_word": false,
      "lstrip": false,
      "rstrip": false,
      "normalized": false,
      "special": true
    },
    {
      "id": 5,
      "content": "<assistant>",
      "single_word": false,
      "lstrip": false,
      "rstrip": false,
      "normalized": false,
      "special": true
    },
    {
      "id": 6,
      "content": "<sentinel_0>",
      "single_word": false,
      "lstrip": false,
      "rstrip": false,
      "normalized": false,
      "special": true
    },
    {
      "id": 7,
      "content": "<sentinel_1>",
      "single_word": false,
      "lstrip": false,
      "rstrip": false,
      "normalized": false,
      "special": true
    },
    {
      "id": 8,
      "content": "<sentinel_2>",
      "single_word": false,
      "lstrip": false,
      "rstrip": false,
      "normalized": false,
      "special": true
    },
    {
      "id": 9,
      "content": "<sentinel_3>",
      "single_word": false,
      "lstrip": false,
      "rstrip": false,
      "normalized": false,
      "special": true
    },
    {
      "id": 10,
      "content": "<sentinel_4>",
      "single_word": false,
      "lstrip": false,
      "rstrip": false,
      "normalized": false,
      "special": true
    },
    {
      "id": 11,
      "content": "<sentinel_5>",
      "single_word": false,
      "lstrip": false,
      "rstrip": false,
      "normalized": false,
      "special": true
    },
    {
      "id": 12,
      "content": "<sentinel_6>",
      "single_word": false,
      "lstrip": false,
      "rstrip": false,
      "normalized": false,
      "special": true
    },
    {
      "id": 13,
      "content": "<sentinel_7>",
      "single_word": false,
      "lstrip": false,
      "rstrip": false,
      "normalized": false,
      "special": true
    },
    {
      "id": 14,
      "content": "<sentinel_8>",
      "single_word": false,
      "lstrip": false,
      "rstrip": false,
      "normalized": false,
      "special": true
    },
    {
      "id": 15,
      "content": "<sentinel_9>",
      "single_word": false,
      "lstrip": false,
      "rstrip": false,
      "normalized": false,
      "special": true
    },
    {
      "id": 16,
      "content": "<sentinel_10>",
      "single_word": false,
      "lstrip": false,
      "rstrip": false,
      "normalized": false,
      "special": true
    },
    {
      "id": 17,
      "content": "<sentinel_11>",
      "single_word": false,
      "lstrip": false,
      "rstrip": false,
      "normalized": false,
      "special": true
    },
    {
      "id": 18,
      "content": "<sentinel_12>",
      "single_word": false,
      "lstrip": false,
      "rstrip": false,
      "normalized": false,
      "special": true
    },
    {
      "id": 19,
      "content": "<sentinel_13>",
      "single_word": false,
      "lstrip": false,
      "rstrip": false,
      "normalized": false,
      "special": true
    },
    {
      "id": 20,
      "content": "<sentinel_14>",
      "single_word": false,
      "lstrip": false,
      "rstrip": false,
      "normalized": false,
      "special": true
    },
    {
      "id": 21,
      "content": "<sentinel_15>",
      "single_word": false,
      "lstrip": false,
      "rstrip": false,
      "normalized": false,
      "special": true
    },
    {
      "id": 22,
      "content": "<sentinel_16>",
      "single_word": false,
      "lstrip": false,
      "rstrip": false,
      "normalized": false,
      "special": true
    },
    {
      "id": 23,
      "content": "<sentinel_17>",
      "single_word": false,
      "lstrip": false,
      "rstrip": false,
      "normalized": false,
      "special": true
    },
    {
      "id": 24,
      "content": "<sentinel_18>",
      "single_word": false,
      "lstrip": false,
      "rstrip": false,
      "normalized": false,
      "special": true
    },
    {
      "id": 25,
      "content": "<sentinel_19>",
      "single_word": false,
      "lstrip": false,
      "rstrip": false,
      "normalized": false,
      "special": true
    },
    {
      "id": 26,
      "content": "<sentinel_20>",
      "single_word": false,
      "lstrip": false,
      "rstrip": false,
      "normalized": false,
      "special": true
    },
    {
      "id": 27,
      "content": "<sentinel_21>",
      "single_word": false,
      "lstrip": false,
      "rstrip": false,
      "normalized": false,
      "special": true
    },
    {
      "id": 28,
      "content": "<sentinel_22>",
      "single_word": false,
      "lstrip": false,
      "rstrip": false,
      "normalized": false,
      "special": true
    },
    {
      "id": 29,
      "content": "<sentinel_23>",
      "single_word": false,
      "lstrip": false,
      "rstrip": false,
      "normalized": false,
      "special": true
    },
    {
      "id": 30,
      "content": "<sentinel_24>",
      "single_word": false,
      "lstrip": false,
      "rstrip": false,
      "normalized": false,
      "special": true
    },
    {
      "id": 31,
      "content": "<sentinel_25>",
      "single_word": false,
      "lstrip": false,
      "rstrip": false,
      "normalized": false,
      "special": true
    },
    {
      "id": 32,
      "content": "<sentinel_26>",
      "single_word": false,
      "lstrip": false,
      "rstrip": false,
      "normalized": false,
      "special": true
    },
    {
      "id": 33,
      "content": "<sentinel_27>",
      "single_word": false,
      "lstrip": false,
      "rstrip": false,
      "normalized": false,
      "special": true
    },
    {
      "id": 34,
      "content": "<sentinel_28>",
      "single_word": false,
      "lstrip": false,
      "rstrip": false,
      "normalized": false,
      "special": true
    },
    {
      "id": 35,
      "content": "<sentinel_29>",
      "single_word": false,
      "lstrip": false,
      "rstrip": false,
      "normalized": false,
      "special": true
    },
    {
      "id": 36,
      "content": "<sentinel_30>",
      "single_word": false,
      "lstrip": false,
      "rstrip": false,
      "normalized": false,
      "special": true
    },
    {
      "id": 37,
      "content": "<sentinel_31>",
      "single_word": false,
      "lstrip": false,
      "rstrip": false,
      "normalized": false,
      "special": true
    },
    {
      "id": 38,
      "content": "<sentinel_32>",
      "single_word": false,
      "lstrip": false,
      "rstrip": false,
      "normalized": false,
      "special": true
    },
    {
      "id": 39,
      "content": "<sentinel_33>",
      "single_word": false,
      "lstrip": false,
      "rstrip": false,
      "normalized": false,
      "special": true
    },
    {
      "id": 40,
      "content": "<sentinel_34>",
      "single_word": false,
      "lstrip": false,
      "rstrip": false,
      "normalized": false,
      "special": true
    },
    {
      "id": 41,
      "content": "<sentinel_35>",
      "single_word": false,
      "lstrip": false,
      "rstrip": false,
      "normalized": false,
      "special": true
    },
    {
      "id": 42,
      "content": "<sentinel_36>",
      "single_word": false,
      "lstrip": false,
      "rstrip": false,
      "normalized": false,
      "special": true
    },
    {
      "id": 43,
      "content": "<sentinel_37>",
      "single_word": false,
      "lstrip": false,
      "rstrip": false,
      "normalized": false,
      "special": true
    },
    {
      "id": 44,
      "content": "<sentinel_38>",
      "single_word": false,
      "lstrip": false,
      "rstrip": false,
      "normalized": false,
      "special": true
    },
    {
      "id": 45,
      "content": "<sentinel_39>",
      "single_word": false,
      "lstrip": false,
      "rstrip": false,
      "normalized": false,
      "special": true
    },
    {
      "id": 46,
      "content": "<sentinel_40>",
      "single_word": false,
      "lstrip": false,
      "rstrip": false,
      "normalized": false,
      "special": true
    },
    {
      "id": 47,
      "content": "<sentinel_41>",
      "single_word": false,
      "lstrip": false,
      "rstrip": false,
      "normalized": false,
      "special": true
    },
    {
      "id": 48,
      "content": "<sentinel_42>",
      "single_word": false,
      "lstrip": false,
      "rstrip": false,
      "normalized": false,
      "special": true
    },
    {
      "id": 49,
      "content": "<sentinel_43>",
      "single_word": false,
      "lstrip": false,
      "rstrip": false,
      "normalized": false,
      "special": true
    },
    {
      "id": 50,
      "content": "<sentinel_44>",
      "single_word": false,
      "lstrip": false,
      "rstrip": false,
      "normalized": false,
      "special": true
    },
    {
      "id": 51,
      "content": "<sentinel_45>",
      "single_word": false,
      "lstrip": false,
      "rstrip": false,
      "normalized": false,
      "special": true
    },
    {
      "id": 52,
      "content": "<sentinel_46>",
      "single_word": false,
      "lstrip": false,
      "rstrip": false,
      "normalized": false,
      "special": true
    },
    {
      "id": 53,
      "content": "<sentinel_47>",
      "single_word": false,
      "lstrip": false,
      "rstrip": false,
      "normalized": false,
      "special": true
    },
    {
      "id": 54,
      "content": "<sentinel_48>",
      "single_word": false,
      "lstrip": false,
      "rstrip": false,
      "normalized": false,
      "special": true
    },
    {
      "id": 55,
      "content": "<sentinel_49>",
      "single_word": false,
      "lstrip": false,
      "rstrip": false,
      "normalized": false,
      "special": true
    },
    {
      "id": 56,
      "content": "<sentinel_50>",
      "single_word": false,
      "lstrip": false,
      "rstrip": false,
      "normalized": false,
      "special": true
    },
    {
      "id": 57,
      "content": "<sentinel_51>",
      "single_word": false,
      "lstrip": false,
      "rstrip": false,
      "normalized": false,
      "special": true
    },
    {
      "id": 58,
      "content": "<sentinel_52>",
      "single_word": false,
      "lstrip": false,
      "rstrip": false,
      "normalized": false,
      "special": true
    },
    {
      "id": 59,
      "content": "<sentinel_53>",
      "single_word": false,
      "lstrip": false,
      "rstrip": false,
      "normalized": false,
      "special": true
    },
    {
      "id": 60,
      "content": "<sentinel_54>",
      "single_word": false,
      "lstrip": false,
      "rstrip": false,
      "normalized": false,
      "special": true
    },
    {
      "id": 61,
      "content": "<sentinel_55>",
      "single_word": false,
      "lstrip": false,
      "rstrip": false,
      "normalized": false,
      "special": true
    },
    {
      "id": 62,
      "content": "<sentinel_56>",
      "single_word": false,
      "lstrip": false,
      "rstrip": false,
      "normalized": false,
      "special": true
    },
    {
      "id": 63,
      "content": "<sentinel_57>",
      "single_word": false,
      "lstrip": false,
      "rstrip": false,
      "normalized": false,
      "special": true
    },
    {
      "id": 64,
      "content": "<sentinel_58>",
      "single_word": false,
      "lstrip": false,
      "rstrip": false,
      "normalized": false,
      "special": true
    },
    {
      "id": 65,
      "content": "<sentinel_59>",
      "single_word": false,
      "lstrip": false,
      "rstrip": false,
      "normalized": false,
      "special": true
    },
    {
      "id": 66,
      "content": "<sentinel_60>",
      "single_word": false,
      "lstrip": false,
      "rstrip": false,
      "normalized": false,
      "special": true
    },
    {
      "id": 67,
      "content": "<sentinel_61>",
      "single_word": false,
      "lstrip": false,
      "rstrip": false,
      "normalized": false,
      "special": true
    },
    {
      "id": 68,
      "content": "<sentinel_62>",
      "single_word": false,
      "lstrip": false,
      "rstrip": false,
      "normalized": false,
      "special": true
    },
    {
      "id": 69,
      "content": "<sentinel_63>",
      "single_word": false,
      "lstrip": false,
      "rstrip": false,
      "normalized": false,
      "special": true
    },
    {
      "id": 70,
      "content": "<sentinel_64>",
      "single_word": false,
      "lstrip": false,
      "rstrip": false,
      "normalized": false,
      "special": true
    },
    {
      "id": 71,
      "content": "<sentinel_65>",
      "single_word": false,
      "lstrip": false,
      "rstrip": false,
      "normalized": false,
      "special": true
    },
    {
      "id": 72,
      "content": "<sentinel_66>",
      "single_word": false,
      "lstrip": false,
      "rstrip": false,
      "normalized": false,
      "special": true
    },
    {
      "id": 73,
      "content": "<sentinel_67>",
      "single_word": false,
      "lstrip": false,
      "rstrip": false,
      "normalized": false,
      "special": true
    },
    {
      "id": 74,
      "content": "<sentinel_68>",
      "single_word": false,
      "lstrip": false,
      "rstrip": false,
      "normalized": false,
      "special": true
    },
    {
      "id": 75,
      "content": "<sentinel_69>",
      "single_word": false,
      "lstrip": false,
      "rstrip": false,
      "normalized": false,
      "special": true
    },
    {
      "id": 76,
      "content": "<sentinel_70>",
      "single_word": false,
      "lstrip": false,
      "rstrip": false,
      "normalized": false,
      "special": true
    },
    {
      "id": 77,
      "content": "<sentinel_71>",
      "single_word": false,
      "lstrip": false,
      "rstrip": false,
      "normalized": false,
      "special": true
    },
    {
      "id": 78,
      "content": "<sentinel_72>",
      "single_word": false,
      "lstrip": false,
      "rstrip": false,
      "normalized": false,
      "special": true
    },
    {
      "id": 79,
      "content": "<sentinel_73>",
      "single_word": false,
      "lstrip": false,
      "rstrip": false,
      "normalized": false,
      "special": true
    },
    {
      "id": 80,
      "content": "<sentinel_74>",
      "single_word": false,
      "lstrip": false,
      "rstrip": false,
      "normalized": false,
      "special": true
    },
    {
      "id": 81,
      "content": "<sentinel_75>",
      "single_word": false,
      "lstrip": false,
      "rstrip": false,
      "normalized": false,
      "special": true
    },
    {
      "id": 82,
      "content": "<sentinel_76>",
      "single_word": false,
      "lstrip": false,
      "rstrip": false,
      "normalized": false,
      "special": true
    },
    {
      "id": 83,
      "content": "<sentinel_77>",
      "single_word": false,
      "lstrip": false,
      "rstrip": false,
      "normalized": false,
      "special": true
    },
    {
      "id": 84,
      "content": "<sentinel_78>",
      "single_word": false,
      "lstrip": false,
      "rstrip": false,
      "normalized": false,
      "special": true
    },
    {
      "id": 85,
      "content": "<sentinel_79>",
      "single_word": false,
      "lstrip": false,
      "rstrip": false,
      "normalized": false,
      "special": true
    },
    {
      "id": 86,
      "content": "<sentinel_80>",
      "single_word": false,
      "lstrip": false,
      "rstrip": false,
      "normalized": false,
      "special": true
    },
    {
      "id": 87,
      "content": "<sentinel_81>",
      "single_word": false,
      "lstrip": false,
      "rstrip": false,
      "normalized": false,
      "special": true
    },
    {
      "id": 88,
      "content": "<sentinel_82>",
      "single_word": false,
      "lstrip": false,
      "rstrip": false,
      "normalized": false,
      "special": true
    },
    {
      "id": 89,
      "content": "<sentinel_83>",
      "single_word": false,
      "lstrip": false,
      "rstrip": false,
      "normalized": false,
      "special": true
    },
    {
      "id": 90,
      "content": "<sentinel_84>",
      "single_word": false,
      "lstrip": false,
      "rstrip": false,
      "normalized": false,
      "special": true
    },
    {
      "id": 91,
      "content": "<sentinel_85>",
      "single_word": false,
      "lstrip": false,
      "rstrip": false,
      "normalized": false,
      "special": true
    },
    {
      "id": 92,
      "content": "<sentinel_86>",
      "single_word": false,
      "lstrip": false,
      "rstrip": false,
      "normalized": false,
      "special": true
    },
    {
      "id": 93,
      "content": "<sentinel_87>",
      "single_word": false,
      "lstrip": false,
      "rstrip": false,
      "normalized": false,
      "special": true
    },
    {
      "id": 94,
      "content": "<sentinel_88>",
      "single_word": false,
      "lstrip": false,
      "rstrip": false,
      "normalized": false,
      "special": true
    },
    {
      "id": 95,
      "content": "<sentinel_89>",
      "single_word": false,
      "lstrip": false,
      "rstrip": false,
      "normalized": false,
      "special": true
    },
    {
      "id": 96,
      "content": "<sentinel_90>",
      "single_word": false,
      "lstrip": false,
      "rstrip": false,
      "normalized": false,
      "special": true
    },
    {
      "id": 97,
      "content": "<sentinel_91>",
      "single_word": false,
      "lstrip": false,
      "rstrip": false,
      "normalized": false,
      "special": true
    },
    {
      "id": 98,
      "content": "<sentinel_92>",
      "single_word": false,
      "lstrip": false,
      "rstrip": false,
      "normalized": false,
      "special": true
    },
    {
      "id": 99,
      "content": "<sentinel_93>",
      "single_word": false,
      "lstrip": false,
      "rstrip": false,
      "normalized": false,
      "special": true
    },
    {
      "id": 100,
      "content": "<sentinel_94>",
      "single_word": false,
      "lstrip": false,
      "rstrip": false,
      "normalized": false,
      "special": true
    },
    {
      "id": 101,
      "content": "<sentinel_95>",
      "single_word": false,
      "lstrip": false,
      "rstrip": false,
      "normalized": false,
      "special": true
    },
    {
      "id": 102,
      "content": "<sentinel_96>",
      "single_word": false,
      "lstrip": false,
      "rstrip": false,
      "normalized": false,
      "special": true
    },
    {
      "id": 103,
      "content": "<sentinel_97>",
      "single_word": false,
      "lstrip": false,
      "rstrip": false,
      "normalized": false,
      "special": true
    },
    {
      "id": 104,
      "content": "<sentinel_98>",
      "single_word": false,
      "lstrip": false,
      "rstrip": false,
      "normalized": false,
      "special": true
    },
    {
      "id": 105,
      "content": "<sentinel_99>",
      "single_word": false,
      "lstrip": false,
      "rstrip": false,
      "normalized": false,
      "special": true
    }
  ],
  "normalizer": {
    "type": "Sequence",
    "normalizers": [
      {
        "type": "NFKC"
      },
      {
        "type": "Strip",
        "strip_left": true,
        "strip_right": true
      }
    ]
  },
  "pre_tokenizer": {
    "type": "ByteLevel",
    "add_prefix_space": true,
    "trim_offsets": true,
    "use_regex": true
  },
  "post_processor": {
    "type": "TemplateProcessing",
    "single": [
      {
        "SpecialToken": {
          "id": "<s>",
          "type_id": 0
        }
      },
      {
        "Sequence": {
          "id": "A",
          "type_id": 0
        }
      },
      {
        "SpecialToken": {
          "id": "</s>",
          "type_id": 0
        }
      }
    ],
    "pair": [
      {
        "SpecialToken": {
          "id": "<s>",
          "type_id": 0
        }
      },
      {
        "Sequence": {
          "id": "A",
          "type_id": 0
        }
      },
      {
        "SpecialToken": {
          "id": "</s>",
          "type_id": 0
        }
      },
      {
        "SpecialToken": {
          "id": "<s>",
          "type_id": 0
        }
      },
      {
        "Sequence": {
          "id": "B",
          "type_id": 0
        }
      },
      {
        "SpecialToken": {
          "id": "</s>",
          "type_id": 0
        }
      }
    ],
    "special_tokens": {
      "</s>": {
        "id": "</s>",
        "ids": [
          3
        ],
        "tokens": [
          "</s>"
        ]
      },
      "<s>": {
        "id": "<s>",
        "ids": [
          2
        ],
        "tokens": [
          "<s>"
        ]
      }
    }
  },
  "decoder": {
    "type": "ByteLevel",
    "add_prefix_space": true,
    "trim_offsets": true,
    "use_regex": true
  },
  "model": {
    "type": "BPE",
    "dropout": null,
    "unk_token": "<unk>",
    "continuing_subword_prefix": null,
    "end_of_word_suffix": null,
    "fuse_unk": false,
    "byte_fallback": false,
    "ignore_merges": false,
    "vocab": {
      "<pad>": 0,
      "<unk>": 1,
      "<s>": 2,
      "</s>": 3,
      "<user>": 4,
      "<assistant>": 5,
      "<sentinel_0>": 6,
      "<sentinel_1>": 7,
      "<sentinel_2>": 8,
      "<sentinel_3>": 9,
      "<sentinel_4>": 10,
      "<sentinel_5>": 11,
      "<sentinel_6>": 12,
      "<sentinel_7>": 13,
      "<sentinel_8>": 14,
      "<sentinel_9>": 15,
      "<sentinel_10>": 16,
      "<sentinel_11>": 17,
      "<sentinel_12>": 18,
      "<sentinel_13>": 19,
      "<sentinel_14>": 20,
      "<sentinel_15>": 21,
      "<sentinel_16>": 22,
      "<sentinel_17>": 23,
      "<sentinel_18>": 24,
      "<sentinel_19>": 25,
      "<sentinel_20>": 26,
      "<sentinel_21>": 27,
      "<sentinel_22>": 28,
      "<sentinel_23>": 29,
      "<sentinel_24>": 30,
      "<sentinel_25>": 31,
      "<sentinel_26>": 32,
      "<sentinel_27>": 33,
      "<sentinel_28>": 34,
      "<sentinel_29>": 35,
      "<sentinel_30>": 36,
      "<sentinel_31>": 37,
      "<sentinel_32>": 38,
      "<sentinel_33>": 39,
      "<sentinel_34>": 40,
      "<sentinel_35>": 41,
      "<sentinel_36>": 42,
      "<sentinel_37>": 43,
      "<sentinel_38>": 44,
      "<sentinel_39>": 45,
      "<sentinel_40>": 46,
      "<sentinel_41>": 47,
      "<sentinel_42>": 48,
      "<sentinel_43>": 49,
      "<sentinel_44>": 50,
      "<sentinel_45>": 51,
      "<sentinel_46>": 52,
      "<sentinel_47>": 53,
      "<sentinel_48>": 54,
      "<sentinel_49>": 55,
      "<sentinel_50>": 56,
      "<sentinel_51>": 57,
      "<sentinel_52>": 58,
      "<sentinel_53>": 59,
      "<sentinel_54>": 60,
      "<sentinel_55>": 61,
      "<sentinel_56>": 62,
      "<sentinel_57>": 63,
      "<sentinel_58>": 64,
      "<sentinel_59>": 65,
      "<sentinel_60>": 66,
      "<sentinel_61>": 67,
      "<sentinel_62>": 68,
      "<sentinel_63>": 69,
      "<sentinel_64>": 70,
      "<sentinel_65>": 71,
      "<sentinel_66>": 72,
      "<sentinel_67>": 73,
      "<sentinel_68>": 74,
      "<sentinel_69>": 75,
      "<sentinel_70>": 76,
      "<sentinel_71>": 77,
      "<sentinel_72>": 78,
      "<sentinel_73>": 79,
      "<sentinel_74>": 80,
      "<sentinel_75>": 81,
      "<sentinel_76>": 82,
      "<sentinel_77>": 83,
      "<sentinel_78>": 84,
      "<sentinel_79>": 85,
      "<sentinel_80>": 86,
      "<sentinel_81>": 87,
      "<sentinel_82>": 88,
      "<sentinel_83>": 89,
      "<sentinel_84>": 90,
      "<sentinel_85>": 91,
      "<sentinel_86>": 92,
      "<sentinel_87>": 93,
      "<sentinel_88>": 94,
      "<sentinel_89>": 95,
      "<sentinel_90>": 96,
      "<sentinel_91>": 97,
      "<sentinel_92>": 98,
      "<sentinel_93>": 99,
      "<sentinel_94>": 100,
      "<sentinel_95>": 101,
      "<sentinel_96>": 102,
      "<sentinel_97>": 103,
      "<sentinel_98>": 104,
      "<sentinel_99>": 105,
      "!": 106,
      "\"": 107,
      "#": 108,
      "$": 109,
      "%": 110,
      "&": 111,
      "'": 112,
      "(": 113,
      ")": 114,
      "*": 115,
      "+": 116,
      ",": 117,
      "-": 118,
      ".": 119,
      "/": 120,
      "0": 121,
      "1": 122,
      "2": 123,
      "3": 124,
      "4": 125,
      "5": 126,
      "6": 127,
      "7": 128,
      "8": 129,
      "9": 130,
      ":": 131,
      ";": 132,
      "<": 133,
      "=": 134,
      ">": 135,
      "?": 136,
      "@": 137,
      "A": 138,
      "B": 139,
      "C": 140,
      "D": 141,
      "E": 142,
      "F": 143,
      "G": 144,
      "H": 145,
      "I": 146,
      "J": 147,
      "K": 148,
      "L": 149,
      "M": 150,
      "N": 151,
      "O": 152,
      "P": 153,
      "Q": 154,
      "R": 155,
      "S": 156,
      "T": 157,
      "U": 158,
      "V": 159,
      "W": 160,
      "X": 161,
      "Y": 162,
      "Z": 163,
      "[": 164,
      "\\": 165,
      "]": 166,
      "^": 167,
      "_": 168,
      "`": 169,
      "a": 170,
      "b": 171,
      "c": 172,
      "d": 173,
      "e": 174,
      "f": 175,
      "g": 176,
      "h": 177,
      "i": 178,
      "j": 179,
      "k": 180,
      "l": 181,
      "m": 182,
      "n": 183,
      "o": 184,
      "p": 185,
      "q": 186,
      "r": 187,
      "s": 188,
      "t": 189,
      "u": 190,
      "v": 191,
      "w": 192,
      "x": 193,
      "y": 194,
      "z": 195,
      "{": 196,
      "|": 197,
      "}": 198,
      "~": 199,
      "¡": 200,
      "¢": 201,
      "£": 202,
      "¤": 203,
      "¥": 204,
      "¦": 205,
      "§": 206,
      "¨": 207,
      "©": 208,
      "ª": 209,
      "«": 210,
      "¬": 211,
      "®": 212,
      "¯": 213,
      "°": 214,
      "±": 215,
      "²": 216,
      "³": 217,
      "´": 218,
      "µ": 219,
      "¶": 220,
      "·": 221,
      "¸": 222,
      "¹": 223,
      "º": 224,
      "»": 225,
      "¼": 226,
      "½": 227,
      "¾": 228,
      "¿": 229,
      "Â": 230,
      "Ã": 231,
      "Ä": 232,
      "Å": 233,
      "Æ": 234,
      "Ç": 235,
      "È": 236,
      "É": 237,
      "Ê": 238,
      "Ë": 239,
      "Ì": 240,
      "Í": 241,
      "Î": 242,
      "Ï": 243,
      "Ð": 244,
      "Ñ": 245,
      "Ò": 246,
      "Ó": 247,
      "Ô": 248,
      "Õ": 249,
      "Ö": 250,
      "×": 251,
      "Ø": 252,
      "Ù": 253,
      "Ú": 254,
      "Û": 255,
      "Ü": 256,
      "Ý": 257,
      "Þ": 258,
      "ß": 259,
      "à": 260,
      "á": 261,
      "â": 262,
      "ã": 263,
      "ä": 264,
      "å": 265,
      "æ": 266,
      "ç": 267,
      "è": 268,
      "é": 269,
      "ê": 270,
      "ë": 271,
      "ì": 272,
      "í": 273,
      "î": 274,
      "ï": 275,
      "ð": 276,
      "ò": 277,
      "ó": 278,
      "ô": 279,
      "ĉ": 280,
      "Ġ": 281,
      "Ģ": 282,
      "ģ": 283,
      "Ĥ": 284,
      "ĥ": 285,
      "Ħ": 286,
      "ħ": 287,
      "Ĩ": 288,
      "ĩ": 289,
      "Ī": 290,
      "ī": 291,
      "Ĭ": 292,
      "ĭ": 293,
      "Į": 294,
      "į": 295,
      "İ": 296,
      "ı": 297,
      "Ĳ": 298,
      "ĳ": 299,
      "Ĵ": 300,
      "ĵ": 301,
      "Ķ": 302,
      "ķ": 303,
      "ĸ": 304,
      "Ĺ": 305,
      "ĺ": 306,
      "Ļ": 307,
      "ļ": 308,
      "Ľ": 309,
      "ľ": 310,
      "Ŀ": 311,
      "ŀ": 312,
      "Ł": 313,
      "ł": 314,
      "Ń": 315,
      "Ġt": 316,
      "in": 317,
      "Ġa": 318,
      "he": 319,
      "on": 320,
      "re": 321,
      "er": 322,
      "at": 323,
      "Ġthe": 324,
      "Ġs": 325,
      "or": 326,
      "en": 327,
      "Ġc": 328,
      "it": 329,
      "es": 330,
      "Ġw": 331,
      "is": 332,
      "an": 333,
      "Ġo": 334,
      "al": 335,
      "Ġf": 336,
      "ar": 337,
      "Ġp": 338,
      "ing": 339,
      "ed": 340,
      "Ġb": 341,
      "nd": 342,
      "ou": 343,
      "ion": 344,
      "Ġin": 345,
      "le": 346,
      "ic": 347,
      "Ġof": 348,
      "Ġm": 349,
      "Ġto": 350,
      "as": 351,
      "Ġd": 352,
      "Ġand": 353,
      "ro": 354,
      "Ġh": 355,
      "et": 356,
      "ent": 357,
      "ct": 358,
      "Ġth": 359,
      "st": 360,
      "el": 361,
      "il": 362,
      "om": 363,
      "Ġre": 364,
      "ĠT": 365,
      "Ġn": 366,
      "Ġl": 367,
      "ĠS": 368,
      "id": 369,
      "am": 370,
      "Ġe": 371,
      "ĠI": 372,
      "ĠA": 373,
      "ut": 374,
      "im": 375,
      "ig": 376,
      "ol": 377,
      "ot": 378,
      "ĠC": 379,
      "Ġg": 380,
      "ve": 381,
      "ur": 382,
      "ce": 383,
      "ation": 384,
      "Ġis": 385,
      "ad": 386,
      "se": 387,
      "ĠĠ": 388,
      "Ġfor": 389,
      "ow": 390,
      "Ġ\\": 391,
      "ch": 392,
      "ay": 393,
      "ly": 394,
      "Ġon": 395,
      "Ġbe": 396,
      "ver": 397,
      "Ġ(": 398,
      "Ġst": 399,
      "ĠM": 400,
      "Ġu": 401,
      "ul": 402,
      "if": 403,
      "Ġthat": 404,
      "ra": 405,
      "ith": 406,
      "Ġy": 407,
      "ĠP": 408,
      "ĠB": 409,
      "od": 410,
      "ir": 411,
      "Ġ$": 412,
      "ag": 413,
      "ĠThe": 414,
      "ter": 415,
      "em": 416,
      "Ġ=": 417,
      "Ġwith": 418,
      "ate": 419,
      "Ġcon": 420,
      "ab": 421,
      "um": 422,
      "Ġas": 423,
      "Ġ\"": 424,
      "ri": 425,
      "ĠW": 426,
      "Ġv": 427,
      "pe": 428,
      "ĠD": 429,
      "her": 430,
      "Ġ1": 431,
      "qu": 432,
      "Ġit": 433,
      "ĠH": 434,
      "ĠF": 435,
      "ĠR": 436,
      "Ġan": 437,
      "ck": 438,
      "est": 439,
      "Ġal": 440,
      "Ġpro": 441,
      "Ġyou": 442,
      "ist": 443,
      "'s": 444,
      "Ġ2": 445,
      "th": 446,
      "Ġwh": 447,
      "ers": 448,
      "ew": 449,
      "Ġ<": 450,
      "un": 451,
      "us": 452,
      "ess": 453,
      "ĠL": 454,
      ");": 455,
      "ht": 456,
      "Ġwe": 457,
      "ill": 458,
      "res": 459,
      "Ġ{": 460,
      "pp": 461,
      "and": 462,
      "ĠN": 463,
      "end": 464,
      "pt": 465,
      "ĠE": 466,
      "Ġhe": 467,
      "Ġde": 468,
      "ort": 469,
      "nt": 470,
      "Ġcom": 471,
      "Ġex": 472,
      "ction": 473,
      "ke": 474,
      "Ġ}": 475,
      "ore": 476,
      "ity": 477,
      "Ġare": 478,
      "ĠG": 479,
      "Ġat": 480,
      "--": 481,
      "Ġor": 482,
      "os": 483,
      "ub": 484,
      "rom": 485,
      "iv": 486,
      "ld": 487,
      "ment": 488,
      "op": 489,
      "ex": 490,
      "Ġwas": 491,
      "ain": 492,
      "art": 493,
      "00": 494,
      "ĠĠĠĠ": 495,
      "Ġby": 496,
      "Ġr": 497,
      "ass": 498,
      "//": 499,
      "..": 500,
      "Ġthis": 501,
      "ĠO": 502,
      "Ġse": 503,
      "ant": 504,
      "ame": 505,
      "Ġha": 506,
      "=\"": 507,
      "ight": 508,
      "ies": 509,
      "ure": 510,
      "lo": 511,
      "ive": 512,
      "Ġfrom": 513,
      "ue": 514,
      "Ġ*": 515,
      "all": 516,
      "ect": 517,
      "ĠJ": 518,
      "oc": 519,
      "ust": 520,
      "ud": 521,
      "ial": 522,
      "Ġnot": 523,
      "ine": 524,
      "our": 525,
      "Ġsh": 526,
      "age": 527,
      "per": 528,
      "Ġcl": 529,
      "Ġch": 530,
      "ge": 531,
      "ath": 532,
      "iz": 533,
      "out": 534,
      "Ġhave": 535,
      "red": 536,
      "ard": 537,
      "ac": 538,
      "rou": 539,
      "Ġle": 540,
      "pl": 541,
      "ĠU": 542,
      "_{": 543,
      "ff": 544,
      "ap": 545,
      "ost": 546,
      "ack": 547,
      "Ġim": 548,
      "ell": 549,
      "og": 550,
      "ould": 551,
      "Ġif": 552,
      "Ġint": 553,
      "ult": 554,
      "cl": 555,
      "able": 556,
      "Ġcan": 557,
      "ĠIn": 558,
      "ast": 559,
      "Ġsu": 560,
      "Ġ'": 561,
      "01": 562,
      "urn": 563,
      "ide": 564,
      "ome": 565,
      "Ġj": 566,
      "ok": 567,
      "ak": 568,
      "ind": 569,
      "orm": 570,
      "Ġab": 571,
      "</": 572,
      "**": 573,
      "ber": 574,
      "Ġwor": 575,
      "ice": 576,
      "ans": 577,
      "port": 578,
      "ite": 579,
      "ĠSt": 580,
      "ated": 581,
      "()": 582,
      "ary": 583,
      "ich": 584,
      "ear": 585,
      "Ġus": 586,
      "Ġwhe": 587,
      "ĠTh": 588,
      "Ġpl": 589,
      "Ġall": 590,
      "ext": 591,
      "Ġhas": 592,
      "ry": 593,
      "lic": 594,
      "int": 595,
      "Ġ&": 596,
      "con": 597,
      "eg": 598,
      "Ġwill": 599,
      "Ġk": 600,
      "ip": 601,
      "ime": 602,
      "ong": 603,
      "ical": 604,
      "are": 605,
      "av": 606,
      "ase": 607,
      "ring": 608,
      "ions": 609,
      "Ġres": 610,
      "cc": 611,
      "Ġ//": 612,
      "ile": 613,
      "ign": 614,
      "Ġcomp": 615,
      "ph": 616,
      "act": 617,
      "ĠK": 618,
      "Ġcont": 619,
      "Ġad": 620,
      "ther": 621,
      "âĢ": 622,
      "ep": 623,
      "Ġdo": 624,
      "ace": 625,
      "\">": 626,
      "Ġen": 627,
      "get": 628,
      "Ġ-": 629,
      "one": 630,
      "ia": 631,
      "ance": 632,
      "ere": 633,
      "Ġret": 634,
      "Ġgo": 635,
      "ous": 636,
      "ib": 637,
      "{\\": 638,
      "ru": 639,
      "Ġbut": 640,
      "ĠV": 641,
      "Ġout": 642,
      "Ġnew": 643,
      "ations": 644,
      "ire": 645,
      "Ġme": 646,
      "gh": 647,
      "ord": 648,
      "Ġhis": 649,
      "math": 650,
      "Ġ$\\": 651,
      "Ġtr": 652,
      "Ġwhich": 653,
      "ang": 654,
      "ef": 655,
      "Ġclass": 656,
      "ail": 657,
      "ition": 658,
      "Ġun": 659,
      "Ġyour": 660,
      "ref": 661,
      "ype": 662,
      "Ġtheir": 663,
      "----": 664,
      "com": 665,
      "Ġ0": 666,
      "du": 667,
      "form": 668,
      "ild": 669,
      "Ġthey": 670,
      "ook": 671,
      "ject": 672,
      "Ġup": 673,
      "ens": 674,
      "ata": 675,
      "so": 676,
      "Ġone": 677,
      "'t": 678,
      "ount": 679,
      ").": 680,
      "erv": 681,
      "ence": 682,
      "ake": 683,
      "Ġ201": 684,
      "Ġar": 685,
      "ory": 686,
      "ach": 687,
      "ents": 688,
      "Ġ3": 689,
      "ally": 690,
      "Ġreturn": 691,
      "Ġmore": 692,
      "Ġso": 693,
      "sp": 694,
      "au": 695,
      "ublic": 696,
      "ress": 697,
      "Ġne": 698,
      "St": 699,
      "ĠY": 700,
      "very": 701,
      "ode": 702,
      "ll": 703,
      "row": 704,
      "Ġwho": 705,
      "),": 706,
      "ĠCh": 707,
      "ie": 708,
      "ft": 709,
      "==": 710,
      "Ġqu": 711,
      "Ġper": 712,
      "ark": 713,
      "Ġdis": 714,
      "vel": 715,
      "own": 716,
      "Ġev": 717,
      "Ġman": 718,
      "ption": 719,
      "elf": 720,
      "ĠIt": 721,
      "ont": 722,
      "Ġabout": 723,
      "Ġget": 724,
      "ree": 725,
      "li": 726,
      "ors": 727,
      "ert": 728,
      "Ġsc": 729,
      "Ġsa": 730,
      "ound": 731,
      "Ġsp": 732,
      "Ġli": 733,
      "Ġother": 734,
      "Ġwork": 735,
      "Ġpart": 736,
      "ely": 737,
      "ĠĠĠĠĠĠĠĠ": 738,
      "vers": 739,
      "Ġapp": 740,
      "ĠâĢ": 741,
      "ove": 742,
      "Ġwere": 743,
      "te": 744,
      "Ġour": 745,
      "Ġpublic": 746,
      "ne": 747,
      "ink": 748,
      "ma": 749,
      "ick": 750,
      "ĠWe": 751,
      "alue": 752,
      "Ġhad": 753,
      "Ġalso": 754,
      "ob": 755,
      "iew": 756,
      "Ġher": 757,
      "ays": 758,
      "Ġag": 759,
      "Ġbeen": 760,
      "Ġoff": 761,
      "Ġ[": 762,
      "reat": 763,
      "Ġyear": 764,
      "Ġtime": 765,
      "Ġ#": 766,
      "old": 767,
      "}}": 768,
      "ull": 769,
      "Ġover": 770,
      "ps": 771,
      "pro": 772,
      "Ġ</": 773,
      "ple": 774,
      "irst": 775,
      "ov": 776,
      "Ġits": 777,
      "Ġmy": 778,
      "ĠThis": 779,
      ".\"": 780,
      "ings": 781,
      "Ġany": 782,
      "oll": 783,
      "::": 784,
      "ose": 785,
      "clud": 786,
      "Ġ/": 787,
      "ec": 788,
      "ian": 789,
      "pect": 790,
      "mer": 791,
      "Ġ@": 792,
      "rib": 793,
      "Ġ19": 794,
      "eth": 795,
      "ric": 796,
      "Ġthere": 797,
      "\",": 798,
      "Ġwhen": 799,
      "ces": 800,
      "tern": 801,
      "ish": 802,
      "->": 803,
      "ates": 804,
      "Ġ+": 805,
      "Ġte": 806,
      "Ġwould": 807,
      "Ġimport": 808,
      "unction": 809,
      "Ġdef": 810,
      "ize": 811,
      "ss": 812,
      "Ġro": 813,
      "wo": 814,
      "Ġthem": 815,
      "Ġ4": 816,
      "ĠHe": 817,
      "Ġsome": 818,
      "ool": 819,
      "ener": 820,
      "ual": 821,
      "Ġset": 822,
      "Ġkn": 823,
      "}$": 824,
      "pon": 825,
      "nder": 826,
      "Ġthan": 827,
      "Ġpe": 828,
      "^{": 829,
      "aram": 830,
      "rit": 831,
      "yst": 832,
      "we": 833,
      "che": 834,
      "}\\": 835,
      "Ġpre": 836,
      "iel": 837,
      "lect": 838,
      "pec": 839,
      "Ġinto": 840,
      "Ġdes": 841,
      "Ġacc": 842,
      "Ġno": 843,
      "Ġind": 844,
      "iff": 845,
      "oint": 846,
      "tt": 847,
      "Ġrec": 848,
      "Ġvar": 849,
      "Ġ5": 850,
      "Ġass": 851,
      "In": 852,
      "Ġlike": 853,
      "ade": 854,
      "ork": 855,
      "ram": 856,
      "Ġob": 857,
      "fter": 858,
      "Ġcomm": 859,
      "put": 860,
      "sc": 861,
      "Ġwhat": 862,
      "equ": 863,
      "(\"": 864,
      "Ġ.": 865,
      "ield": 866,
      "Ġshe": 867,
      "Ġfirst": 868,
      "ystem": 869,
      "igh": 870,
      "ater": 871,
      "();": 872,
      "ople": 873,
      "ng": 874,
      "Ġsaid": 875,
      "aw": 876,
      "...": 877,
      "iss": 878,
      "ious": 879,
      "',": 880,
      "Ġconst": 881,
      "erm": 882,
      "ys": 883,
      "Ġbec": 884,
      "(\\": 885,
      "Ġfe": 886,
      "Ġonly": 887,
      "Ġjust": 888,
      "les": 889,
      "riv": 890,
      "Ġadd": 891,
      "fig": 892,
      "ĠUn": 893,
      "Ġwhere": 894,
      "Ġbet": 895,
      "Ġmod": 896,
      "ics": 897,
      "Ġ_": 898,
      "cess": 899,
      "ER": 900,
      "ise": 901,
      "ific": 902,
      "ning": 903,
      "Ġ:": 904,
      "sh": 905,
      "ix": 906,
      "Ġtwo": 907,
      "ev": 908,
      "cre": 909,
      "round": 910,
      "ange": 911,
      "ient": 912,
      "ĠWh": 913,
      "Ġfin": 914,
      "Ġtra": 915,
      "Ġhow": 916,
      "up": 917,
      "Ġsub": 918,
      "ities": 919,
      "ĠâĢĵ": 920,
      "ational": 921,
      "Ġfunction": 922,
      "egin": 923,
      "set": 924,
      "Ġpeople": 925,
      "02": 926,
      "ced": 927,
      "Ġem": 928,
      "****": 929,
      "cal": 930,
      "Ġcons": 931,
      "Ġunder": 932,
      "ty": 933,
      "ax": 934,
      "line": 935,
      "Ġprov": 936,
      "ause": 937,
      "io": 938,
      "Ġam": 939,
      "Ġneed": 940,
      "rough": 941,
      "Ġco": 942,
      "Ġact": 943,
      "ments": 944,
      "_{\\": 945,
      "Ġuse": 946,
      "Ġend": 947,
      "ray": 948,
      "ĠCom": 949,
      "als": 950,
      "begin": 951,
      "Ġreg": 952,
      "pr": 953,
      "Ġinv": 954,
      "Ġatt": 955,
      "ident": 956,
      "Ġbu": 957,
      "abel": 958,
      "Ġdiff": 959,
      ",\"": 960,
      "text": 961,
      "ating": 962,
      "oid": 963,
      "Ġmay": 964,
      "err": 965,
      "--------": 966,
      "ular": 967,
      "Ġinclud": 968,
      "Ġcol": 969,
      "ict": 970,
      "hed": 971,
      "to": 972,
      "Ġback": 973,
      "Ġpos": 974,
      "pport": 975,
      "Ġname": 976,
      "olog": 977,
      "ility": 978,
      "oth": 979,
      "tr": 980,
      "ative": 981,
      "Ġrequ": 982,
      "Ġmost": 983,
      "ĠPro": 984,
      "ons": 985,
      "ful": 986,
      "rac": 987,
      "Ġthese": 988,
      "ues": 989,
      "ta": 990,
      "ough": 991,
      "ug": 992,
      ")$": 993,
      "ble": 994,
      "ond": 995,
      "ting": 996,
      "Ġthrough": 997,
      "ied": 998,
      "wn": 999,
      "roup": 1000,
      "Ġthen": 1001,
      "Ġ|": 1002,
      "atch": 1003,
      "Ġinst": 1004,
      "arch": 1005,
      "ution": 1006,
      "('": 1007,
      "ood": 1008,
      "the": 1009,
      "Ġrel": 1010,
      "ible": 1011,
      "ased": 1012,
      "Ġ6": 1013,
      "right": 1014,
      "Ġpr": 1015,
      "umber": 1016,
      "ward": 1017,
      "Ġstud": 1018,
      "pos": 1019,
      "Ġph": 1020,
      "Ġknow": 1021,
      "Ġstat": 1022,
      "Ġsuch": 1023,
      "ank": 1024,
      "Ġke": 1025,
      "ĠFor": 1026,
      "Ġsee": 1027,
      "Ġtrans": 1028,
      "Ex": 1029,
      "Ġrem": 1030,
      "ars": 1031,
      "ures": 1032,
      "ract": 1033,
      "arg": 1034,
      "rm": 1035,
      "span": 1036,
      "Ġcould": 1037,
      "Ġdata": 1038,
      "ock": 1039,
      "Ġafter": 1040,
      "its": 1041,
      "imes": 1042,
      "},": 1043,
      "ource": 1044,
      "Ġprodu": 1045,
      "Ġel": 1046,
      "))": 1047,
      "Ġent": 1048,
      "ash": 1049,
      "mathb": 1050,
      "ator": 1051,
      "ĠSe": 1052,
      "div": 1053,
      "Ġ200": 1054,
      "urre": 1055,
      "Ġinter": 1056,
      "ĠNew": 1057,
      "Ġwell": 1058,
      "Ġhim": 1059,
      "und": 1060,
      "ower": 1061,
      "ON": 1062,
      "ĠAnd": 1063,
      "ily": 1064,
      "app": 1065,
      "nce": 1066,
      "read": 1067,
      "Ġresult": 1068,
      "Ġmake": 1069,
      "ollow": 1070,
      "ĠIf": 1071,
      "ruct": 1072,
      "cy": 1073,
      "Ġyears": 1074,
      "Ġevery": 1075,
      "ices": 1076,
      "Ġfl": 1077,
      "ĠAn": 1078,
      "IN": 1079,
      "name": 1080,
      "Ġcall": 1081,
      "Ġserv": 1082,
      "uth": 1083,
      "Ġshow": 1084,
      "Ġpol": 1085,
      "Ġ*/": 1086,
      "Ġshould": 1087,
      "ox": 1088,
      "Ġlook": 1089,
      "day": 1090,
      "ife": 1091,
      "Ġhel": 1092,
      "Ġpres": 1093,
      "Ġspec": 1094,
      "ner": 1095,
      "Ġform": 1096,
      "uring": 1097,
      "eng": 1098,
      "irect": 1099,
      "ited": 1100,
      "ml": 1101,
      "ĠAs": 1102,
      "Ġi": 1103,
      "Ġnow": 1104,
      "Ġac": 1105,
      "Ġeff": 1106,
      "ĠAl": 1107,
      "://": 1108,
      "self": 1109,
      "any": 1110,
      "ĠYou": 1111,
      "uch": 1112,
      "../": 1113,
      "Ġsm": 1114,
      "ton": 1115,
      "Ġlong": 1116,
      "====": 1117,
      "Name": 1118,
      "ts": 1119,
      "Ġwant": 1120,
      "Ġdiffere": 1121,
      "air": 1122,
      "Ġloc": 1123,
      "Ġplay": 1124,
      "Ġmany": 1125,
      "ead": 1126,
      "ĠAr": 1127,
      "ym": 1128,
      "ute": 1129,
      "Ġra": 1130,
      "Ġ10": 1131,
      "Ġright": 1132,
      "Ġ7": 1133,
      "Ġself": 1134,
      "erson": 1135,
      "hen": 1136,
      "velop": 1137,
      "Ġvery": 1138,
      "vent": 1139,
      "Ġsim": 1140,
      "ek": 1141,
      "Ġdet": 1142,
      "ethod": 1143,
      "Ġext": 1144,
      "over": 1145,
      "eq": 1146,
      "ined": 1147,
      "ins": 1148,
      "ince": 1149,
      "der": 1150,
      "led": 1151,
      "Ġvalue": 1152,
      "Ġdid": 1153,
      "Pro": 1154,
      "aking": 1155,
      "Ġeven": 1156,
      "Ġway": 1157,
      "ement": 1158,
      "RE": 1159,
      "other": 1160,
      "ween": 1161,
      "Ġstart": 1162,
      "of": 1163,
      "Ġfollow": 1164,
      "Ġexper": 1165,
      "10": 1166,
      "itt": 1167,
      "ctions": 1168,
      "ames": 1169,
      "raph": 1170,
      "label": 1171,
      "Ġused": 1172,
      "Ġbecause": 1173,
      "Ġtype": 1174,
      "ivers": 1175,
      "}{": 1176,
      "yn": 1177,
      "lock": 1178,
      "ience": 1179,
      "Ġgener": 1180,
      "String": 1181,
      "The": 1182,
      "ature": 1183,
      "Ġ8": 1184,
      "19": 1185,
      "Ġorg": 1186,
      "ĠSh": 1187,
      "Type": 1188,
      "amp": 1189,
      "formation": 1190,
      "Ġagain": 1191,
      "cond": 1192,
      "Ġdec": 1193,
      "Ġcase": 1194,
      "Id": 1195,
      "Ġref": 1196,
      "pen": 1197,
      "iness": 1198,
      "Ġcor": 1199,
      "Ġsystem": 1200,
      "ages": 1201,
      "urrent": 1202,
      "ST": 1203,
      "ale": 1204,
      "Ġbetween": 1205,
      "ember": 1206,
      "ĠBut": 1207,
      "ms": 1208,
      "Ġown": 1209,
      "ann": 1210,
      "Ġhelp": 1211,
      "ets": 1212,
      "cite": 1213,
      "fore": 1214,
      "ery": 1215,
      "000": 1216,
      "ĠEx": 1217,
      "alth": 1218,
      "ines": 1219,
      "Ġread": 1220,
      "frac": 1221,
      "ave": 1222,
      "this": 1223,
      "let": 1224,
      "Ġsur": 1225,
      "ists": 1226,
      "els": 1227,
      "view": 1228,
      "ren": 1229,
      "Ġhigh": 1230,
      "param": 1231,
      "ception": 1232,
      "Ġeach": 1233,
      "Ġusing": 1234,
      "ĠQ": 1235,
      "cent": 1236,
      "201": 1237,
      "Ġbeing": 1238,
      "AT": 1239,
      "eb": 1240,
      "Ġmin": 1241,
      "Ġcre": 1242,
      "ized": 1243,
      "eta": 1244,
      "Ġcount": 1245,
      "__": 1246,
      "land": 1247,
      "Ġdist": 1248,
      "Ġdoes": 1249,
      "chool": 1250,
      "Ġpoint": 1251,
      "alk": 1252,
      "Ġgr": 1253,
      "Ġchar": 1254,
      "Ġvoid": 1255,
      "ĠAd": 1256,
      "oy": 1257,
      "anc": 1258,
      "Ġgu": 1259,
      "ason": 1260,
      "Ġgood": 1261,
      "Ġbefore": 1262,
      "Ġdown": 1263,
      "Ġ9": 1264,
      "Ġbl": 1265,
      "Ġval": 1266,
      "ask": 1267,
      "min": 1268,
      "fo": 1269,
      "ier": 1270,
      "Ġworld": 1271,
      "Ġthink": 1272,
      "Ġbel": 1273,
      "sum": 1274,
      "Ġthose": 1275,
      "Ġmon": 1276,
      "ives": 1277,
      "Ġfind": 1278,
      "Ġstr": 1279,
      "ody": 1280,
      "ght": 1281,
      "Ġed": 1282,
      "Ġmuch": 1283,
      "Ġhand": 1284,
      "Ġtest": 1285,
      "essage": 1286,
      "Con": 1287,
      "Cont": 1288,
      "Ġart": 1289,
      "Ġmade": 1290,
      "mathcal": 1291,
      "gram": 1292,
      "Ġfil": 1293,
      "></": 1294,
      "Ġser": 1295,
      "ele": 1296,
      "ten": 1297,
      "ather": 1298,
      "usiness": 1299,
      "oun": 1300,
      ",\\": 1301,
      "Ġgreat": 1302,
      "Ġsign": 1303,
      "....": 1304,
      "ww": 1305,
      "Ġdon": 1306,
      "$.": 1307,
      "Ġwhile": 1308,
      "ider": 1309,
      "ern": 1310,
      "oci": 1311,
      "'re": 1312,
      "ered": 1313,
      "Ġpriv": 1314,
      "Ġexp": 1315,
      "son": 1316,
      "ript": 1317,
      "uss": 1318,
      "meric": 1319,
      "ouse": 1320,
      "Ġ`": 1321,
      "man": 1322,
      "ID": 1323,
      "Ġdifferent": 1324,
      "Ġsame": 1325,
      "):": 1326,
      "$,": 1327,
      "Ġnumber": 1328,
      "Ġhere": 1329,
      "ĠHow": 1330,
      "alse": 1331,
      "ret": 1332,
      "Ġdevelop": 1333,
      "Ġdisc": 1334,
      "Ġfam": 1335,
      "gy": 1336,
      "Ġlead": 1337,
      "cept": 1338,
      "Ġ202": 1339,
      "ĠTr": 1340,
      "ault": 1341,
      "Ġlast": 1342,
      "ote": 1343,
      "ired": 1344,
      "Ġche": 1345,
      "ots": 1346,
      "ĠCon": 1347,
      "hip": 1348,
      "val": 1349,
      "way": 1350,
      "Ġmed": 1351,
      "ache": 1352,
      "ĠCl": 1353,
      "arn": 1354,
      "Ġsupport": 1355,
      "ever": 1356,
      "><": 1357,
      "chn": 1358,
      "oh": 1359,
      "ism": 1360,
      "Ġboth": 1361,
      "ah": 1362,
      "ically": 1363,
      "OR": 1364,
      "Ġ///": 1365,
      "ision": 1366,
      "})": 1367,
      "Ġav": 1368,
      "yp": 1369,
      "12": 1370,
      "Ġfound": 1371,
      "amb": 1372,
      "Ġap": 1373,
      "ream": 1374,
      "Ġequ": 1375,
      "gg": 1376,
      "EN": 1377,
      "Ġnull": 1378,
      "ters": 1379,
      "col": 1380,
      "ared": 1381,
      "Ġprocess": 1382,
      "Ġ==": 1383,
      "Ġtake": 1384,
      "Ġappro": 1385,
      "ality": 1386,
      "add": 1387,
      "ually": 1388,
      "ey": 1389,
      "ology": 1390,
      "left": 1391,
      "Ġlist": 1392,
      "Ġrep": 1393,
      "ument": 1394,
      "Ġsol": 1395,
      "}.": 1396,
      "Ġmark": 1397,
      "ĠShe": 1398,
      "ĠAmeric": 1399,
      "ness": 1400,
      "sub": 1401,
      "Ġelse": 1402,
      "Ġ!": 1403,
      "ĠInd": 1404,
      "fl": 1405,
      "Ġbo": 1406,
      "AR": 1407,
      "ĠDe": 1408,
      "ample": 1409,
      "uc": 1410,
      "Ġx": 1411,
      "Ġsom": 1412,
      "ole": 1413,
      "List": 1414,
      "ization": 1415,
      "AS": 1416,
      "ser": 1417,
      "Ġstate": 1418,
      "ccess": 1419,
      "az": 1420,
      "Ġinformation": 1421,
      "tain": 1422,
      "Com": 1423,
      "work": 1424,
      "Ġfact": 1425,
      "ross": 1426,
      "ven": 1427,
      "Ġcar": 1428,
      "inal": 1429,
      "par": 1430,
      "Ġchild": 1431,
      "LE": 1432,
      "Ġdep": 1433,
      "Ġ/**": 1434,
      "ants": 1435,
      "itle": 1436,
      "idth": 1437,
      "Ġcent": 1438,
      "Ġperson": 1439,
      "Ġprivate": 1440,
      "Ġday": 1441,
      "Ġtrue": 1442,
      "Ġthree": 1443,
      "Ġcommun": 1444,
      "equation": 1445,
      ".,": 1446,
      "Res": 1447,
      "~\\": 1448,
      "type": 1449,
      "}(": 1450,
      "akes": 1451,
      "ĠZ": 1452,
      "org": 1453,
      "ense": 1454,
      "Ġpartic": 1455,
      "Ġbest": 1456,
      "Ġoper": 1457,
      "##": 1458,
      "ĠIs": 1459,
      "iven": 1460,
      "Ġrespon": 1461,
      "code": 1462,
      "../../": 1463,
      "Ġele": 1464,
      "Ġstill": 1465,
      "Ġerr": 1466,
      "Ġrun": 1467,
      "ĠTo": 1468,
      "Ġ--": 1469,
      "iversity": 1470,
      "ĠThere": 1471,
      "att": 1472,
      "Ġlife": 1473,
      "ral": 1474,
      "Ġaround": 1475,
      "Ġins": 1476,
      "Ġcontin": 1477,
      "ital": 1478,
      "esc": 1479,
      "ptions": 1480,
      "}_": 1481,
      "Ġexpect": 1482,
      "arm": 1483,
      "}^": 1484,
      "Ġ18": 1485,
      "lear": 1486,
      "rid": 1487,
      "eter": 1488,
      "arent": 1489,
      "Ġ12": 1490,
      "yle": 1491,
      "ural": 1492,
      "ĠThey": 1493,
      "perty": 1494,
      "Ġbre": 1495,
      "Ġsl": 1496,
      "ĠOn": 1497,
      "ify": 1498,
      "Ġvis": 1499,
      "********": 1500,
      "ĠSc": 1501,
      "ession": 1502,
      "log": 1503,
      "html": 1504,
      "Ġcour": 1505,
      "Ġ=>": 1506,
      "ases": 1507,
      "Ar": 1508,
      "string": 1509,
      "ĠRe": 1510,
      "Ġbusiness": 1511,
      "erest": 1512,
      "ified": 1513,
      "rol": 1514,
      "ĠĠĠ": 1515,
      "Ġprovid": 1516,
      "ished": 1517,
      "pha": 1518,
      "ency": 1519,
      "Ġreport": 1520,
      "ron": 1521,
      "bs": 1522,
      "ential": 1523,
      "ĠPh": 1524,
      "Ġpass": 1525,
      "ĠRes": 1526,
      "Ġmem": 1527,
      "11": 1528,
      "AL": 1529,
      "load": 1530,
      "Ġest": 1531,
      "bers": 1532,
      "Ġweek": 1533,
      "que": 1534,
      "Ġsay": 1535,
      "AN": 1536,
      "Ġduring": 1537,
      "ope": 1538,
      "htt": 1539,
      "Ġmust": 1540,
      "aj": 1541,
      "ends": 1542,
      "Ġconf": 1543,
      "less": 1544,
      "ĠX": 1545,
      "Data": 1546,
      "Ġeffect": 1547,
      "ĠSo": 1548,
      "elta": 1549,
      "ration": 1550,
      "Ġ>": 1551,
      "Ġmat": 1552,
      "Ġfield": 1553,
      "back": 1554,
      "ik": 1555,
      "Ġreal": 1556,
      "def": 1557,
      "Ġgoing": 1558,
      "Ġbuild": 1559,
      "Ġcurrent": 1560,
      "orn": 1561,
      "Ġ)": 1562,
      "Ġhome": 1563,
      "hat": 1564,
      "loy": 1565,
      "Ġdesign": 1566,
      "Ġsecond": 1567,
      "uthor": 1568,
      "Ġdirect": 1569,
      "rem": 1570,
      "Ġbook": 1571,
      "ength": 1572,
      "Ġcare": 1573,
      "mod": 1574,
      "Ġ,": 1575,
      "Ġwrit": 1576,
      "Ġopen": 1577,
      "Ġprogram": 1578,
      "ĠAll": 1579,
      "ved": 1580,
      "Ġperform": 1581,
      "Ġsince": 1582,
      "ining": 1583,
      "Ġmethod": 1584,
      "Ġhref": 1585,
      "\")": 1586,
      "da": 1587,
      "be": 1588,
      "Ġpost": 1589,
      "ĠPl": 1590,
      "ering": 1591,
      "new": 1592,
      "Ġposs": 1593,
      "Ġgroup": 1594,
      "Ġmain": 1595,
      "'ve": 1596,
      "Ġear": 1597,
      "Ġplace": 1598,
      "ety": 1599,
      "Ġreally": 1600,
      "Ġtop": 1601,
      "ava": 1602,
      "ustom": 1603,
      "Ġincre": 1604,
      "Ġlet": 1605,
      "Ġpat": 1606,
      "not": 1607,
      "ĠSp": 1608,
      "mathbf": 1609,
      "Ġteam": 1610,
      "Ch": 1611,
      "ĠCol": 1612,
      "Ġhead": 1613,
      "Ġline": 1614,
      "Ġfinal": 1615,
      "arget": 1616,
      "Ġstring": 1617,
      "Value": 1618,
      "uff": 1619,
      "ĠâĢĶ": 1620,
      "ĠĠĠĠĠĠĠĠĠĠĠĠĠĠĠĠ": 1621,
      "ows": 1622,
      "Ġsmall": 1623,
      "alpha": 1624,
      "Ġstatic": 1625,
      "âĢĶ": 1626,
      "50": 1627,
      "here": 1628,
      "item": 1629,
      "']": 1630,
      "ving": 1631,
      "Ġnext": 1632,
      "Ġtry": 1633,
      "Ġorder": 1634,
      "itions": 1635,
      "td": 1636,
      "oot": 1637,
      "'m": 1638,
      "\");": 1639,
      "ĠComm": 1640,
      "ds": 1641,
      "str": 1642,
      "ule": 1643,
      "ways": 1644,
      "lection": 1645,
      "var": 1646,
      "Ġdel": 1647,
      "Ġrest": 1648,
      "ĠWhat": 1649,
      "Ġincluding": 1650,
      "Ġexpl": 1651,
      "illion": 1652,
      "----------------": 1653,
      "Ġsk": 1654,
      "Ġmodel": 1655,
      "ĠUS": 1656,
      "Ġnon": 1657,
      "Ġbeg": 1658,
      "vert": 1659,
      "urs": 1660,
      "ves": 1661,
      "ission": 1662,
      "erence": 1663,
      "mary": 1664,
      "Ġdesc": 1665,
      "roll": 1666,
      "ĠString": 1667,
      "Ġinterest": 1668,
      "ris": 1669,
      "Ġterm": 1670,
      "data": 1671,
      "Ġproject": 1672,
      "Ġhtt": 1673,
      "ected": 1674,
      "Ġiss": 1675,
      "bar": 1676,
      "Ġprof": 1677,
      "med": 1678,
      "ump": 1679,
      "IT": 1680,
      "ott": 1681,
      "Ġadv": 1682,
      "Ġtechn": 1683,
      "umn": 1684,
      "class": 1685,
      ")\\": 1686,
      "face": 1687,
      "ger": 1688,
      "Ġprot": 1689,
      "ability": 1690,
      "Ġstand": 1691,
      "by": 1692,
      "Ġgover": 1693,
      "Ġobject": 1694,
      "ervice": 1695,
      "uild": 1696,
      "lob": 1697,
      "Ġhapp": 1698,
      "Col": 1699,
      "ains": 1700,
      "nment": 1701,
      "comm": 1702,
      "Ġdi": 1703,
      "irc": 1704,
      "ES": 1705,
      "ittle": 1706,
      "Ġschool": 1707,
      "CT": 1708,
      "usic": 1709,
      "Ġtoo": 1710,
      "ush": 1711,
      "reen": 1712,
      "Ġproduct": 1713,
      "mathbb": 1714,
      "Ġlaw": 1715,
      "date": 1716,
      "raw": 1717,
      "play": 1718,
      "Ġwithout": 1719,
      "ĠBy": 1720,
      "lease": 1721,
      "Ġproble": 1722,
      "Ġ20": 1723,
      "ane": 1724,
      "ailable": 1725,
      "Exception": 1726,
      "rite": 1727,
      "Ġgiven": 1728,
      "Ġmet": 1729,
      "ertain": 1730,
      "ribut": 1731,
      "ior": 1732,
      "ee": 1733,
      "Ġagainst": 1734,
      "Ġlevel": 1735,
      "Ġfew": 1736,
      "ĠWhen": 1737,
      "16": 1738,
      "ively": 1739,
      "omen": 1740,
      "lex": 1741,
      "resent": 1742,
      "arge": 1743,
      "ĠWith": 1744,
      "ought": 1745,
      "cont": 1746,
      "key": 1747,
      "ries": 1748,
      "ror": 1749,
      "Ġorgan": 1750,
      "atic": 1751,
      "It": 1752,
      "version": 1753,
      "ctor": 1754,
      "ĠUniversity": 1755,
      "Cl": 1756,
      "for": 1757,
      "_\\": 1758,
      "Ġinvest": 1759,
      "ĠMar": 1760,
      "dd": 1761,
      "vious": 1762,
      "Ġimp": 1763,
      "Ã©": 1764,
      "Ġpower": 1765,
      "stand": 1766,
      "Ġview": 1767,
      "Ġ\\\\": 1768,
      "Ġlocal": 1769,
      "ling": 1770,
      "')": 1771,
      "Ġmov": 1772,
      "bject": 1773,
      "ina": 1774,
      "['": 1775,
      "igma": 1776,
      "Ġkey": 1777,
      "ler": 1778,
      "Ġmonth": 1779,
      "Ġpresent": 1780,
      "Set": 1781,
      "Ġanother": 1782,
      "Ġsing": 1783,
      "mber": 1784,
      "iving": 1785,
      "Ġhist": 1786,
      "Ġhealth": 1787,
      "ĠAt": 1788,
      "ĠBe": 1789,
      "ately": 1790,
      "Ġid": 1791,
      "ething": 1792,
      "20": 1793,
      "ateg": 1794,
      "por": 1795,
      "uro": 1796,
      "time": 1797,
      "roid": 1798,
      "Ġtem": 1799,
      "ĠThat": 1800,
      "Ġrece": 1801,
      "Ġfalse": 1802,
      "thing": 1803,
      "CO": 1804,
      "Ġleg": 1805,
      "30": 1806,
      "value": 1807,
      "search": 1808,
      "Ġlo": 1809,
      "ambda": 1810,
      "Ġca": 1811,
      "reg": 1812,
      "etwork": 1813,
      "ocial": 1814,
      "Ġcond": 1815,
      "Ġevent": 1816,
      "ager": 1817,
      "ĠÂ": 1818,
      "Ġeas": 1819,
      "($": 1820,
      "oss": 1821,
      "Ġdem": 1822,
      "Ġgot": 1823,
      "Ġ{\\": 1824,
      "eps": 1825,
      "Ġintern": 1826,
      "rist": 1827,
      "32": 1828,
      "Ġgrow": 1829,
      "Ġturn": 1830,
      "Ġz": 1831,
      "Ġrecord": 1832,
      "itor": 1833,
      "Ġquest": 1834,
      "vir": 1835,
      "}_{": 1836,
      "Ġold": 1837,
      "Ġspe": 1838,
      "Ġput": 1839,
      "Ġ%": 1840,
      "ĠOr": 1841,
      "Ġfamily": 1842,
      "ised": 1843,
      "Ġide": 1844,
      "Ġappe": 1845,
      "Ġcome": 1846,
      "ohn": 1847,
      "pi": 1848,
      "Ġleft": 1849,
      "Ġgame": 1850,
      "conom": 1851,
      "Ġpop": 1852,
      "Ġfollowing": 1853,
      "To": 1854,
      "ination": 1855,
      "Ġbeh": 1856,
      "co": 1857,
      "ĠNo": 1858,
      "Ġalways": 1859,
      "fe": 1860,
      "Im": 1861,
      "section": 1862,
      "Ġfr": 1863,
      "Ġbig": 1864,
      "Ġthings": 1865,
      "ived": 1866,
      "];": 1867,
      "ats": 1868,
      "Ġbr": 1869,
      "ĠCent": 1870,
      "Ġimportant": 1871,
      "ware": 1872,
      "=\\": 1873,
      "Ġcompany": 1874,
      "icle": 1875,
      "ĠMan": 1876,
      "Ġask": 1877,
      "Ġnever": 1878,
      "));": 1879,
      "Ġhum": 1880,
      "Ġsit": 1881,
      "ories": 1882,
      "Ġfour": 1883,
      "RO": 1884,
      "Ġwithin": 1885,
      "itive": 1886,
      "Ġparam": 1887,
      "ien": 1888,
      "ium": 1889,
      "head": 1890,
      "SE": 1891,
      "go": 1892,
      "15": 1893,
      "Ġinit": 1894,
      "ait": 1895,
      "().": 1896,
      "}^{": 1897,
      "util": 1898,
      "Ġaut": 1899,
      "Ġtri": 1900,
      "use": 1901,
      "Ġsomething": 1902,
      "ĠBl": 1903,
      "Ġstruct": 1904,
      "Ġbetter": 1905,
      "outh": 1906,
      "'ll": 1907,
      "ention": 1908,
      "Ġanal": 1909,
      "ploy": 1910,
      "ĠAss": 1911,
      "Ġvari": 1912,
      "ĠMay": 1913,
      "Ġfree": 1914,
      "orth": 1915,
      "Ġavailable": 1916,
      "Ġann": 1917,
      "Ġarg": 1918,
      "Ġmight": 1919,
      "Ġ15": 1920,
      "ently": 1921,
      "ivid": 1922,
      "Ġfeel": 1923,
      "ially": 1924,
      "Ġmult": 1925,
      "Ġlittle": 1926,
      "Ġpur": 1927,
      "ley": 1928,
      "Ġinc": 1929,
      "Ġcap": 1930,
      "rict": 1931,
      "icy": 1932,
      "Ġchang": 1933,
      "Ġchange": 1934,
      "me": 1935,
      "hes": 1936,
      "Ġet": 1937,
      "pre": 1938,
      "Ġlim": 1939,
      "Ġservice": 1940,
      "rap": 1941,
      "Ġplan": 1942,
      "requ": 1943,
      "ister": 1944,
      "âĢĵ": 1945,
      "bf": 1946,
      "200": 1947,
      "Ġunt": 1948,
      "18": 1949,
      "AM": 1950,
      "ems": 1951,
      "Ġbro": 1952,
      "summary": 1953,
      "ogle": 1954,
      "idd": 1955,
      "Ġfull": 1956,
      "amma": 1957,
      "aster": 1958,
      "itional": 1959,
      "lement": 1960,
      "Ġless": 1961,
      "Ġla": 1962,
      "Ġcho": 1963,
      "lish": 1964,
      "rad": 1965,
      "rop": 1966,
      "());": 1967,
      "\"><": 1968,
      "ift": 1969,
      "////": 1970,
      "ression": 1971,
      "ients": 1972,
      "Ġapplic": 1973,
      "ription": 1974,
      "Ġaccess": 1975,
      "enn": 1976,
      "Ġsays": 1977,
      "Ġpay": 1978,
      "ĠFr": 1979,
      "aut": 1980,
      "ulation": 1981,
      "Ġfun": 1982,
      "Ġcharact": 1983,
      "Ġve": 1984,
      "ury": 1985,
      "Ġpar": 1986,
      "aim": 1987,
      "Ġident": 1988,
      "========": 1989,
      "ĠJohn": 1990,
      "includ": 1991,
      "Ġsupp": 1992,
      "ocus": 1993,
      "Ġ&&": 1994,
      "file": 1995,
      "Ġ!=": 1996,
      "Ġsuccess": 1997,
      "Ġfile": 1998,
      "mu": 1999,
      "umer": 2000,
      "Th": 2001,
      "Ġhard": 2002,
      "Ġ16": 2003,
      "une": 2004,
      "opy": 2005,
      "lang": 2006,
      "ending": 2007,
      "igned": 2008,
      "Ġaff": 2009,
      "Ġlot": 2010,
      "mb": 2011,
      "Ġ/*": 2012,
      "Ġdev": 2013,
      "Ġwater": 2014,
      "ails": 2015,
      "ension": 2016,
      "Ġthrow": 2017,
      "View": 2018,
      "LL": 2019,
      "ĠTe": 2020,
      "uck": 2021,
      "Ġresults": 2022,
      "Ġ11": 2023,
      "Ġmarket": 2024,
      "ĠCan": 2025,
      "bo": 2026,
      "Ġfri": 2027,
      "Ġorig": 2028,
      "Ġeng": 2029,
      "inter": 2030,
      "nb": 2031,
      "lose": 2032,
      "Ġallow": 2033,
      "DE": 2034,
      "Ġfac": 2035,
      "br": 2036,
      "lobal": 2037,
      "Ġ199": 2038,
      "ivity": 2039,
      "ĠLe": 2040,
      "Ġlight": 2041,
      "Ġcheck": 2042,
      "ĠEng": 2043,
      "Ġrequire": 2044,
      "ocument": 2045,
      "viron": 2046,
      "Ġsize": 2047,
      "ĠCont": 2048,
      "Ġlove": 2049,
      "ged": 2050,
      "part": 2051,
      "File": 2052,
      "side": 2053,
      "ĠApp": 2054,
      "Ġbased": 2055,
      "Ġcost": 2056,
      "13": 2057,
      "Ġcreate": 2058,
      "\";": 2059,
      "Ġmove": 2060,
      "Ġlarge": 2061,
      "ches": 2062,
      "Ġexperience": 2063,
      "ours": 2064,
      "ances": 2065,
      "ney": 2066,
      "action": 2067,
      "ards": 2068,
      "ready": 2069,
      "Ġgl": 2070,
      "ĠJan": 2071,
      "pped": 2072,
      "Ġcalled": 2073,
      "ĠSu": 2074,
      "Ġbreak": 2075,
      "ources": 2076,
      "Ġlog": 2077,
      "ene": 2078,
      "ĠEn": 2079,
      "ĠAmerican": 2080,
      "phi": 2081,
      "ĠIm": 2082,
      "ĠOne": 2083,
      "Ġrequest": 2084,
      "uture": 2085,
      "IC": 2086,
      "Ġkeep": 2087,
      "ably": 2088,
      "ird": 2089,
      "aff": 2090,
      "array": 2091,
      "Ġcr": 2092,
      "Ġcustom": 2093,
      "ho": 2094,
      "iod": 2095,
      "rror": 2096,
      "ording": 2097,
      "^{\\": 2098,
      "Get": 2099,
      "cd": 2100,
      "ober": 2101,
      "aps": 2102,
      "AP": 2103,
      "agement": 2104,
      "orld": 2105,
      "ended": 2106,
      "Ġbas": 2107,
      "ari": 2108,
      "Tr": 2109,
      "urity": 2110,
      "14": 2111,
      "Ġpa": 2112,
      "Ġelect": 2113,
      "Ġsw": 2114,
      "iter": 2115,
      "sw": 2116,
      "duct": 2117,
      "Ġchildren": 2118,
      "Ġcountry": 2119,
      "width": 2120,
      "agn": 2121,
      "Ġmeas": 2122,
      "Ġprovide": 2123,
      "ification": 2124,
      "ajor": 2125,
      "ique": 2126,
      "-\\": 2127,
      "ape": 2128,
      "ched": 2129,
      "ured": 2130,
      "Ġocc": 2131,
      "size": 2132,
      "ieve": 2133,
      "Ġgovernment": 2134,
      "respon": 2135,
      "Ġmean": 2136,
      "Ġexample": 2137,
      "],": 2138,
      "AC": 2139,
      "ĠCar": 2140,
      "oney": 2141,
      "Ġpract": 2142,
      "Ġable": 2143,
      "Ġpath": 2144,
      "iver": 2145,
      "field": 2146,
      "isk": 2147,
      "IS": 2148,
      "Ġsuper": 2149,
      "list": 2150,
      "ilon": 2151,
      "Ġpack": 2152,
      "Ġuntil": 2153,
      "25": 2154,
      "Ġalong": 2155,
      "Ġtyp": 2156,
      "Ġdays": 2157,
      "ands": 2158,
      "inc": 2159,
      "._": 2160,
      "nbsp": 2161,
      "sec": 2162,
      "imate": 2163,
      "ĠAb": 2164,
      "Ġspace": 2165,
      "Ġfore": 2166,
      "].": 2167,
      "Ġclear": 2168,
      "test": 2169,
      "Object": 2170,
      "ume": 2171,
      "Ġener": 2172,
      "Ġassert": 2173,
      "Ġgive": 2174,
      "urther": 2175,
      "Ġnear": 2176,
      "ilar": 2177,
      "ising": 2178,
      "Mod": 2179,
      "ĠCo": 2180,
      "Ġ30": 2181,
      "ĠHowever": 2182,
      "Ġoffic": 2183,
      "Ġprom": 2184,
      "iles": 2185,
      "Ġsum": 2186,
      "url": 2187,
      "Test": 2188,
      "Ġ17": 2189,
      "Ġconsider": 2190,
      "ither": 2191,
      "Ġmusic": 2192,
      "Ġjob": 2193,
      "ION": 2194,
      "Ġworking": 2195,
      "Ġtext": 2196,
      "ffic": 2197,
      "ored": 2198,
      "Ġ14": 2199,
      "Ġpast": 2200,
      "equest": 2201,
      "mathrm": 2202,
      "uf": 2203,
      "lambda": 2204,
      "ties": 2205,
      "Ġsure": 2206,
      "Ġmeet": 2207,
      "Ġpossible": 2208,
      "ĠMed": 2209,
      "Ġrepresent": 2210,
      "ĠThese": 2211,
      "epend": 2212,
      "Ġresearch": 2213,
      "veral": 2214,
      "Ġstory": 2215,
      "Ġaway": 2216,
      "ai": 2217,
      "Ġstudents": 2218,
      "vironment": 2219,
      "Ġfar": 2220,
      "osp": 2221,
      "ĠChrist": 2222,
      "Ġ},": 2223,
      "rel": 2224,
      "Ġexc": 2225,
      "Ġhold": 2226,
      "ĠMy": 2227,
      "Ġsec": 2228,
      "Ġimpro": 2229,
      "Ġfund": 2230,
      "\":": 2231,
      "ĠFl": 2232,
      "Ġsubject": 2233,
      "sigma": 2234,
      "Ġalready": 2235,
      "alf": 2236,
      "path": 2237,
      "');": 2238,
      "Ġspecial": 2239,
      "Ġ2018": 2240,
      "ilde": 2241,
      "my": 2242,
      "Ġarea": 2243,
      "aces": 2244,
      "Ġcommunity": 2245,
      "Ġunderstand": 2246,
      "de": 2247,
      "Ġthought": 2248,
      "17": 2249,
      "Ġparticular": 2250,
      "\".": 2251,
      "lished": 2252,
      "Ġstudy": 2253,
      "Ġindust": 2254,
      "Ġinclude": 2255,
      "Ġredu": 2256,
      "Ġ(\\": 2257,
      "Ġsocial": 2258,
      "uration": 2259,
      "Ġmaking": 2260,
      "ĠUnited": 2261,
      "atures": 2262,
      "Ġclos": 2263,
      "Ġtimes": 2264,
      "Ġpot": 2265,
      "Ġmillion": 2266,
      "acy": 2267,
      "ĠPol": 2268,
      "Ġtalk": 2269,
      "ĠEuro": 2270,
      "Ġlik": 2271,
      "return": 2272,
      "Ġphot": 2273,
      "irt": 2274,
      "(),": 2275,
      "Ġcontrol": 2276,
      "Un": 2277,
      "]{": 2278,
      "UR": 2279,
      "ouble": 2280,
      "olution": 2281,
      "ideo": 2282,
      "ĠDo": 2283,
      "Int": 2284,
      "Ġ2019": 2285,
      "ales": 2286,
      "Ġshort": 2287,
      "ators": 2288,
      "ED": 2289,
      "Ġtoget": 2290,
      "Ġcal": 2291,
      "Ġtogether": 2292,
      "Ġtarget": 2293,
      "ights": 2294,
      "Ġacross": 2295,
      "Ġkind": 2296,
      "ples": 2297,
      "ules": 2298,
      "ĠSystem": 2299,
      "Ġ13": 2300,
      "Ġconc": 2301,
      "aterial": 2302,
      "www": 2303,
      "order": 2304,
      "Ġuser": 2305,
      "pm": 2306,
      "ET": 2307,
      "Key": 2308,
      "Ġcontent": 2309,
      "Ġwhy": 2310,
      "Ġemploy": 2311,
      "Ġ});": 2312,
      "ĠState": 2313,
      "Ġservices": 2314,
      "*}": 2315,
      "user": 2316,
      "Ġleast": 2317,
      "ĠPr": 2318,
      "serv": 2319,
      "Ġtot": 2320,
      "Ġeconom": 2321,
      "Ġpolit": 2322,
      "Ġauthor": 2323,
      "ĠInst": 2324,
      "wards": 2325,
      ")}": 2326,
      "Ġrespect": 2327,
      "Ġtoday": 2328,
      "Ġaccount": 2329,
      "Ġben": 2330,
      "Ġcreat": 2331,
      "beta": 2332,
      "Ġmom": 2333,
      "Ġfocus": 2334,
      "Ġmembers": 2335,
      "const": 2336,
      "big": 2337,
      "Ġside": 2338,
      "Ġmajor": 2339,
      "ividual": 2340,
      "ĠAfter": 2341,
      "Ġdone": 2342,
      "Ġlow": 2343,
      "Ġbecome": 2344,
      "ourn": 2345,
      "':": 2346,
      "Ġenergy": 2347,
      "ograph": 2348,
      "bol": 2349,
      "Ġabove": 2350,
      "aring": 2351,
      "ĠLet": 2352,
      "Ġdidn": 2353,
      "ĠInt": 2354,
      "align": 2355,
      "Param": 2356,
      "Ġoften": 2357,
      "ables": 2358,
      "rc": 2359,
      "Ġdiscuss": 2360,
      "atus": 2361,
      "word": 2362,
      "ground": 2363,
      "Ġpo": 2364,
      "ival": 2365,
      "Ġinf": 2366,
      "eters": 2367,
      "ĠYork": 2368,
      "'d": 2369,
      "Ġseveral": 2370,
      "rag": 2371,
      "Ġtitle": 2372,
      "Ġmen": 2373,
      "ians": 2374,
      "ribute": 2375,
      "Error": 2376,
      "Ġwind": 2377,
      "ĠGu": 2378,
      "Ġdescrib": 2379,
      "arrow": 2380,
      "Ġcourse": 2381,
      "Ġwin": 2382,
      "Ġhig": 2383,
      "empt": 2384,
      "Ġwomen": 2385,
      "64": 2386,
      "plic": 2387,
      "Ġbody": 2388,
      "Ġproblem": 2389,
      "Ġstrong": 2390,
      "idence": 2391,
      "Ġcur": 2392,
      "Ġ?": 2393,
      "Ġsingle": 2394,
      ".</": 2395,
      "Ġrele": 2396,
      "PE": 2397,
      "Ġknown": 2398,
      "Ġenough": 2399,
      "ued": 2400,
      "Ġexist": 2401,
      "rix": 2402,
      "Ġfuture": 2403,
      "\\\\": 2404,
      "Ġcertain": 2405,
      "link": 2406,
      "Ġrange": 2407,
      "Ġmeans": 2408,
      "Ġaction": 2409,
      "Ġerror": 2410,
      "Ġlater": 2411,
      "ĠPres": 2412,
      "Request": 2413,
      "Ġbring": 2414,
      "pping": 2415,
      "Ġinvol": 2416,
      "most": 2417,
      "theta": 2418,
      "Ġprob": 2419,
      "angu": 2420,
      "Ġhuman": 2421,
      "Ġtell": 2422,
      "Ġenc": 2423,
      "ride": 2424,
      "sel": 2425,
      "mit": 2426,
      "ĠNot": 2427,
      "ained": 2428,
      "Ġflo": 2429,
      "ĠNational": 2430,
      "raft": 2431,
      "Ġhaving": 2432,
      "Ġyoung": 2433,
      "ike": 2434,
      "ĠBo": 2435,
      "Ġmass": 2436,
      "rain": 2437,
      "Ind": 2438,
      "ĠOur": 2439,
      "UT": 2440,
      "Ġ100": 2441,
      "ibility": 2442,
      "met": 2443,
      "ĠIntern": 2444,
      "Ġthing": 2445,
      "Ġtrad": 2446,
      "Ġwar": 2447,
      "Field": 2448,
      "init": 2449,
      "af": 2450,
      "By": 2451,
      "ids": 2452,
      "verage": 2453,
      "En": 2454,
      "Ġeduc": 2455,
      "pper": 2456,
      "aken": 2457,
      "Ġcell": 2458,
      "Ġvol": 2459,
      "ides": 2460,
      "ison": 2461,
      "Ġdue": 2462,
      "index": 2463,
      "delta": 2464,
      "Ġcou": 2465,
      "iction": 2466,
      "Ġseason": 2467,
      "ĠChe": 2468,
      "ĠGe": 2469,
      "Ġland": 2470,
      "Ġhistory": 2471,
      "place": 2472,
      "Ġ2017": 2473,
      "Ġdevelopment": 2474,
      "Text": 2475,
      "Ġcity": 2476,
      "script": 2477,
      "Ġcame": 2478,
      "Ġposition": 2479,
      "HE": 2480,
      "Ġ**": 2481,
      "Ġindividual": 2482,
      "AD": 2483,
      "uary": 2484,
      "trans": 2485,
      "http": 2486,
      "Ġsym": 2487,
      "$-": 2488,
      "Ġ25": 2489,
      "Ġnetwork": 2490,
      "ĠCal": 2491,
      "Ġes": 2492,
      "Ġroom": 2493,
      "lete": 2494,
      "ĠMin": 2495,
      "su": 2496,
      "Ġtreat": 2497,
      "ĠCO": 2498,
      "Ġlearn": 2499,
      "ĠEurope": 2500,
      "ills": 2501,
      "ental": 2502,
      "ogn": 2503,
      "ibr": 2504,
      "^{-": 2505,
      "Config": 2506,
      "Ġ);": 2507,
      "artment": 2508,
      "Ġcamp": 2509,
      "Ġfilm": 2510,
      "Ġair": 2511,
      "Sh": 2512,
      "ysis": 2513,
      "ruction": 2514,
      "Ġvisit": 2515,
      "ony": 2516,
      "ĠDis": 2517,
      "now": 2518,
      "ĠGet": 2519,
      "Ġ...": 2520,
      "lected": 2521,
      "ĠMe": 2522,
      "Ġdeterm": 2523,
      "Ġgeneral": 2524,
      "uation": 2525,
      "itch": 2526,
      "Ġdeb": 2527,
      "Ġ2020": 2528,
      "enc": 2529,
      "ks": 2530,
      "Ġport": 2531,
      "Ġcomb": 2532,
      "Ġwhether": 2533,
      "Ġever": 2534,
      "Ġclaim": 2535,
      "Ġlarg": 2536,
      "Ġrad": 2537,
      "Ġvalues": 2538,
      "rodu": 2539,
      "ones": 2540,
      "Ġreview": 2541,
      "cher": 2542,
      "Ġthough": 2543,
      "Ġcomplet": 2544,
      "/>": 2545,
      "Ġonline": 2546,
      "Ġ};": 2547,
      "Ġpub": 2548,
      "Ġant": 2549,
      "ĠEd": 2550,
      "Ġperiod": 2551,
      "dis": 2552,
      "Ġcharacter": 2553,
      "40": 2554,
      "Ġproper": 2555,
      "Ġtook": 2556,
      "Class": 2557,
      "ĠWorld": 2558,
      "0000": 2559,
      "ING": 2560,
      "Ġsat": 2561,
      "leg": 2562,
      "count": 2563,
      "Ġreason": 2564,
      "earch": 2565,
      "Ġobtain": 2566,
      "ĠMore": 2567,
      "Time": 2568,
      "Ġearly": 2569,
      "bl": 2570,
      "Ġfail": 2571,
      "pportun": 2572,
      "figure": 2573,
      "ports": 2574,
      "off": 2575,
      "Ġtable": 2576,
      "Ġ2016": 2577,
      "table": 2578,
      "ags": 2579,
      "Ġproperty": 2580,
      "We": 2581,
      "ding": 2582,
      "Path": 2583,
      "Ġothers": 2584,
      "Ġexpected": 2585,
      "error": 2586,
      "$\\": 2587,
      "ĠMc": 2588,
      "ĠThen": 2589,
      "Ġcrit": 2590,
      "box": 2591,
      "Ġhouse": 2592,
      "atter": 2593,
      "ilit": 2594,
      "22": 2595,
      "Ġseen": 2596,
      "loc": 2597,
      "ĠOct": 2598,
      "Ġprevious": 2599,
      "........": 2600,
      "nect": 2601,
      "ormal": 2602,
      "Ġcult": 2603,
      "ĠAug": 2604,
      "Ġparent": 2605,
      "Ġamong": 2606,
      "book": 2607,
      "Ġstre": 2608,
      "ĠJu": 2609,
      "Ġmakes": 2610,
      "Ġinteg": 2611,
      "oman": 2612,
      "mp": 2613,
      "ĠWill": 2614,
      "Message": 2615,
      "yl": 2616,
      "Ġmoney": 2617,
      "Ġfood": 2618,
      "ĠPart": 2619,
      "utes": 2620,
      "lt": 2621,
      "Ġlooking": 2622,
      "Ġimage": 2623,
      "rec": 2624,
      "Ġassoci": 2625,
      "Ġmot": 2626,
      "}{\\": 2627,
      "OT": 2628,
      "Man": 2629,
      "Ġopt": 2630,
      "Ġbit": 2631,
      "^\\": 2632,
      "rior": 2633,
      "rew": 2634,
      "ga": 2635,
      "Ġdom": 2636,
      "Ġonce": 2637,
      "ĠReg": 2638,
      "abor": 2639,
      "clus": 2640,
      "oken": 2641,
      "ball": 2642,
      "Ġnames": 2643,
      "ĠQu": 2644,
      "ĠApr": 2645,
      "Ġsignific": 2646,
      "+\\": 2647,
      "ĠMr": 2648,
      "ĠGo": 2649,
      "ĠGr": 2650,
      "ĠDep": 2651,
      "Ġlink": 2652,
      "Equ": 2653,
      "Ġpage": 2654,
      "ĠAf": 2655,
      "Ġsite": 2656,
      "Ġaddress": 2657,
      "Ġseries": 2658,
      "Ġjo": 2659,
      "ĠCity": 2660,
      "Context": 2661,
      "Event": 2662,
      "ners": 2663,
      "Ġrequired": 2664,
      "Ġsimilar": 2665,
      "ĠStates": 2666,
      "ĠAct": 2667,
      "****************": 2668,
      "Ġrelations": 2669,
      "ilities": 2670,
      "eral": 2671,
      "Ġnight": 2672,
      "ĠAg": 2673,
      "Qu": 2674,
      "ĠCount": 2675,
      "Ġtre": 2676,
      "Ġhttp": 2677,
      "99": 2678,
      "IG": 2679,
      "top": 2680,
      "olean": 2681,
      "Ġ$(": 2682,
      "Ġrole": 2683,
      "resh": 2684,
      "ribution": 2685,
      "ux": 2686,
      "px": 2687,
      "Ġversion": 2688,
      "cast": 2689,
      "istic": 2690,
      "Ġdeal": 2691,
      "umb": 2692,
      "Ġpotential": 2693,
      "[]": 2694,
      "Ġfive": 2695,
      "An": 2696,
      "Ġhappen": 2697,
      "Ġsource": 2698,
      "ĠSchool": 2699,
      "lean": 2700,
      "ips": 2701,
      "ero": 2702,
      "uments": 2703,
      "Array": 2704,
      "Service": 2705,
      "Ġdri": 2706,
      "utions": 2707,
      "aint": 2708,
      "Ġfurther": 2709,
      "body": 2710,
      "Ġmax": 2711,
      "Ġopportun": 2712,
      "ung": 2713,
      "Ġpercent": 2714,
      "Ġmar": 2715,
      "Ġinstance": 2716,
      "lege": 2717,
      "roups": 2718,
      "asing": 2719,
      "nection": 2720,
      "IM": 2721,
      "irl": 2722,
      "ĠHar": 2723,
      "iam": 2724,
      "ĠRep": 2725,
      "ternal": 2726,
      "ĠArt": 2727,
      "ca": 2728,
      "60": 2729,
      "no": 2730,
      "times": 2731,
      "Ġmaterial": 2732,
      "Ġneeds": 2733,
      "\"\"": 2734,
      "Ġmind": 2735,
      "https": 2736,
      "stance": 2737,
      "Ġresponse": 2738,
      "Ġtotal": 2739,
      "oud": 2740,
      "point": 2741,
      "pace": 2742,
      "ĠJanuary": 2743,
      "ĠMarch": 2744,
      "itted": 2745,
      "Se": 2746,
      "Ġwebs": 2747,
      "see": 2748,
      "Ph": 2749,
      "ada": 2750,
      "Ġoptions": 2751,
      "ĠCor": 2752,
      "iol": 2753,
      "ster": 2754,
      "plement": 2755,
      "mat": 2756,
      "Ġtold": 2757,
      "gress": 2758,
      "Ġ``": 2759,
      "ender": 2760,
      "Ġpoints": 2761,
      "';": 2762,
      "cer": 2763,
      "Ġdoesn": 2764,
      "na": 2765,
      "80": 2766,
      "Ġcomput": 2767,
      "imal": 2768,
      "oad": 2769,
      "rang": 2770,
      "ĠPer": 2771,
      "Ġ2015": 2772,
      "Form": 2773,
      "icro": 2774,
      "Ġbegin": 2775,
      "Ġeither": 2776,
      "inary": 2777,
      "Ġdefault": 2778,
      "Ġcontext": 2779,
      "())": 2780,
      "Ġuns": 2781,
      "Ġlive": 2782,
      "rak": 2783,
      "ief": 2784,
      "group": 2785,
      "ĠFrom": 2786,
      "Ġbenef": 2787,
      "='": 2788,
      "Ġdoing": 2789,
      "used": 2790,
      "UN": 2791,
      "ilt": 2792,
      "Ġblock": 2793,
      "Ġstyle": 2794,
      "Ġquestion": 2795,
      "SS": 2796,
      "ĠRet": 2797,
      "Ġbase": 2798,
      "Ġchall": 2799,
      "ĠComp": 2800,
      "}(\\": 2801,
      "Def": 2802,
      "irm": 2803,
      "illed": 2804,
      "Ġrisk": 2805,
      "js": 2806,
      "node": 2807,
      "ayout": 2808,
      "unch": 2809,
      "rho": 2810,
      "plate": 2811,
      "aged": 2812,
      "atural": 2813,
      "Ġ||": 2814,
      "Ġey": 2815,
      "Over": 2816,
      "Ġinput": 2817,
      "Ġabs": 2818,
      "ĠAust": 2819,
      "ino": 2820,
      "Image": 2821,
      "Ġregion": 2822,
      "Ġcommon": 2823,
      "Ġstarted": 2824,
      "Ġwent": 2825,
      "alt": 2826,
      "though": 2827,
      "Ġmedia": 2828,
      "ĠNow": 2829,
      "Ġprint": 2830,
      "oph": 2831,
      "PI": 2832,
      "Ġpress": 2833,
      "joy": 2834,
      "?\"": 2835,
      "State": 2836,
      "Ġ24": 2837,
      "ĠPresident": 2838,
      "Ġenvironment": 2839,
      "Ġyet": 2840,
      "ĠAm": 2841,
      "Sc": 2842,
      "iple": 2843,
      "utton": 2844,
      "ync": 2845,
      "Ġterms": 2846,
      "ecut": 2847,
      "ĠJune": 2848,
      "ĠWar": 2849,
      "eed": 2850,
      "space": 2851,
      "ĠEl": 2852,
      "Ġsound": 2853,
      "ĠHis": 2854,
      "ops": 2855,
      "ancial": 2856,
      "Ġactually": 2857,
      "Ġshows": 2858,
      "ĠAcc": 2859,
      "Info": 2860,
      "Ġhttps": 2861,
      "Ġcomes": 2862,
      "Ġcompet": 2863,
      "Action": 2864,
      "Ġjava": 2865,
      "Ġsignificant": 2866,
      "Ġpred": 2867,
      "Ġclose": 2868,
      "state": 2869,
      "\"></": 2870,
      "quad": 2871,
      "leq": 2872,
      "Node": 2873,
      "mark": 2874,
      "Ġcontain": 2875,
      "Ġcode": 2876,
      "Or": 2877,
      "Ġconfig": 2878,
      "ils": 2879,
      "ĠSept": 2880,
      "length": 2881,
      "ENT": 2882,
      "Ġsugg": 2883,
      "Add": 2884,
      "Ġrespons": 2885,
      "Ġwon": 2886,
      "Ġnews": 2887,
      "Ġsuggest": 2888,
      "Ġcompan": 2889,
      "ĠFeb": 2890,
      "urch": 2891,
      "Ġdr": 2892,
      "Ġactiv": 2893,
      "ĠSouth": 2894,
      "Ġphys": 2895,
      "wh": 2896,
      "Ġperformance": 2897,
      "With": 2898,
      "Ġtw": 2899,
      "anguage": 2900,
      "gamma": 2901,
      "ude": 2902,
      "Ġevents": 2903,
      "Ġbelow": 2904,
      "Ġfav": 2905,
      "Item": 2906,
      "tilde": 2907,
      "Ġwalk": 2908,
      "Ġmonths": 2909,
      "24": 2910,
      "Map": 2911,
      "Ġsong": 2912,
      "ĠDr": 2913,
      "ĠWhile": 2914,
      "ĠJuly": 2915,
      "eqref": 2916,
      "ĠFig": 2917,
      "Ġpersonal": 2918,
      "Ent": 2919,
      "Ġ2014": 2920,
      "ĠFin": 2921,
      "Ġsent": 2922,
      "Ġ50": 2923,
      "tings": 2924,
      "minist": 2925,
      "Ġtrack": 2926,
      "Size": 2927,
      "++": 2928,
      "oke": 2929,
      "ĠRec": 2930,
      "\\,": 2931,
      "do": 2932,
      "refore": 2933,
      "Ġindustry": 2934,
      "Ġobserv": 2935,
      "}$.": 2936,
      "Ġface": 2937,
      "ĠRev": 2938,
      "tau": 2939,
      "Ġmor": 2940,
      "ĠApril": 2941,
      "lim": 2942,
      "ĠDav": 2943,
      "ayer": 2944,
      "ĠNorth": 2945,
      "Ġinfl": 2946,
      "Index": 2947,
      "Ġhost": 2948,
      "Element": 2949,
      "imum": 2950,
      "Ġ/>": 2951,
      "Ġtax": 2952,
      "Ġindic": 2953,
      "Ġcoll": 2954,
      "title": 2955,
      "Ġsix": 2956,
      "ĠAdd": 2957,
      "Ġdeg": 2958,
      "ĠBrit": 2959,
      "Ġoriginal": 2960,
      "####": 2961,
      "US": 2962,
      "Ġrate": 2963,
      "Ġhalf": 2964,
      "ana": 2965,
      "ĠNews": 2966,
      "ĠMark": 2967,
      "Ġgen": 2968,
      "ili": 2969,
      "Ġamount": 2970,
      "Ġoffer": 2971,
      "23": 2972,
      "Ġglobal": 2973,
      "era": 2974,
      "LO": 2975,
      "Ġproducts": 2976,
      "lient": 2977,
      "TR": 2978,
      "\"/>": 2979,
      "sq": 2980,
      "Ġcontinue": 2981,
      "Ġcut": 2982,
      "omet": 2983,
      "map": 2984,
      "rack": 2985,
      "ĠStud": 2986,
      "Ġtaken": 2987,
      "Re": 2988,
      "year": 2989,
      "Ġalmost": 2990,
      "reed": 2991,
      "Ġsection": 2992,
      "Ġsoft": 2993,
      "plit": 2994,
      "ounc": 2995,
      "sm": 2996,
      "config": 2997,
      "ixed": 2998,
      "Ġdest": 2999,
      "Att": 3000,
      "Ġbound": 3001,
      "Ġquality": 3002,
      "cember": 3003,
      "ĠSec": 3004,
      "ĠPe": 3005,
      "Ġens": 3006,
      "ĠPar": 3007,
      "Ġbuilding": 3008,
      "posed": 3009,
      "ceed": 3010,
      "ĠSome": 3011,
      "Ġgetting": 3012,
      "Ġarray": 3013,
      "Ġcolor": 3014,
      "edu": 3015,
      "bit": 3016,
      "ĠJust": 3017,
      "Ġcompon": 3018,
      "input": 3019,
      "atform": 3020,
      "asc": 3021,
      "For": 3022,
      "Ġseem": 3023,
      "xi": 3024,
      "Ġprovided": 3025,
      "anks": 3026,
      "Ġwhole": 3027,
      "tes": 3028,
      "position": 3029,
      "Ġnecess": 3030,
      "down": 3031,
      "ournal": 3032,
      "}$,": 3033,
      "Ġ:=": 3034,
      "odes": 3035,
      "Ġden": 3036,
      "fully": 3037,
      "ze": 3038,
      "oper": 3039,
      "aging": 3040,
      "!--": 3041,
      "fort": 3042,
      "AB": 3043,
      "ĠGod": 3044,
      "Ġdocument": 3045,
      "ried": 3046,
      "Ġmoment": 3047,
      "la": 3048,
      "ĠBar": 3049,
      "Ġvideo": 3050,
      "message": 3051,
      "ĠIN": 3052,
      "fty": 3053,
      "rest": 3054,
      "Ġprofession": 3055,
      "Ġaud": 3056,
      "selves": 3057,
      "ological": 3058,
      "ĠAugust": 3059,
      "lation": 3060,
      "Ġshare": 3061,
      "Ġquick": 3062,
      "pecially": 3063,
      "info": 3064,
      "ovember": 3065,
      "comp": 3066,
      "Ġtaking": 3067,
      "api": 3068,
      "ledge": 3069,
      "Ġfall": 3070,
      "fect": 3071,
      "Ġworks": 3072,
      "Ġfeatures": 3073,
      "Ġop": 3074,
      "Ġexam": 3075,
      "ĠSm": 3076,
      "Ġmap": 3077,
      "Ġmessage": 3078,
      "cm": 3079,
      "ached": 3080,
      "create": 3081,
      "room": 3082,
      "As": 3083,
      "Ġestab": 3084,
      "apt": 3085,
      "uilder": 3086,
      "ply": 3087,
      "rect": 3088,
      "ĠDes": 3089,
      "Ġindex": 3090,
      "ires": 3091,
      "Pl": 3092,
      "Ġoutput": 3093,
      "oon": 3094,
      "iting": 3095,
      "Ġdat": 3096,
      "Ġenjoy": 3097,
      "elt": 3098,
      "source": 3099,
      "Ġimpact": 3100,
      "result": 3101,
      "function": 3102,
      "Ġaccording": 3103,
      "Ġissues": 3104,
      "Ġrather": 3105,
      "Code": 3106,
      "Ġheart": 3107,
      "icult": 3108,
      "ĠRuss": 3109,
      "Ġhom": 3110,
      "Ġneg": 3111,
      "block": 3112,
      "ĠSet": 3113,
      "Ġintrodu": 3114,
      "Ġcontact": 3115,
      "Ġwebsite": 3116,
      "medi": 3117,
      "ĠOctober": 3118,
      "rame": 3119,
      "Ġhours": 3120,
      "lin": 3121,
      "light": 3122,
      "Ġvarious": 3123,
      "ynam": 3124,
      "CH": 3125,
      "raphics": 3126,
      "Ġapproach": 3127,
      "AG": 3128,
      "ĠDecember": 3129,
      ".'": 3130,
      "45": 3131,
      "Ġsearch": 3132,
      "Ġblack": 3133,
      "infty": 3134,
      "ĠHouse": 3135,
      "](": 3136,
      "Ġpaper": 3137,
      "Ġnational": 3138,
      "ĠCour": 3139,
      "orage": 3140,
      "Ġbar": 3141,
      "Ġaddition": 3142,
      "Ġtraining": 3143,
      "maz": 3144,
      "Ġadded": 3145,
      "Ġdeath": 3146,
      "Ġchanges": 3147,
      "Delta": 3148,
      "ĠEm": 3149,
      "hib": 3150,
      "Ġthird": 3151,
      "70": 3152,
      "Ġage": 3153,
      "Ġund": 3154,
      "fer": 3155,
      "Ġred": 3156,
      "ĠGener": 3157,
      "Ġtool": 3158,
      "Ġground": 3159,
      "Ġbuy": 3160,
      "Ġcompanies": 3161,
      "App": 3162,
      "202": 3163,
      "Ġentire": 3164,
      "ĉĉ": 3165,
      "ication": 3166,
      "Ġfront": 3167,
      "Ġstates": 3168,
      "ij": 3169,
      "sk": 3170,
      "Ġsimple": 3171,
      "ises": 3172,
      "ites": 3173,
      "arning": 3174,
      "Ġcannot": 3175,
      "true": 3176,
      "ponse": 3177,
      "ponent": 3178,
      "Ġmiss": 3179,
      "ĠSeptember": 3180,
      "augh": 3181,
      "osed": 3182,
      "dom": 3183,
      "Ġhigher": 3184,
      "Ġcases": 3185,
      "hel": 3186,
      "ĠNovember": 3187,
      "ĠFirst": 3188,
      "33": 3189,
      "Ġach": 3190,
      "Ġcirc": 3191,
      "Ġhowever": 3192,
      "Ġsystems": 3193,
      "Ġago": 3194,
      "Ġprim": 3195,
      "uffer": 3196,
      "iddle": 3197,
      "ĠSer": 3198,
      "Ġtask": 3199,
      "Ġ2013": 3200,
      "mon": 3201,
      "amed": 3202,
      "vis": 3203,
      "Ġdate": 3204,
      "oved": 3205,
      "Ġspecific": 3206,
      "Ġeffort": 3207,
      "Ġbelieve": 3208,
      "|\\": 3209,
      "Ġeasy": 3210,
      "ĠList": 3211,
      "object": 3212,
      "Ġmember": 3213,
      "igation": 3214,
      "Ġidea": 3215,
      "elling": 3216,
      "Ġpolicy": 3217,
      "inition": 3218,
      "ociety": 3219,
      "Ġshall": 3220,
      "hing": 3221,
      "ging": 3222,
      "Ġcreated": 3223,
      "ĠDef": 3224,
      "ĠHere": 3225,
      "rown": 3226,
      "Ġvalid": 3227,
      "pd": 3228,
      "cing": 3229,
      "ĠPa": 3230,
      "gs": 3231,
      "ĠAmerica": 3232,
      "nu": 3233,
      "ges": 3234,
      "ided": 3235,
      "Ġaccept": 3236,
      "Ġbool": 3237,
      "verse": 3238,
      "Ġmodels": 3239,
      "ĠHealth": 3240,
      "Ġlikely": 3241,
      "Ġ(!": 3242,
      "ĠSch": 3243,
      "Val": 3244,
      "Ġclient": 3245,
      "Ġdig": 3246,
      "astic": 3247,
      "Ġneeded": 3248,
      "ĠDon": 3249,
      "bum": 3250,
      "Ref": 3251,
      "Ġmatch": 3252,
      "Not": 3253,
      "Ġep": 3254,
      "andom": 3255,
      "Ġfeature": 3256,
      "Ġtechnology": 3257,
      "CC": 3258,
      "ĠWest": 3259,
      "75": 3260,
      "Ġbeaut": 3261,
      "icon": 3262,
      "Ġcred": 3263,
      "Ġgrad": 3264,
      "reate": 3265,
      "ĠAfric": 3266,
      "ĠOf": 3267,
      "Ġill": 3268,
      "partial": 3269,
      "Hand": 3270,
      "Ġrelationship": 3271,
      "sy": 3272,
      "sim": 3273,
      "ĠPark": 3274,
      "Ġ2021": 3275,
      "Ġvirt": 3276,
      "lem": 3277,
      "Ġasked": 3278,
      "ĠSim": 3279,
      "Manager": 3280,
      "Ġcorrespon": 3281,
      "based": 3282,
      "ĠLaw": 3283,
      "Ġimprove": 3284,
      "Ġcomplex": 3285,
      "pty": 3286,
      "Ġelement": 3287,
      "ĠPost": 3288,
      "Ġanything": 3289,
      "Ġattack": 3290,
      "Ġparticip": 3291,
      "Ġshown": 3292,
      "Ġmatter": 3293,
      "uk": 3294,
      "Ġbi": 3295,
      "Ġstep": 3296,
      "Ġissue": 3297,
      "100": 3298,
      "Ġimplement": 3299,
      "Ġwords": 3300,
      "Ġconditions": 3301,
      "aur": 3302,
      "35": 3303,
      "Ġhot": 3304,
      "itte": 3305,
      "Ġwatch": 3306,
      "Ġnum": 3307,
      "Ġeverything": 3308,
      "Of": 3309,
      "Ġincrease": 3310,
      "aker": 3311,
      "opt": 3312,
      "Ġrecogn": 3313,
      "Ġminutes": 3314,
      "ama": 3315,
      "oice": 3316,
      "aving": 3317,
      "Ġfig": 3318,
      "gr": 3319,
      "Ġforward": 3320,
      "apache": 3321,
      "ĠCons": 3322,
      "ĠChar": 3323,
      "content": 3324,
      "Ġpolitical": 3325,
      ")(": 3326,
      "User": 3327,
      "google": 3328,
      "Ġpie": 3329,
      "sequ": 3330,
      "ĠHer": 3331,
      "assert": 3332,
      "90": 3333,
      "ĠMod": 3334,
      "android": 3335,
      "cdot": 3336,
      "include": 3337,
      "frak": 3338,
      "come": 3339,
      "Ġcomplete": 3340,
      "Ġprovides": 3341,
      "ĠBr": 3342,
      "Ġrecent": 3343,
      "Ġfriend": 3344,
      "Ġgames": 3345,
      "ham": 3346,
      "Ġdifficult": 3347,
      "Ġformer": 3348,
      "Result": 3349,
      "orem": 3350,
      "mathfrak": 3351,
      "Ġoption": 3352,
      "aign": 3353,
      "ĠSince": 3354,
      "ML": 3355,
      "gl": 3356,
      "izing": 3357,
      "Ġess": 3358,
      "pose": 3359,
      "Al": 3360,
      "oring": 3361,
      "actory": 3362,
      "eqn": 3363,
      "ĠTrans": 3364,
      "Ġgra": 3365,
      "Ġheld": 3366,
      "Log": 3367,
      "Is": 3368,
      "ithub": 3369,
      "Ġapplication": 3370,
      "ĠDirect": 3371,
      "Ġopp": 3372,
      "Ġespecially": 3373,
      "Ġdefined": 3374,
      "annel": 3375,
      "Ġ($": 3376,
      "ategory": 3377,
      "Ġwanted": 3378,
      "omega": 3379,
      "coming": 3380,
      "Ġunsigned": 3381,
      "epsilon": 3382,
      "ĠĠĠĠĠ": 3383,
      "cul": 3384,
      "tab": 3385,
      "ĠTrump": 3386,
      "IP": 3387,
      "Ġnil": 3388,
      "Ġ2012": 3389,
      "Ġproduction": 3390,
      "ruary": 3391,
      "max": 3392,
      "Ġhope": 3393,
      "nov": 3394,
      "ĠCenter": 3395,
      "Override": 3396,
      "Ġfoot": 3397,
      "fil": 3398,
      "Ġloss": 3399,
      "olds": 3400,
      "Ġvia": 3401,
      "Ġbehind": 3402,
      "ottom": 3403,
      "--------------------------------": 3404,
      "EM": 3405,
      "Ġsens": 3406,
      "ional": 3407,
      "Ġdouble": 3408,
      "ondon": 3409,
      "aced": 3410,
      "print": 3411,
      "prot": 3412,
      "Ġanalysis": 3413,
      "bed": 3414,
      "anel": 3415,
      "21": 3416,
      "Ġinitial": 3417,
      "Ġstay": 3418,
      "IL": 3419,
      "Ġcoming": 3420,
      "Ġreceived": 3421,
      "Ġsomeone": 3422,
      "Ġareas": 3423,
      "yd": 3424,
      "Out": 3425,
      "ensive": 3426,
      "Ġstd": 3427,
      "Ġpackage": 3428,
      "88": 3429,
      "Ġofficial": 3430,
      "net": 3431,
      "Ġmanagement": 3432,
      "chi": 3433,
      "atory": 3434,
      "Ġsecurity": 3435,
      "ounter": 3436,
      "adem": 3437,
      "Ġgroups": 3438,
      "Ġrights": 3439,
      "Ġ21": 3440,
      "Ġsepar": 3441,
      "wide": 3442,
      "overed": 3443,
      "Ġremain": 3444,
      "Ġpick": 3445,
      "ĠMich": 3446,
      "ĠMon": 3447,
      "unk": 3448,
      "Ġâ": 3449,
      "Ġsense": 3450,
      "Ġ<!--": 3451,
      "roller": 3452,
      "Ġinternational": 3453,
      "}[": 3454,
      "ĠPre": 3455,
      "////////": 3456,
      "iet": 3457,
      "escription": 3458,
      "Ġfinancial": 3459,
      "Ġprior": 3460,
      "sl": 3461,
      "ĠJo": 3462,
      "arser": 3463,
      "Ġste": 3464,
      "lying": 3465,
      "DO": 3466,
      "Ser": 3467,
      "Ġunique": 3468,
      "Ġpers": 3469,
      "rt": 3470,
      "abled": 3471,
      "Ġregard": 3472,
      "airs": 3473,
      "Ġbad": 3474,
      "atur": 3475,
      "atest": 3476,
      ")$.": 3477,
      "Ġviol": 3478,
      "Ġupon": 3479,
      "27": 3480,
      "cle": 3481,
      "Ġeducation": 3482,
      "ship": 3483,
      "65": 3484,
      "java": 3485,
      "anced": 3486,
      "ework": 3487,
      "ouncil": 3488,
      "ymbol": 3489,
      "ns": 3490,
      "start": 3491,
      "nown": 3492,
      "Ġwrite": 3493,
      "ĠUK": 3494,
      "ĠUs": 3495,
      "Ġwhite": 3496,
      "FF": 3497,
      "Ġquite": 3498,
      "Ġnothing": 3499,
      "aly": 3500,
      "ĠBro": 3501,
      "ĠInternational": 3502,
      "Ġnatural": 3503,
      "ington": 3504,
      "ĠOff": 3505,
      "istry": 3506,
      "Ġlower": 3507,
      "wise": 3508,
      "itter": 3509,
      "Ġhon": 3510,
      "apter": 3511,
      "Ġconcern": 3512,
      "Ġtrying": 3513,
      "ĠHigh": 3514,
      "Ġdecl": 3515,
      "Ġinstall": 3516,
      "aries": 3517,
      "urg": 3518,
      "ĠTest": 3519,
      "ĠFebruary": 3520,
      "!!": 3521,
      "ega": 3522,
      "}_{\\": 3523,
      "ifier": 3524,
      "etic": 3525,
      "ĠCounty": 3526,
      "github": 3527,
      "Ġ40": 3528,
      "Ġstandard": 3529,
      "hood": 3530,
      "ĠYour": 3531,
      "icles": 3532,
      "Ġstructure": 3533,
      "ĠGerm": 3534,
      "};": 3535,
      "ees": 3536,
      "Ġmeasure": 3537,
      "Ġtravel": 3538,
      "bm": 3539,
      "Ġtakes": 3540,
      "client": 3541,
      "Ġ->": 3542,
      "Ġperfect": 3543,
      "ille": 3544,
      "Ġspect": 3545,
      "itution": 3546,
      "On": 3547,
      "ores": 3548,
      "Ġfire": 3549,
      "Color": 3550,
      "Ġsche": 3551,
      "Ġandroid": 3552,
      "Ġbehav": 3553,
      "ament": 3554,
      "gor": 3555,
      "acher": 3556,
      "idered": 3557,
      "Ġwait": 3558,
      "Ġitself": 3559,
      "Ġprice": 3560,
      "Ġwriting": 3561,
      "ibrary": 3562,
      "Ġ22": 3563,
      "event": 3564,
      "Loc": 3565,
      "ĠDem": 3566,
      "uge": 3567,
      "Ġcountries": 3568,
      "ĠSw": 3569,
      "Ut": 3570,
      "isf": 3571,
      "Ġleaders": 3572,
      "cial": 3573,
      "ĠTra": 3574,
      "Ġdecision": 3575,
      "ĠChina": 3576,
      "Ġlimit": 3577,
      "gen": 3578,
      "}}\\": 3579,
      "option": 3580,
      "change": 3581,
      "with": 3582,
      "Ġwritten": 3583,
      "Ġdisplay": 3584,
      "ĠAN": 3585,
      "Ġarticle": 3586,
      "call": 3587,
      "ressed": 3588,
      "model": 3589,
      "Ġwond": 3590,
      "anch": 3591,
      "style": 3592,
      "hern": 3593,
      "Ġoutside": 3594,
      "ĠPat": 3595,
      "Ġ23": 3596,
      "Ġlearning": 3597,
      "Ġ-->": 3598,
      "New": 3599,
      "hand": 3600,
      "Ġfriends": 3601,
      "iences": 3602,
      "II": 3603,
      "Ġpref": 3604,
      "chan": 3605,
      "Ġparty": 3606,
      "Ġbecame": 3607,
      "ĠLondon": 3608,
      "85": 3609,
      "Ġstaff": 3610,
      "Ġ2011": 3611,
      "Inter": 3612,
      "Ġcross": 3613,
      "Ġdeep": 3614,
      "Ġexact": 3615,
      "iful": 3616,
      ">(": 3617,
      "Ġmethods": 3618,
      "ĠWork": 3619,
      "ĠAustral": 3620,
      "Ġproblems": 3621,
      "Property": 3622,
      "Ġ\"\"\"": 3623,
      "Ġengine": 3624,
      "ection": 3625,
      "Ġliving": 3626,
      "den": 3627,
      "Stream": 3628,
      "reet": 3629,
      "ependent": 3630,
      "Response": 3631,
      "Ġconsidered": 3632,
      "Ġquestions": 3633,
      "nces": 3634,
      "Ġoffice": 3635,
      "Ġsimply": 3636,
      "Client": 3637,
      "Ġcover": 3638,
      "Ġarch": 3639,
      "rs": 3640,
      "Ġord": 3641,
      "ederal": 3642,
      "Ġincludes": 3643,
      "29": 3644,
      "Ġinstead": 3645,
      "Ġclean": 3646,
      "ĠRead": 3647,
      "Ġlength": 3648,
      "Ġrelated": 3649,
      "Ġdetails": 3650,
      "])": 3651,
      "Ġful": 3652,
      "Ġadditional": 3653,
      "aching": 3654,
      "obile": 3655,
      "Ġappear": 3656,
      "ocr": 3657,
      "Ġansw": 3658,
      "ĠAc": 3659,
      "ersion": 3660,
      "ĠĠĠĠĠĠĠ": 3661,
      "ĠKing": 3662,
      "Ġimm": 3663,
      "rong": 3664,
      "Ġcy": 3665,
      "lier": 3666,
      ".)": 3667,
      "Ġpatients": 3668,
      "Ġcontract": 3669,
      "ĠÐ": 3670,
      "non": 3671,
      "Ġnode": 3672,
      "Ġstop": 3673,
      "ĠVal": 3674,
      "ocol": 3675,
      "ha": 3676,
      "Ġbackground": 3677,
      "Ġreported": 3678,
      "gorith": 3679,
      "urb": 3680,
      "ĠIndia": 3681,
      "ouch": 3682,
      "ULL": 3683,
      "aves": 3684,
      "hold": 3685,
      "Ġassociated": 3686,
      "Ġcondition": 3687,
      "Table": 3688,
      "Ġpopular": 3689,
      "26": 3690,
      "tty": 3691,
      "=\"../../": 3692,
      "Ġinj": 3693,
      "ĠSen": 3694,
      "Ġpict": 3695,
      "Count": 3696,
      "ailed": 3697,
      "Ġhit": 3698,
      "Ġsaw": 3699,
      "44": 3700,
      "Ġgrowth": 3701,
      "Ġincluded": 3702,
      "Ġver": 3703,
      "bor": 3704,
      "uel": 3705,
      "uses": 3706,
      "Ġquant": 3707,
      "Ġregular": 3708,
      "comes": 3709,
      "All": 3710,
      "ague": 3711,
      "iation": 3712,
      "unt": 3713,
      "color": 3714,
      "Ġsolution": 3715,
      "IR": 3716,
      "Ġsequ": 3717,
      "atal": 3718,
      "olar": 3719,
      "ramework": 3720,
      "check": 3721,
      "ĠAng": 3722,
      "ittee": 3723,
      "Ġways": 3724,
      "Ġstar": 3725,
      "ivil": 3726,
      "ald": 3727,
      "Ġ2010": 3728,
      "ASK": 3729,
      "ĠCourt": 3730,
      "Ġtypes": 3731,
      "Ġeveryone": 3732,
      "Ġaw": 3733,
      "attle": 3734,
      "Ġseems": 3735,
      "He": 3736,
      "SC": 3737,
      "Ġblo": 3738,
      "Ġdiv": 3739,
      "Ġroad": 3740,
      "TO": 3741,
      "ĠDepartment": 3742,
      "irection": 3743,
      "ridge": 3744,
      "Ġpain": 3745,
      "Ġhor": 3746,
      "Ġrecomm": 3747,
      "Ġdraw": 3748,
      "ĠDavid": 3749,
      "Ġpurch": 3750,
      "like": 3751,
      "Ġaverage": 3752,
      "Ġlate": 3753,
      "page": 3754,
      "Ġsrc": 3755,
      "Ġprote": 3756,
      "Ġprobably": 3757,
      "Ġisn": 3758,
      "MA": 3759,
      "28": 3760,
      "Ġload": 3761,
      "ilitary": 3762,
      "Ġdam": 3763,
      "iqu": 3764,
      "Ġsaf": 3765,
      "imension": 3766,
      "Ġbegan": 3767,
      "Ġsoon": 3768,
      "osition": 3769,
      "iber": 3770,
      "System": 3771,
      "itute": 3772,
      "Ġgirl": 3773,
      "struct": 3774,
      "Ġestim": 3775,
      "expr": 3776,
      "Ġprotected": 3777,
      "Ġder": 3778,
      "ĠNe": 3779,
      "valid": 3780,
      "ĠDay": 3781,
      "Call": 3782,
      "Ġthemselves": 3783,
      "Ġrunning": 3784,
      "nav": 3785,
      "ening": 3786,
      "Builder": 3787,
      "Ġfit": 3788,
      "EL": 3789,
      "ufact": 3790,
      "ĠSub": 3791,
      "atives": 3792,
      "rows": 3793,
      "Ġattempt": 3794,
      "ĠGover": 3795,
      "Ġcurrently": 3796,
      "Ġcampaign": 3797,
      "ĠAssoci": 3798,
      "doc": 3799,
      "oo": 3800,
      "Ġsort": 3801,
      "Model": 3802,
      "Ġlanguage": 3803,
      "iment": 3804,
      "Ġlonger": 3805,
      "ĠCalif": 3806,
      "Ġextra": 3807,
      "Ġcand": 3808,
      "Ġang": 3809,
      "Ġknowledge": 3810,
      "Ġpresident": 3811,
      "abase": 3812,
      "ĠLa": 3813,
      "Ġrelease": 3814,
      "acc": 3815,
      "ences": 3816,
      "icense": 3817,
      "Ġcopy": 3818,
      "Ġge": 3819,
      "}^{\\": 3820,
      "Ġword": 3821,
      "Ġcareer": 3822,
      "ĠSan": 3823,
      "Ġtemper": 3824,
      "_.": 3825,
      "bt": 3826,
      "apan": 3827,
      "Ġ__": 3828,
      "Ġstatus": 3829,
      "ĠÃ": 3830,
      "ĠInter": 3831,
      "aches": 3832,
      "ĠSee": 3833,
      "ech": 3834,
      "Ġaccom": 3835,
      "ĠAir": 3836,
      "SP": 3837,
      "wid": 3838,
      "ming": 3839,
      "Ġliter": 3840,
      "Ġworked": 3841,
      "pack": 3842,
      "Ġalbum": 3843,
      "ensity": 3844,
      "Ġautom": 3845,
      "Ġitem": 3846,
      "34": 3847,
      "ares": 3848,
      "db": 3849,
      "php": 3850,
      "member": 3851,
      "vey": 3852,
      "Ġmultiple": 3853,
      "Ġcenter": 3854,
      "^*": 3855,
      "psi": 3856,
      "ordin": 3857,
      "board": 3858,
      "Ġwhose": 3859,
      "Be": 3860,
      "lied": 3861,
      "Ġvot": 3862,
      "ĠBlack": 3863,
      "39": 3864,
      "Ġassist": 3865,
      "Ġcourt": 3866,
      "mission": 3867,
      "Ġ()": 3868,
      "Ġpractice": 3869,
      "Trans": 3870,
      "rate": 3871,
      "Ġleading": 3872,
      "Ġsatisf": 3873,
      "eqnarray": 3874,
      "Ġusers": 3875,
      "Ġ26": 3876,
      "Ġemer": 3877,
      "uster": 3878,
      "IV": 3879,
      "ĠIr": 3880,
      "izer": 3881,
      "ĠCommun": 3882,
      "Ġir": 3883,
      "Ġplatform": 3884,
      "Ġpositive": 3885,
      "void": 3886,
      "ĠPal": 3887,
      "Ġinflu": 3888,
      "ĠClass": 3889,
      "Ġinside": 3890,
      "Ġrecently": 3891,
      "And": 3892,
      "Ġlives": 3893,
      "Ġoffers": 3894,
      "Ġstream": 3895,
      "ese": 3896,
      "where": 3897,
      "Ġlegal": 3898,
      "Ġ27": 3899,
      "irit": 3900,
      "circ": 3901,
      "Ġtown": 3902,
      "Ġcolumn": 3903,
      "ĠBook": 3904,
      "ĠOut": 3905,
      "Ġlabel": 3906,
      "olid": 3907,
      "ornia": 3908,
      "ĠHome": 3909,
      "eline": 3910,
      "ken": 3911,
      "Ġcook": 3912,
      "MASK": 3913,
      "Ġband": 3914,
      "ĠHist": 3915,
      "MS": 3916,
      "ellow": 3917,
      "Ġprevent": 3918,
      "oto": 3919,
      "Ġfollows": 3920,
      "BC": 3921,
      "mega": 3922,
      "Ġfather": 3923,
      "Ġnormal": 3924,
      "ĠSte": 3925,
      "Ġmother": 3926,
      ")$,": 3927,
      "Ġprep": 3928,
      "================": 3929,
      "vec": 3930,
      "ael": 3931,
      "Up": 3932,
      "ii": 3933,
      "ĠĠĠĠĠĠ": 3934,
      "Ġfavor": 3935,
      "Ġhimself": 3936,
      "nes": 3937,
      "po": 3938,
      "xy": 3939,
      "erc": 3940,
      "Ġcam": 3941,
      "rief": 3942,
      "ements": 3943,
      "Ġ28": 3944,
      "avy": 3945,
      "Ġtreatment": 3946,
      "ius": 3947,
      "From": 3948,
      "Ġsus": 3949,
      "psilon": 3950,
      "Ġthroughout": 3951,
      "ui": 3952,
      "Ġrev": 3953,
      "Ġpolice": 3954,
      "ades": 3955,
      "ĠEnglish": 3956,
      "enu": 3957,
      "ford": 3958,
      "TE": 3959,
      "ĠPublic": 3960,
      "ĠAre": 3961,
      "request": 3962,
      "Ġcompl": 3963,
      "Ġopportunity": 3964,
      "Ġstri": 3965,
      "ounced": 3966,
      "ĠEar": 3967,
      "Ġadminist": 3968,
      "Ġeffic": 3969,
      "Ġsn": 3970,
      "Ġcatch": 3971,
      "actions": 3972,
      "Ġjud": 3973,
      "ĠData": 3974,
      "Ġconsist": 3975,
      "Ġcele": 3976,
      "Ġ${\\": 3977,
      "OP": 3978,
      "ĠRed": 3979,
      "cret": 3980,
      "aily": 3981,
      "Ġbuilt": 3982,
      "Ġwoman": 3983,
      "Ġbox": 3984,
      "Ġchalleng": 3985,
      "Ġvirtual": 3986,
      "ĠTw": 3987,
      "xim": 3988,
      "Ġinvolved": 3989,
      "Ġnecessary": 3990,
      "ĠCollege": 3991,
      "ulations": 3992,
      "37": 3993,
      "Ġcollection": 3994,
      "Ġround": 3995,
      "Ġdistribution": 3996,
      "Ġensure": 3997,
      "sf": 3998,
      "Ġlocation": 3999,
      "parent": 4000,
      "pite": 4001,
      "Ġparameters": 4002,
      "mm": 4003,
      "ĠGroup": 4004,
      "core": 4005,
      "Query": 4006,
      "irth": 4007,
      "rated": 4008,
      "Ġcard": 4009,
      "Ġled": 4010,
      "Ġmagn": 4011,
      "Ġproperties": 4012,
      "Ġimmedi": 4013,
      "ĠTV": 4014,
      "Ġstore": 4015,
      "Ġsex": 4016,
      "CE": 4017,
      "append": 4018,
      "ica": 4019,
      "Ġselect": 4020,
      "Ġpublished": 4021,
      "base": 4022,
      "ĠResearch": 4023,
      "ĠâĢ¢": 4024,
      "rael": 4025,
      "Ġeval": 4026,
      "caption": 4027,
      "ĠTHE": 4028,
      "ĠCalifornia": 4029,
      "Ġtour": 4030,
      "Ġbroad": 4031,
      "method": 4032,
      "Ð°": 4033,
      "useum": 4034,
      "Ġelements": 4035,
      "Ġboard": 4036,
      "Ġeffects": 4037,
      "Ġlost": 4038,
      "subsection": 4039,
      "ĠRem": 4040,
      "Ġevidence": 4041,
      "zz": 4042,
      "Reg": 4043,
      "Ġmach": 4044,
      "ĠSk": 4045,
      "Ġson": 4046,
      "izes": 4047,
      "Ġcause": 4048,
      "race": 4049,
      "Read": 4050,
      "Ġ((": 4051,
      "Ġfrequ": 4052,
      "ĠJapan": 4053,
      "Ġgas": 4054,
      "TER": 4055,
      "lick": 4056,
      "ĠOther": 4057,
      "Ġsil": 4058,
      "Ġconstant": 4059,
      "rought": 4060,
      "ĠInc": 4061,
      "Ġeconomic": 4062,
      "OL": 4063,
      "Ġnamespace": 4064,
      "default": 4065,
      "Ġconduct": 4066,
      "Ġweb": 4067,
      "Ġ===": 4068,
      "Ġtru": 4069,
      "Input": 4070,
      "'.": 4071,
      "Ġfight": 4072,
      "Ġwidth": 4073,
      "ector": 4074,
      "proof": 4075,
      "Ġlines": 4076,
      "Ġleave": 4077,
      "define": 4078,
      "Dis": 4079,
      "Ġstudent": 4080,
      "05": 4081,
      "ado": 4082,
      "){": 4083,
      "Ġgives": 4084,
      "FI": 4085,
      "Ġstage": 4086,
      "options": 4087,
      "Date": 4088,
      "ida": 4089,
      "duc": 4090,
      "rim": 4091,
      "illing": 4092,
      "ĠBritish": 4093,
      "36": 4094,
      "ributed": 4095,
      "Ġflow": 4096,
      "Ġdise": 4097,
      "Ġbooks": 4098,
      "istics": 4099,
      "CL": 4100,
      "31": 4101,
      "ĠUp": 4102,
      "ĠDi": 4103,
      "Ġsem": 4104,
      "Ġmedical": 4105,
      "unc": 4106,
      "uate": 4107,
      "Group": 4108,
      "Ġdevice": 4109,
      "No": 4110,
      "ĠCouncil": 4111,
      "Ġemail": 4112,
      "Ġweight": 4113,
      "Ġconstexpr": 4114,
      "Ġplayers": 4115,
      "ĠWilliam": 4116,
      "Omega": 4117,
      "just": 4118,
      "Ġworth": 4119,
      "ĠRef": 4120,
      "Ġfunctions": 4121,
      "Ġq": 4122,
      "Ġbal": 4123,
      "Ġsubjects": 4124,
      "ĠHam": 4125,
      "center": 4126,
      "Ġlevels": 4127,
      "Gamma": 4128,
      "Ġcapt": 4129,
      "Ġhistor": 4130,
      "jo": 4131,
      "Ġscreen": 4132,
      "post": 4133,
      "ĠEuropean": 4134,
      "ĠWash": 4135,
      "Ġsurface": 4136,
      "Ġpretty": 4137,
      "write": 4138,
      "rast": 4139,
      "from": 4140,
      "Ġveh": 4141,
      "egraphics": 4142,
      "includegraphics": 4143,
      "Ġbeautiful": 4144,
      "Ġ$$": 4145,
      "Ġreve": 4146,
      "ĠOver": 4147,
      "ĠDist": 4148,
      "Ġmention": 4149,
      "orge": 4150,
      "Ġupdate": 4151,
      "[\"": 4152,
      "args": 4153,
      "vare": 4154,
      "Ġresources": 4155,
      "Ġcorrect": 4156,
      "Ġfast": 4157,
      "ĠSpec": 4158,
      "ico": 4159,
      "Ġboolean": 4160,
      "Ġ198": 4161,
      "Ġdesigned": 4162,
      "Ġreleased": 4163,
      "Ġforce": 4164,
      "Ġdirectly": 4165,
      "Ġcomment": 4166,
      "38": 4167,
      "OS": 4168,
      "ĠPaul": 4169,
      "image": 4170,
      "current": 4171,
      "Factory": 4172,
      "semb": 4173,
      "more": 4174,
      "Ġcharg": 4175,
      "arter": 4176,
      "Ġdemon": 4177,
      "pri": 4178,
      "Ġvict": 4179,
      "ĠReturn": 4180,
      "Ġprec": 4181,
      "Ġplease": 4182,
      "active": 4183,
      "run": 4184,
      "Ġparameter": 4185,
      "\"]": 4186,
      "Ġweeks": 4187,
      "md": 4188,
      "aling": 4189,
      "Ġwasn": 4190,
      "((": 4191,
      "acity": 4192,
      "TY": 4193,
      "ĠSam": 4194,
      "ĠJames": 4195,
      "alls": 4196,
      "cell": 4197,
      "adata": 4198,
      "Ġfunc": 4199,
      "Ġsuff": 4200,
      "Token": 4201,
      "NS": 4202,
      "Ad": 4203,
      "Ġmeeting": 4204,
      "Base": 4205,
      "asons": 4206,
      "Ġnature": 4207,
      "Ġparts": 4208,
      "Ġ2022": 4209,
      "Ġmaintain": 4210,
      "Ġgoal": 4211,
      "anger": 4212,
      "ĠCanada": 4213,
      "Ġmer": 4214,
      "Ġrout": 4215,
      "TH": 4216,
      "query": 4217,
      "wood": 4218,
      "Ġsold": 4219,
      "Ġexecut": 4220,
      "exp": 4221,
      "ĠOb": 4222,
      "Ġprofessional": 4223,
      "Ġeffective": 4224,
      "Ġdriv": 4225,
      "emph": 4226,
      "Ġmodern": 4227,
      "Ġmix": 4228,
      "Ġinteresting": 4229,
      "Ġbasis": 4230,
      "Ġassum": 4231,
      "ĠIsrael": 4232,
      "({": 4233,
      "erred": 4234,
      "false": 4235,
      "Ġreading": 4236,
      "95": 4237,
      "ĠTechn": 4238,
      "ĠFound": 4239,
      "Ð¾": 4240,
      "Ġreceive": 4241,
      "Ġplayed": 4242,
      "ospital": 4243,
      "Ġnote": 4244,
      "Ġlatest": 4245,
      "Ġattention": 4246,
      "server": 4247,
      "Ġchoice": 4248,
      "Ġability": 4249,
      "Ġbank": 4250,
      "emplate": 4251,
      "Ġresource": 4252,
      "Ġdepend": 4253,
      "indows": 4254,
      "Ġcommand": 4255,
      "Ġturned": 4256,
      "Ġdark": 4257,
      "ĠMost": 4258,
      "Ġprojects": 4259,
      ";&": 4260,
      "Ġcustomers": 4261,
      "Ġallows": 4262,
      "Ġcontinu": 4263,
      "Ġknew": 4264,
      "textbf": 4265,
      "isions": 4266,
      "varepsilon": 4267,
      "ny": 4268,
      "Ġactivities": 4269,
      "itect": 4270,
      "cel": 4271,
      "Ġbed": 4272,
      "ervices": 4273,
      "Ġple": 4274,
      "MP": 4275,
      ".~\\": 4276,
      "arily": 4277,
      "Ġ2009": 4278,
      "Ġinsp": 4279,
      "ĠGeneral": 4280,
      "Ġconstruct": 4281,
      "à¤": 4282,
      "ĠWhy": 4283,
      "pected": 4284,
      "Ðµ": 4285,
      "urance": 4286,
      "Ġcalcul": 4287,
      "UL": 4288,
      "Ġwindow": 4289,
      "enge": 4290,
      "Ġprinc": 4291,
      "ĠAnt": 4292,
      "elete": 4293,
      "Ġcouple": 4294,
      "itude": 4295,
      "ributes": 4296,
      "haps": 4297,
      "vant": 4298,
      "reement": 4299,
      "Ġneigh": 4300,
      "Ġdru": 4301,
      "Ġinterview": 4302,
      "Gener": 4303,
      "78": 4304,
      "Ġfields": 4305,
      "encies": 4306,
      "Ġextrem": 4307,
      "Ġapply": 4308,
      "Ġ60": 4309,
      "Ġprotect": 4310,
      "ĠEv": 4311,
      "UE": 4312,
      "loat": 4313,
      "iring": 4314,
      "gener": 4315,
      "Ġinternal": 4316,
      "Ġanyone": 4317,
      "Ġmis": 4318,
      "Ġfelt": 4319,
      "roy": 4320,
      "ĠIS": 4321,
      "??": 4322,
      "Ġupd": 4323,
      "ara": 4324,
      "Ġdifference": 4325,
      "contain": 4326,
      "Ġsoftware": 4327,
      "Ġconnect": 4328,
      "Ġavoid": 4329,
      "Ġpattern": 4330,
      "Ġplaying": 4331,
      "Ġ29": 4332,
      "ĠRepublic": 4333,
      "Comm": 4334,
      "ĠWashington": 4335,
      "Ġeyes": 4336,
      "Ġsurpr": 4337,
      "context": 4338,
      "tx": 4339,
      "indow": 4340,
      "Ġusually": 4341,
      "Ġmanufact": 4342,
      "Ġdescribed": 4343,
      "ĠEvery": 4344,
      "Ġstudies": 4345,
      "Ġparents": 4346,
      "ube": 4347,
      "ugin": 4348,
      "ula": 4349,
      "quare": 4350,
      "ĠGreat": 4351,
      "Ġgave": 4352,
      "geq": 4353,
      "band": 4354,
      "null": 4355,
      "Ġvert": 4356,
      "Ġetc": 4357,
      "ĠBoard": 4358,
      "iant": 4359,
      "ATE": 4360,
      "rightarrow": 4361,
      "ĠKe": 4362,
      "button": 4363,
      "Ġstatement": 4364,
      "Ġstra": 4365,
      "host": 4366,
      "eger": 4367,
      "mitted": 4368,
      "gest": 4369,
      "inner": 4370,
      "Ġten": 4371,
      "Ġ2008": 4372,
      "Ġtheory": 4373,
      "Ġque": 4374,
      "HO": 4375,
      "Ġpark": 4376,
      "ĠStreet": 4377,
      "Ġtim": 4378,
      "ĠGoogle": 4379,
      "Ġdeveloped": 4380,
      "Ġprograms": 4381,
      "ĠWhite": 4382,
      "bon": 4383,
      "Ġdegree": 4384,
      "Ġthreat": 4385,
      "Ġtowards": 4386,
      "Status": 4387,
      "educe": 4388,
      "Ġrock": 4389,
      "ography": 4390,
      "Ġconcept": 4391,
      "ened": 4392,
      "Ġserious": 4393,
      "evice": 4394,
      "mercial": 4395,
      "ĠEven": 4396,
      "Ġsituation": 4397,
      "css": 4398,
      "Ġincreasing": 4399,
      "build": 4400,
      "amily": 4401,
      "Ġexcept": 4402,
      "ĠNote": 4403,
      "ĠAccording": 4404,
      "ĠBre": 4405,
      "Ġentry": 4406,
      "Ġactive": 4407,
      "Ġgraph": 4408,
      "Method": 4409,
      "efore": 4410,
      "Ġextends": 4411,
      "Ġorigin": 4412,
      "Ġspeed": 4413,
      "ĠJe": 4414,
      "known": 4415,
      "48": 4416,
      "55": 4417,
      "Ġcandid": 4418,
      "Ġstru": 4419,
      "ĠEast": 4420,
      "cho": 4421,
      "force": 4422,
      "Ġstreng": 4423,
      "json": 4424,
      "ĠIndian": 4425,
      "Ġwrong": 4426,
      "ĠJack": 4427,
      "Ġsam": 4428,
      "Ġmulti": 4429,
      "Ġ<<": 4430,
      "This": 4431,
      "Equal": 4432,
      "oul": 4433,
      "ĠMat": 4434,
      "ĠProf": 4435,
      "lication": 4436,
      "level": 4437,
      "Ġnumbers": 4438,
      "ĠBusiness": 4439,
      "ĠHol": 4440,
      "Ġhands": 4441,
      "leep": 4442,
      "rench": 4443,
      "Sub": 4444,
      "ifact": 4445,
      "}=": 4446,
      "mar": 4447,
      ")=": 4448,
      "Ã¤": 4449,
      "Line": 4450,
      "Ġfa": 4451,
      "Ġpopulation": 4452,
      "vision": 4453,
      "Ġtrust": 4454,
      "Ġimages": 4455,
      "Ġbrand": 4456,
      "ĠRober": 4457,
      "lor": 4458,
      "Ġmovie": 4459,
      "ĠCong": 4460,
      "ĠAtt": 4461,
      "Ġdead": 4462,
      "ĠArch": 4463,
      "ett": 4464,
      "ialog": 4465,
      "Ġscient": 4466,
      "sqrt": 4467,
      "Ġthus": 4468,
      "Ġpredict": 4469,
      "oding": 4470,
      "Ġmilitary": 4471,
      "riday": 4472,
      "ĠRel": 4473,
      "Ġcompared": 4474,
      "vest": 4475,
      "Ġtele": 4476,
      "Ġcollect": 4477,
      "Em": 4478,
      "Ġspeak": 4479,
      "Ġscale": 4480,
      "weet": 4481,
      "stract": 4482,
      "Ġmag": 4483,
      "ynt": 4484,
      "Ġ+=": 4485,
      "ĠAlso": 4486,
      "ĠOF": 4487,
      "ĠFil": 4488,
      "ĠNone": 4489,
      "has": 4490,
      "draw": 4491,
      "ĠReview": 4492,
      "Ġoperation": 4493,
      "Ġchoose": 4494,
      "Ġmid": 4495,
      "Ġgoes": 4496,
      "Ġunit": 4497,
      "ilies": 4498,
      "Ġter": 4499,
      "Ġaim": 4500,
      "ĠNULL": 4501,
      "Ġlooked": 4502,
      "Ġready": 4503,
      "pat": 4504,
      "aled": 4505,
      "Le": 4506,
      "Ġ;": 4507,
      ">>": 4508,
      "Ġphysical": 4509,
      "miss": 4510,
      "You": 4511,
      "EO": 4512,
      "raz": 4513,
      "itation": 4514,
      "ĠProgram": 4515,
      "ĠThom": 4516,
      "Ġacqu": 4517,
      "Ġplans": 4518,
      "Ġquickly": 4519,
      "mas": 4520,
      "Su": 4521,
      "nected": 4522,
      "Ġpull": 4523,
      "Ġones": 4524,
      "Ġrules": 4525,
      "Ġfinally": 4526,
      "Options": 4527,
      "ios": 4528,
      "^{(": 4529,
      "ĠArm": 4530,
      "erved": 4531,
      "Ed": 4532,
      "estern": 4533,
      "idden": 4534,
      "Ġmechan": 4535,
      "oms": 4536,
      "Ġoil": 4537,
      "ĠService": 4538,
      "PRO": 4539,
      "Ġconnection": 4540,
      "ĠEduc": 4541,
      "(&": 4542,
      "aught": 4543,
      "Ġinvestig": 4544,
      "ĠDel": 4545,
      "osing": 4546,
      "Ġallowed": 4547,
      "Ġqual": 4548,
      "gorithm": 4549,
      "Box": 4550,
      "''": 4551,
      "Null": 4552,
      "Ġannounced": 4553,
      "Ġprogress": 4554,
      "Ġfeed": 4555,
      "ensions": 4556,
      "idents": 4557,
      "Ġroll": 4558,
      "rote": 4559,
      "ros": 4560,
      "77": 4561,
      "Ġwide": 4562,
      "Ġrat": 4563,
      "Ġnumer": 4564,
      "rial": 4565,
      "ishing": 4566,
      "Ġfair": 4567,
      "Ġstarting": 4568,
      "ĠID": 4569,
      "ĠSund": 4570,
      "agram": 4571,
      "Ġconsum": 4572,
      "Ġlimited": 4573,
      "Ġhear": 4574,
      "izations": 4575,
      "FA": 4576,
      "Ġsales": 4577,
      "Ġconstruction": 4578,
      "Ġsaying": 4579,
      "Task": 4580,
      "Ġ\\,": 4581,
      "Ġlocated": 4582,
      "AME": 4583,
      "HT": 4584,
      "ously": 4585,
      "Ġgets": 4586,
      "Ġcapital": 4587,
      "EE": 4588,
      "yth": 4589,
      "ota": 4590,
      "ĠVol": 4591,
      "rangle": 4592,
      "Ġtransform": 4593,
      "rices": 4594,
      "Ġstories": 4595,
      "omb": 4596,
      "ĠScience": 4597,
      "iers": 4598,
      "Ġbrought": 4599,
      "lections": 4600,
      "=\"../../../../": 4601,
      "Ġwonder": 4602,
      "ĠDec": 4603,
      "Ġslow": 4604,
      "iance": 4605,
      "ĠDan": 4606,
      "ĠGreen": 4607,
      "Ġ\\[": 4608,
      "Ġuses": 4609,
      "Ġscience": 4610,
      "Ġpartners": 4611,
      "Rec": 4612,
      "Ġthrows": 4613,
      "Instance": 4614,
      "vider": 4615,
      "Ġplayer": 4616,
      "rab": 4617,
      "ĠSection": 4618,
      "ĠFile": 4619,
      "Ġlack": 4620,
      "=\"#": 4621,
      "Ġassess": 4622,
      "Block": 4623,
      "iding": 4624,
      "Ġitems": 4625,
      "arr": 4626,
      "Ġaccur": 4627,
      "Ġculture": 4628,
      "erve": 4629,
      "Ġdoc": 4630,
      "ĠFriday": 4631,
      "ĠDevelop": 4632,
      "Ġorganization": 4633,
      "Ġrandom": 4634,
      "If": 4635,
      "Ġdynam": 4636,
      "VID": 4637,
      "Ġanaly": 4638,
      "True": 4639,
      "Ġheard": 4640,
      "Ġsuccessful": 4641,
      "ĠGl": 4642,
      "ville": 4643,
      "Default": 4644,
      "uman": 4645,
      "ĠBest": 4646,
      "Ġoccur": 4647,
      "ĠRich": 4648,
      ";</": 4649,
      "ASS": 4650,
      "Ġobtained": 4651,
      "Ġsummer": 4652,
      "Ġdecided": 4653,
      "ancy": 4654,
      "hest": 4655,
      "ĠPhil": 4656,
      "dir": 4657,
      "Ġcontains": 4658,
      "Ġaward": 4659,
      "Ass": 4660,
      "ĠMichael": 4661,
      "Ġtherefore": 4662,
      "pol": 4663,
      "ecause": 4664,
      "UM": 4665,
      "het": 4666,
      "Source": 4667,
      "Ġcert": 4668,
      "ester": 4669,
      "local": 4670,
      "PS": 4671,
      "Ġeasily": 4672,
      "raint": 4673,
      "varphi": 4674,
      "Ġimag": 4675,
      "ipment": 4676,
      "Ġfiles": 4677,
      "Ġlooks": 4678,
      "Ġbey": 4679,
      "Ġkids": 4680,
      "Ġphone": 4681,
      "Page": 4682,
      "ounds": 4683,
      "Ġbeyond": 4684,
      "ĠAnn": 4685,
      "Ġ::": 4686,
      "49": 4687,
      "Ġserver": 4688,
      "Ġsetting": 4689,
      "ypes": 4690,
      "Ġaltern": 4691,
      "Ġsolutions": 4692,
      "ĠPlease": 4693,
      "Ġsomet": 4694,
      "itable": 4695,
      "Ġsend": 4696,
      "Ġ31": 4697,
      "ĠFe": 4698,
      "Component": 4699,
      "ĠFace": 4700,
      "ying": 4701,
      "Ġteacher": 4702,
      "Ġbillion": 4703,
      "rl": 4704,
      "Ġdirection": 4705,
      "Ġcosts": 4706,
      "inst": 4707,
      "PER": 4708,
      "TD": 4709,
      "rupt": 4710,
      "Big": 4711,
      "ĠPort": 4712,
      "ĠForm": 4713,
      "Ġemb": 4714,
      "ĠMet": 4715,
      "Ġdemand": 4716,
      "66": 4717,
      "Handler": 4718,
      "lib": 4719,
      "rics": 4720,
      "ibly": 4721,
      "enty": 4722,
      "Ġdrive": 4723,
      "argin": 4724,
      "Ġessential": 4725,
      "ords": 4726,
      "uid": 4727,
      "Ġcomponent": 4728,
      "Ġmeaning": 4729,
      "Ġdirector": 4730,
      "Ġapproxim": 4731,
      "Ġheight": 4732,
      "essor": 4733,
      "~~": 4734,
      "Exp": 4735,
      "eria": 4736,
      "Ġideas": 4737,
      "Ġformat": 4738,
      "Ġdigital": 4739,
      "ae": 4740,
      "Ġactivity": 4741,
      "Ġreference": 4742,
      "04": 4743,
      "Ġencou": 4744,
      "ribe": 4745,
      "height": 4746,
      "stream": 4747,
      "Ġearlier": 4748,
      "Ġenter": 4749,
      "Ġmorning": 4750,
      "CON": 4751,
      "Ġconv": 4752,
      "agick": 4753,
      "ĠLog": 4754,
      "Ġtrade": 4755,
      "Ġpassed": 4756,
      "Ġhighly": 4757,
      "Ġtransfer": 4758,
      "perties": 4759,
      "overline": 4760,
      "Ġactual": 4761,
      "Ġincreased": 4762,
      "flow": 4763,
      "ĠLoc": 4764,
      "Fl": 4765,
      "Column": 4766,
      "Ġanswer": 4767,
      "Ġsafety": 4768,
      "Ã¶": 4769,
      "Ġanim": 4770,
      "dt": 4771,
      "inated": 4772,
      "Ġnovel": 4773,
      "ĠAlex": 4774,
      "Ġ```": 4775,
      "sole": 4776,
      "ĠConf": 4777,
      "Ġfully": 4778,
      "Ġproviding": 4779,
      "ĠBen": 4780,
      "ĠMor": 4781,
      "Ġbelie": 4782,
      "Ġmus": 4783,
      "Ġchanged": 4784,
      "ĠMusic": 4785,
      "Equals": 4786,
      "ĠSing": 4787,
      "Ġnamed": 4788,
      "Ġremember": 4789,
      "ĠWell": 4790,
      "').": 4791,
      "][": 4792,
      "find": 4793,
      "\").": 4794,
      "ĠTex": 4795,
      "strong": 4796,
      "Ġseek": 4797,
      "Ġcells": 4798,
      "................": 4799,
      "aughter": 4800,
      "Ġnation": 4801,
      "Ġindependent": 4802,
      "ests": 4803,
      "ifying": 4804,
      "olve": 4805,
      "atively": 4806,
      "ĠTime": 4807,
      "ago": 4808,
      "Ġchance": 4809,
      "Ġlarger": 4810,
      "icip": 4811,
      "ĠAlthough": 4812,
      "png": 4813,
      "urt": 4814,
      "ildren": 4815,
      "Ġhappy": 4816,
      "03": 4817,
      "Ġri": 4818,
      "ĠTO": 4819,
      "Ġcool": 4820,
      "!\"": 4821,
      "status": 4822,
      "Ġstock": 4823,
      "Ġarriv": 4824,
      "Ġdro": 4825,
      "}).": 4826,
      "Ġclosed": 4827,
      "ĠTop": 4828,
      "Ġappropri": 4829,
      "Ġdownload": 4830,
      "Head": 4831,
      "Ġexpand": 4832,
      "Ġcharacters": 4833,
      "AY": 4834,
      "Ġdistance": 4835,
      "tra": 4836,
      "Ġachieve": 4837,
      "Ret": 4838,
      "Act": 4839,
      "bolds": 4840,
      "Ġsurv": 4841,
      "ĠAbout": 4842,
      "Ġvers": 4843,
      "Ġexactly": 4844,
      "ĠTod": 4845,
      "\"),": 4846,
      "Ġexisting": 4847,
      "Ã¡": 4848,
      "ĠDemocr": 4849,
      "Ġdemonstr": 4850,
      "ĠDirector": 4851,
      "Content": 4852,
      "itiz": 4853,
      "ĠWeb": 4854,
      "Ġsubst": 4855,
      "End": 4856,
      "ebug": 4857,
      "MO": 4858,
      "clusion": 4859,
      "ategy": 4860,
      "ĠMal": 4861,
      "Ġsave": 4862,
      "Ġlif": 4863,
      "Ġcompletely": 4864,
      "Ġmodule": 4865,
      "Ġedge": 4866,
      "Ġrepl": 4867,
      "Ġsal": 4868,
      "Ġgiving": 4869,
      "Ġmatrix": 4870,
      "UI": 4871,
      "Number": 4872,
      "Ġhy": 4873,
      "Ġmoving": 4874,
      "yles": 4875,
      "Ġproposed": 4876,
      "Ġign": 4877,
      "ĠMany": 4878,
      "ĠRo": 4879,
      "udget": 4880,
      "Ġrow": 4881,
      "ĠBel": 4882,
      "Ġreports": 4883,
      "bre": 4884,
      "Ġinnov": 4885,
      "ĠRE": 4886,
      "ncy": 4887,
      "Ġpresented": 4888,
      "edia": 4889,
      "ĠUnder": 4890,
      "ĠCompany": 4891,
      "column": 4892,
      "ĠHel": 4893,
      "Ġhous": 4894,
      "ĠST": 4895,
      "foot": 4896,
      "ĠWed": 4897,
      "Ġblood": 4898,
      "Ġsets": 4899,
      "Ġcelebr": 4900,
      "AV": 4901,
      "ĠHall": 4902,
      "ĠMem": 4903,
      "Ġrace": 4904,
      "Ġbeginning": 4905,
      "Frame": 4906,
      "ĠAny": 4907,
      "Ġparticularly": 4908,
      "soft": 4909,
      "Per": 4910,
      "Ġbus": 4911,
      "ctors": 4912,
      "Ġyourself": 4913,
      "rian": 4914,
      "Ġsession": 4915,
      "Ġdescription": 4916,
      "Ġrates": 4917,
      "Run": 4918,
      "Ġwrote": 4919,
      "ĠOpen": 4920,
      "Attribute": 4921,
      "47": 4922,
      "ĠSuper": 4923,
      "ĠYear": 4924,
      "si": 4925,
      "ĠInstitute": 4926,
      "Ġnearly": 4927,
      "Ġdoor": 4928,
      "ĠNS": 4929,
      "Ġselection": 4930,
      "}}$": 4931,
      "Ġinterface": 4932,
      "Ġborder": 4933,
      "otimes": 4934,
      "ĠObject": 4935,
      "Ġgreen": 4936,
      "Ġinform": 4937,
      "fficient": 4938,
      "Ġunc": 4939,
      "Ġprimary": 4940,
      "boldsymbol": 4941,
      "porary": 4942,
      "Ġoperations": 4943,
      "Ġunderstanding": 4944,
      "Ġhuge": 4945,
      "ĠSatur": 4946,
      "IO": 4947,
      "Ġreli": 4948,
      "Ġmemory": 4949,
      "Ġvoice": 4950,
      "ulated": 4951,
      "Ġball": 4952,
      "Ġreach": 4953,
      "ĠSunday": 4954,
      "Ġreturned": 4955,
      "det": 4956,
      "ĠMart": 4957,
      "Ġfamilies": 4958,
      "Ġ2007": 4959,
      "Ġplant": 4960,
      "Ġgrowing": 4961,
      "Ġlargest": 4962,
      "Ġdefine": 4963,
      "ded": 4964,
      ".}": 4965,
      "Bar": 4966,
      "under": 4967,
      "term": 4968,
      "Ġfem": 4969,
      "Ġcritical": 4970,
      "vention": 4971,
      "},\\": 4972,
      "open": 4973,
      "Ġsafe": 4974,
      "Ġcentury": 4975,
      "Ġfirm": 4976,
      "Ġcompar": 4977,
      "ĠMond": 4978,
      "Ġtemperature": 4979,
      "undred": 4980,
      "Ġcredit": 4981,
      "Ġ]": 4982,
      "Entry": 4983,
      "CK": 4984,
      "oted": 4985,
      "Ġcomputer": 4986,
      "Ġsun": 4987,
      "ĠDet": 4988,
      "Fil": 4989,
      "rum": 4990,
      "Ġsometimes": 4991,
      "Ġrule": 4992,
      "PR": 4993,
      "apping": 4994,
      "ĠII": 4995,
      "Ġwife": 4996,
      "Sp": 4997,
      "Ġtransport": 4998,
      "ĠThus": 4999,
      "ooth": 5000,
      "Ð¸": 5001,
      "Ġborn": 5002,
      "Ġgold": 5003,
      "ĠGovernment": 5004,
      "iler": 5005,
      "hent": 5006,
      "ĠPress": 5007,
      "pass": 5008,
      "Ġdu": 5009,
      "ĠFrench": 5010,
      "Ġexists": 5011,
      "spec": 5012,
      "Ġthinking": 5013,
      "Ġaware": 5014,
      "img": 5015,
      "Ġexhib": 5016,
      "Ġvariety": 5017,
      "appa": 5018,
      "Ġdisease": 5019,
      "response": 5020,
      "Point": 5021,
      "67": 5022,
      "Ġselected": 5023,
      "mult": 5024,
      "Ġrelig": 5025,
      "gment": 5026,
      "Ġcentral": 5027,
      "69": 5028,
      ">&": 5029,
      "Ġbur": 5030,
      "Ġskills": 5031,
      "Ġschools": 5032,
      "ĠUSA": 5033,
      "Hel": 5034,
      "Ġcast": 5035,
      "Ġhandle": 5036,
      "ĠAssociation": 5037,
      "select": 5038,
      "ĠTom": 5039,
      "Version": 5040,
      "iny": 5041,
      "scope": 5042,
      "ĠServices": 5043,
      "berg": 5044,
      "ĠGold": 5045,
      "Ġsell": 5046,
      "ĠJournal": 5047,
      "Ġmoved": 5048,
      "Ġapplications": 5049,
      "Phi": 5050,
      "orph": 5051,
      "Che": 5052,
      "Ġproced": 5053,
      "Ġexception": 5054,
      "Ġbehavior": 5055,
      "Ġgovern": 5056,
      "Ġearn": 5057,
      "otal": 5058,
      "Ġproduced": 5059,
      "Ġcarry": 5060,
      "otion": 5061,
      "Ġutil": 5062,
      "Ġspent": 5063,
      "Ġamaz": 5064,
      "08": 5065,
      "ptr": 5066,
      "Ġcomfort": 5067,
      "ĠTwo": 5068,
      "Ġdou": 5069,
      "ĠConst": 5070,
      "Ġcreating": 5071,
      "cor": 5072,
      "Ġurl": 5073,
      "Ġclick": 5074,
      "ĠGood": 5075,
      "acing": 5076,
      "ĠBank": 5077,
      "xml": 5078,
      "ĠBig": 5079,
      "Ġtree": 5080,
      "Ġpiece": 5081,
      "display": 5082,
      "Command": 5083,
      "ĠAut": 5084,
      "ĠBill": 5085,
      "Const": 5086,
      "Ġplaces": 5087,
      "ustain": 5088,
      "ĠFlor": 5089,
      "Ġtraditional": 5090,
      "Ġalthough": 5091,
      "Ġimpl": 5092,
      "Ġequival": 5093,
      "Ġdog": 5094,
      "Ġstrateg": 5095,
      "Ġwel": 5096,
      "Ġcharge": 5097,
      "De": 5098,
      "pa": 5099,
      "cos": 5100,
      "ĠRob": 5101,
      "Ġthous": 5102,
      "Ġfollowed": 5103,
      "isation": 5104,
      "Ġremove": 5105,
      "Length": 5106,
      "ATION": 5107,
      "Ġremains": 5108,
      ")^": 5109,
      "Ġsen": 5110,
      "Ġtag": 5111,
      "Ġshared": 5112,
      "Arg": 5113,
      "2019": 5114,
      "ĠSaturday": 5115,
      "Ġpurpose": 5116,
      "format": 5117,
      "68": 5118,
      "Ġmiddle": 5119,
      "pret": 5120,
      "Ġscen": 5121,
      "ĠProject": 5122,
      "Ġregist": 5123,
      "Ġmount": 5124,
      "Ġrespectively": 5125,
      "gn": 5126,
      "Ġblog": 5127,
      "ĠAfrica": 5128,
      "VER": 5129,
      "ĠMo": 5130,
      "ĠDuring": 5131,
      "Ġstrategy": 5132,
      "Ġeight": 5133,
      "Ġ[]": 5134,
      "09": 5135,
      "Ġhop": 5136,
      "Ġforeign": 5137,
      "Ġ(\"": 5138,
      "gan": 5139,
      "Ġaspect": 5140,
      "ĠOffice": 5141,
      "gar": 5142,
      "Start": 5143,
      "Ġmess": 5144,
      "target": 5145,
      "ĠLeg": 5146,
      "Ġphase": 5147,
      "rage": 5148,
      "ĠUN": 5149,
      "Ġfactor": 5150,
      "grad": 5151,
      "ipe": 5152,
      "EX": 5153,
      "Ġspecified": 5154,
      "BU": 5155,
      "ston": 5156,
      "ĠId": 5157,
      "Ġabsol": 5158,
      "Ġvector": 5159,
      "Ġheat": 5160,
      "ĠHistory": 5161,
      "educeAction": 5162,
      "overy": 5163,
      "Ġproof": 5164,
      "ĠGeorge": 5165,
      "rypt": 5166,
      "Ġgrand": 5167,
      "[\\": 5168,
      "Format": 5169,
      "Ġlock": 5170,
      "porate": 5171,
      "ronic": 5172,
      "Ġrob": 5173,
      "Ġcorresponding": 5174,
      "ĠMac": 5175,
      "Create": 5176,
      "Ġtouch": 5177,
      "Ġindividuals": 5178,
      "ias": 5179,
      "entry": 5180,
      "07": 5181,
      "ĠChurch": 5182,
      "Ġsociety": 5183,
      "Ġfloat": 5184,
      "Ġcivil": 5185,
      "Ġexpression": 5186,
      "ĠEducation": 5187,
      "Ġotherwise": 5188,
      "Resource": 5189,
      "ĠAustralia": 5190,
      "ĠFacebook": 5191,
      "Ġfigure": 5192,
      "ÃŃ": 5193,
      "itche": 5194,
      "Ġclin": 5195,
      "Ġexpress": 5196,
      "Ġoptim": 5197,
      "Ġtools": 5198,
      "Ġgreater": 5199,
      "Ġauto": 5200,
      "Ġexcell": 5201,
      "Ġsho": 5202,
      "Ġcommercial": 5203,
      "ellig": 5204,
      "hline": 5205,
      "ĠIsland": 5206,
      "Ġestablished": 5207,
      "ĠEngland": 5208,
      "Ġoverall": 5209,
      "ĠView": 5210,
      "ka": 5211,
      "Ġnet": 5212,
      "Ġsett": 5213,
      "Ġcollabor": 5214,
      "ĠAngel": 5215,
      "Ġtick": 5216,
      "erences": 5217,
      "raction": 5218,
      "Ġequal": 5219,
      "Ġmicro": 5220,
      "Ġpair": 5221,
      "oyal": 5222,
      "sych": 5223,
      "olic": 5224,
      "ÑĤ": 5225,
      "main": 5226,
      "Ġdied": 5227,
      "Ġsolid": 5228,
      "Ġclub": 5229,
      "Ġcore": 5230,
      "ĠLast": 5231,
      "rees": 5232,
      "SON": 5233,
      "Ġstraight": 5234,
      "ĠTherefore": 5235,
      ")]": 5236,
      "Ġreduce": 5237,
      "Ġmaterials": 5238,
      "ĠĠĠĠĠĠĠĠĠĠĠĠĠĠĠĠĠĠĠĠĠĠĠĠĠĠĠĠĠĠĠĠ": 5239,
      "AA": 5240,
      "ĠSum": 5241,
      "Ġrestrict": 5242,
      "Ġpaid": 5243,
      "Ġult": 5244,
      "06": 5245,
      "59": 5246,
      "Ġbecomes": 5247,
      "ĠNet": 5248,
      "aven": 5249,
      "Ġeconomy": 5250,
      "ancing": 5251,
      "Ġmyself": 5252,
      "Ġprem": 5253,
      "Ġserved": 5254,
      "ĠNext": 5255,
      "writ": 5256,
      "Ġrepe": 5257,
      "ya": 5258,
      "icine": 5259,
      "ĠMonday": 5260,
      "Ġbasic": 5261,
      ",'": 5262,
      "Load": 5263,
      "inn": 5264,
      "Listener": 5265,
      "Ġaffect": 5266,
      "Ġempty": 5267,
      "inding": 5268,
      "Ġalone": 5269,
      "osh": 5270,
      "Ġcommit": 5271,
      "ldots": 5272,
      "Met": 5273,
      "Ġzero": 5274,
      "ĠPeople": 5275,
      "Ġproduce": 5276,
      "EW": 5277,
      "langle": 5278,
      "Ġsample": 5279,
      "itz": 5280,
      "ĠBecause": 5281,
      "istan": 5282,
      "house": 5283,
      "Ġinvestment": 5284,
      "Ġimmediately": 5285,
      "output": 5286,
      "ĠPlan": 5287,
      "ensor": 5288,
      "Ġbenefits": 5289,
      "Ġmode": 5290,
      "ĠMag": 5291,
      "chema": 5292,
      "ĠSpe": 5293,
      "ĠCr": 5294,
      "PO": 5295,
      "Ġobjects": 5296,
      "ĠCheck": 5297,
      "Ġrecommend": 5298,
      "Ġpush": 5299,
      "PC": 5300,
      "ĠTur": 5301,
      "Ġhappened": 5302,
      "dat": 5303,
      "aby": 5304,
      "vere": 5305,
      "Ġsto": 5306,
      "ĠFore": 5307,
      "Ġfine": 5308,
      "iller": 5309,
      "icated": 5310,
      "ulate": 5311,
      "gt": 5312,
      "Ġefforts": 5313,
      "Ġprop": 5314,
      "Ġclasses": 5315,
      "Ġinterested": 5316,
      "Ġsupported": 5317,
      "DF": 5318,
      "ĠEX": 5319,
      "Ġclients": 5320,
      "ĠRock": 5321,
      "Ġgun": 5322,
      "Ġanti": 5323,
      "Ġdream": 5324,
      "ĠPub": 5325,
      "Ġadult": 5326,
      "Ġcounter": 5327,
      "########": 5328,
      "cap": 5329,
      "ĠCommission": 5330,
      "Ġemployees": 5331,
      "Option": 5332,
      "free": 5333,
      "}),": 5334,
      "Ġdensity": 5335,
      "Ġhar": 5336,
      "Ġgenerated": 5337,
      "Ġrequires": 5338,
      "Ġwood": 5339,
      "anned": 5340,
      "ĠQue": 5341,
      "chers": 5342,
      "Ġpressure": 5343,
      "ĠTexas": 5344,
      "ĠCommittee": 5345,
      "Ġexpert": 5346,
      "ĠEach": 5347,
      "********************************": 5348,
      "ĠSur": 5349,
      "Ġcontinued": 5350,
      "Ġquery": 5351,
      "Ġdefinition": 5352,
      "Ġaf": 5353,
      "ABLE": 5354,
      "Ġbirth": 5355,
      "Ġseven": 5356,
      "ĠLife": 5357,
      "ĠCL": 5358,
      "long": 5359,
      "At": 5360,
      "Ġfixed": 5361,
      "inese": 5362,
      "ĠJew": 5363,
      "Ġlay": 5364,
      "Ġsecret": 5365,
      "Ġreturns": 5366,
      "Ġ197": 5367,
      "ĠÂ£": 5368,
      "Link": 5369,
      "alle": 5370,
      "ĠMus": 5371,
      "Ġgrant": 5372,
      "Ġfarm": 5373,
      "Ġ{@": 5374,
      "NO": 5375,
      "Ġfix": 5376,
      "Ġshot": 5377,
      "REF": 5378,
      "Ġfederal": 5379,
      "ĠEnd": 5380,
      "Ġworkers": 5381,
      "iate": 5382,
      "Ã¥": 5383,
      "ĠMary": 5384,
      "98": 5385,
      "itar": 5386,
      "Ġcustomer": 5387,
      "ano": 5388,
      "Ġswitch": 5389,
      "iled": 5390,
      "Ġjoin": 5391,
      "scale": 5392,
      "Ġcomponents": 5393,
      "Buffer": 5394,
      "Ġrequirements": 5395,
      "Ġstrugg": 5396,
      "header": 5397,
      "Ġnuc": 5398,
      "Ġsources": 5399,
      "2018": 5400,
      "Ġ2006": 5401,
      "Ġestablish": 5402,
      "ulture": 5403,
      "Ġhundred": 5404,
      "estival": 5405,
      "Label": 5406,
      "Ġhour": 5407,
      "care": 5408,
      "reedom": 5409,
      "Ġconsult": 5410,
      "GL": 5411,
      "kappa": 5412,
      "Ġmobile": 5413,
      "antic": 5414,
      "Ġtried": 5415,
      "igen": 5416,
      "ql": 5417,
      "Ġmovement": 5418,
      "isher": 5419,
      "Ġequipment": 5420,
      "ĠBay": 5421,
      "ĠChristian": 5422,
      "DS": 5423,
      "Ġexperim": 5424,
      "Ġtrain": 5425,
      "ications": 5426,
      "ĠBer": 5427,
      "Tag": 5428,
      "ĠDE": 5429,
      "ĠBack": 5430,
      "42": 5431,
      "std": 5432,
      "Ġblue": 5433,
      "RL": 5434,
      "first": 5435,
      "Ġfresh": 5436,
      "Ġepis": 5437,
      "pc": 5438,
      "Ġpolic": 5439,
      "Ġraise": 5440,
      "property": 5441,
      "Ġopportunities": 5442,
      "Ġargument": 5443,
      "Parameter": 5444,
      "ki": 5445,
      "pdf": 5446,
      "abilities": 5447,
      "otes": 5448,
      "\\|": 5449,
      "mt": 5450,
      "lam": 5451,
      "arant": 5452,
      "process": 5453,
      "ĠOR": 5454,
      "Ġdrink": 5455,
      "ario": 5456,
      "Ġpresence": 5457,
      "Ġbill": 5458,
      "translation": 5459,
      "Ġnotice": 5460,
      "small": 5461,
      "Ġapplied": 5462,
      "ĠAND": 5463,
      "mbox": 5464,
      "Oper": 5465,
      "Ġoperator": 5466,
      "Desc": 5467,
      "anged": 5468,
      "Ġfear": 5469,
      "Ġ&\\": 5470,
      "ologies": 5471,
      "Ġplanning": 5472,
      "Ġadvant": 5473,
      "pid": 5474,
      "Ġ\\]": 5475,
      "Magick": 5476,
      "Ġshape": 5477,
      "arden": 5478,
      "Ġfont": 5479,
      "older": 5480,
      "ĠFigure": 5481,
      "inct": 5482,
      "Ġarchitect": 5483,
      "\\%": 5484,
      "Ġcertainly": 5485,
      "ĠCap": 5486,
      "SI": 5487,
      "mes": 5488,
      "COL": 5489,
      "Ġcommunities": 5490,
      "Ġwall": 5491,
      "akers": 5492,
      "ffect": 5493,
      "project": 5494,
      "Ġwants": 5495,
      "Ġframe": 5496,
      "Ġbusinesses": 5497,
      "Ġdescribe": 5498,
      "usion": 5499,
      "ĠFree": 5500,
      "ander": 5501,
      "Ġpan": 5502,
      "iling": 5503,
      "Ġletter": 5504,
      "MM": 5505,
      "Ġopin": 5506,
      "pective": 5507,
      "Ġobvious": 5508,
      "Ã³": 5509,
      "2020": 5510,
      "Ġuseful": 5511,
      "Ġbottom": 5512,
      "Ġclimate": 5513,
      "icit": 5514,
      "ĠRobert": 5515,
      "ĠAv": 5516,
      "Ġwarm": 5517,
      "Ġfeet": 5518,
      "Ġdaily": 5519,
      "well": 5520,
      "igration": 5521,
      "ao": 5522,
      "Ġhelped": 5523,
      "ĠPlay": 5524,
      "itory": 5525,
      "ĠOnce": 5526,
      "olf": 5527,
      "46": 5528,
      "gin": 5529,
      "Ġreflect": 5530,
      "Ġ})": 5531,
      "ributions": 5532,
      "Ġbuff": 5533,
      "ounce": 5534,
      "oles": 5535,
      "Ġscene": 5536,
      "Ġfans": 5537,
      "Ġreplace": 5538,
      "Ġcru": 5539,
      "ructure": 5540,
      "ĠLong": 5541,
      "ĠUse": 5542,
      "typ": 5543,
      "ĠMont": 5544,
      "Ġrank": 5545,
      "ĠCOVID": 5546,
      "Ġserve": 5547,
      "Ġcouldn": 5548,
      "sg": 5549,
      "FL": 5550,
      "abs": 5551,
      "Ġspirit": 5552,
      "len": 5553,
      "ĠFlorida": 5554,
      "URL": 5555,
      "Ġchem": 5556,
      "Ġmaster": 5557,
      "bra": 5558,
      "asure": 5559,
      "Ġforms": 5560,
      "Ġenh": 5561,
      "ĠAPI": 5562,
      "fit": 5563,
      "Ġ35": 5564,
      "Ġagreement": 5565,
      "irus": 5566,
      "Ġrot": 5567,
      "Ġvill": 5568,
      "ĠMiss": 5569,
      "num": 5570,
      "endif": 5571,
      "FT": 5572,
      "win": 5573,
      "ĠFoundation": 5574,
      ".\\": 5575,
      "heet": 5576,
      "Ġcalls": 5577,
      "ĠTable": 5578,
      "Ġleader": 5579,
      "using": 5580,
      "ĠVis": 5581,
      "Controller": 5582,
      "ĠType": 5583,
      "Output": 5584,
      "PA": 5585,
      "ĠMicro": 5586,
      "Ġtemplate": 5587,
      "Ġresponsible": 5588,
      "Ġbenefit": 5589,
      "Ġsequence": 5590,
      "Ġmachine": 5591,
      "OO": 5592,
      "Ġteams": 5593,
      "service": 5594,
      "Ġtruth": 5595,
      "Aut": 5596,
      "Ġpicture": 5597,
      "tag": 5598,
      "rive": 5599,
      "RC": 5600,
      "Ġauth": 5601,
      "Ġrelevant": 5602,
      "dots": 5603,
      "ĠUnion": 5604,
      "Ġpoor": 5605,
      "Sigma": 5606,
      "web": 5607,
      "za": 5608,
      "Ġwild": 5609,
      "Ġquarter": 5610,
      "Spec": 5611,
      "Ġexperien": 5612,
      "Ġfavorite": 5613,
      "ria": 5614,
      "Ġpeace": 5615,
      "Ġobserved": 5616,
      "Ġcomments": 5617,
      "ĠThomas": 5618,
      "ĠSmith": 5619,
      "Ġcollege": 5620,
      "Ġsteps": 5621,
      "uesday": 5622,
      "Ġdecre": 5623,
      "ĠOh": 5624,
      "nab": 5625,
      "update": 5626,
      "next": 5627,
      "Ġtoward": 5628,
      "Ġappropriate": 5629,
      "eration": 5630,
      "gu": 5631,
      "Ġfailed": 5632,
      "ĠSociety": 5633,
      "Ġwid": 5634,
      "Ġdetermine": 5635,
      "ĠLou": 5636,
      "obj": 5637,
      "parser": 5638,
      "mem": 5639,
      "ĠMer": 5640,
      "Ġstuff": 5641,
      "Ġcoordin": 5642,
      "ĠWho": 5643,
      "ona": 5644,
      "rey": 5645,
      "ĠKey": 5646,
      "ursday": 5647,
      "ervation": 5648,
      "font": 5649,
      "Comp": 5650,
      "initely": 5651,
      "sin": 5652,
      "Ġpreviously": 5653,
      "Ġmaximum": 5654,
      "Ġbrother": 5655,
      "Ġnice": 5656,
      "osen": 5657,
      "ampions": 5658,
      "layout": 5659,
      "Ġelectric": 5660,
      "Ġmill": 5661,
      "Ġ&=": 5662,
      "uit": 5663,
      "Ġchallenge": 5664,
      "ĠToday": 5665,
      "Ġamazing": 5666,
      "annot": 5667,
      "TS": 5668,
      "Ġfactors": 5669,
      "src": 5670,
      "Ġrestaur": 5671,
      "values": 5672,
      "Ġmaybe": 5673,
      "Ġslight": 5674,
      "Ġsites": 5675,
      "ĠChinese": 5676,
      "ename": 5677,
      "Ġappoint": 5678,
      "})$": 5679,
      "Ġsav": 5680,
      "ĠWhe": 5681,
      "Ġjournal": 5682,
      "Ġstorage": 5683,
      "atever": 5684,
      "ĠDevelopment": 5685,
      "rd": 5686,
      "Ġhighest": 5687,
      "ĠManagement": 5688,
      "ĠSal": 5689,
      "Button": 5690,
      "Ġcris": 5691,
      "ĠAuthor": 5692,
      "sey": 5693,
      "Ġpen": 5694,
      "author": 5695,
      "PL": 5696,
      "Utils": 5697,
      "ront": 5698,
      "Ġobj": 5699,
      "Ġshowed": 5700,
      "Check": 5701,
      "Ġsurround": 5702,
      "Ġperformed": 5703,
      "ĠSun": 5704,
      "Ġut": 5705,
      "ĠJud": 5706,
      "Ġannual": 5707,
      "Ġspread": 5708,
      "Ġreasons": 5709,
      "rant": 5710,
      "Ġraised": 5711,
      "ĠEconom": 5712,
      "Ġahead": 5713,
      "97": 5714,
      "jav": 5715,
      "icate": 5716,
      "Ġroot": 5717,
      "Ġsmaller": 5718,
      "Ġdetermined": 5719,
      "Lambda": 5720,
      "Ġgone": 5721,
      "Ġtalking": 5722,
      "ainer": 5723,
      "iform": 5724,
      "Params": 5725,
      "Ġstrength": 5726,
      "ĠCongress": 5727,
      "urrency": 5728,
      "only": 5729,
      "Ġwat": 5730,
      "Ġ###": 5731,
      "char": 5732,
      "Provider": 5733,
      "Ġ{}": 5734,
      "DA": 5735,
      "prop": 5736,
      "parse": 5737,
      "rier": 5738,
      "Ġshoot": 5739,
      "Ġviews": 5740,
      "ĠCamp": 5741,
      "Ġnav": 5742,
      "last": 5743,
      "ttp": 5744,
      "inger": 5745,
      "Entity": 5746,
      "Ġ^": 5747,
      "${": 5748,
      "ĠRoad": 5749,
      "Ġartist": 5750,
      "43": 5751,
      "ĠHill": 5752,
      "DB": 5753,
      "{-": 5754,
      "ĠAmaz": 5755,
      "ĠMuseum": 5756,
      "Ġgeneration": 5757,
      "Ġbul": 5758,
      "Ġrecords": 5759,
      "Ġjobs": 5760,
      "CS": 5761,
      "Ġstars": 5762,
      "Ext": 5763,
      "Ġreality": 5764,
      "uled": 5765,
      "2017": 5766,
      "ipp": 5767,
      "ĠMex": 5768,
      "ialize": 5769,
      "Case": 5770,
      "Ġbudget": 5771,
      "params": 5772,
      "Ġlinear": 5773,
      "Ġur": 5774,
      "2016": 5775,
      "Ġdoll": 5776,
      "Ġcompleted": 5777,
      "ĠJer": 5778,
      "ĠPM": 5779,
      "description": 5780,
      "500": 5781,
      "ashion": 5782,
      "(_": 5783,
      "ometry": 5784,
      "Ġ~": 5785,
      "Ġrac": 5786,
      "ĠSa": 5787,
      "ĠThursday": 5788,
      "Ġconvers": 5789,
      "Layout": 5790,
      "Ġsymbol": 5791,
      "Ġpow": 5792,
      "Ġexec": 5793,
      "Ġactions": 5794,
      "ini": 5795,
      "ste": 5796,
      "ĠTuesday": 5797,
      "Ġstation": 5798,
      "ruit": 5799,
      "Ġpet": 5800,
      "ĠCarol": 5801,
      "Ġclaims": 5802,
      "ĠSocial": 5803,
      "Ġfeeling": 5804,
      "ĠVir": 5805,
      "ĠFranc": 5806,
      "Ġdeliver": 5807,
      "nesday": 5808,
      "arks": 5809,
      "Function": 5810,
      "Web": 5811,
      "poses": 5812,
      "ÑĢ": 5813,
      "eft": 5814,
      "ĠCentre": 5815,
      "Ġhair": 5816,
      "41": 5817,
      "++)": 5818,
      "Ġgenerally": 5819,
      "Ġwish": 5820,
      "lies": 5821,
      "Ġpages": 5822,
      "Ġded": 5823,
      "ĠCall": 5824,
      "Ġpurs": 5825,
      "Ġcat": 5826,
      "Ġsector": 5827,
      "NA": 5828,
      "Ġclearly": 5829,
      "Ġspecies": 5830,
      "ĠAnother": 5831,
      "ua": 5832,
      "ĠJul": 5833,
      "ĠIns": 5834,
      "}/": 5835,
      "ĠMad": 5836,
      "rowser": 5837,
      "SO": 5838,
      "enses": 5839,
      "Ġcapacity": 5840,
      "pg": 5841,
      "Ġvs": 5842,
      "Ġuint": 5843,
      "subset": 5844,
      "expected": 5845,
      "ĠDown": 5846,
      "Ġperhaps": 5847,
      "citep": 5848,
      "ONT": 5849,
      "onic": 5850,
      "oma": 5851,
      "dule": 5852,
      "ĠFrank": 5853,
      "ĠStar": 5854,
      "Ġpowerful": 5855,
      "Ġcitiz": 5856,
      "Ġil": 5857,
      "ĠTwitter": 5858,
      "apers": 5859,
      "Ġharm": 5860,
      "ĠRussia": 5861,
      "Ġonto": 5862,
      "ignment": 5863,
      "rivate": 5864,
      "Ġtal": 5865,
      "ivery": 5866,
      "ĠRun": 5867,
      "istance": 5868,
      "Ġoffered": 5869,
      "Ġspecif": 5870,
      "Ġdevices": 5871,
      "aset": 5872,
      "emic": 5873,
      "riev": 5874,
      "instance": 5875,
      "Ġmarketing": 5876,
      "BA": 5877,
      "remove": 5878,
      "Ġequation": 5879,
      "internal": 5880,
      "Ġsleep": 5881,
      "ESS": 5882,
      "star": 5883,
      "Ġconcent": 5884,
      "iques": 5885,
      "atically": 5886,
      "Ġagree": 5887,
      "emma": 5888,
      "Ġopening": 5889,
      "Ð½": 5890,
      "Ġrese": 5891,
      "ams": 5892,
      "venue": 5893,
      "Ġowners": 5894,
      "Ġholds": 5895,
      "ourney": 5896,
      "iency": 5897,
      "ĠGen": 5898,
      "ĠOper": 5899,
      "standing": 5900,
      "Ġparties": 5901,
      "'),": 5902,
      "Ġscore": 5903,
      "Ġfilter": 5904,
      "Ġdrop": 5905,
      "Ġmission": 5906,
      "58": 5907,
      "azz": 5908,
      "ĠMinister": 5909,
      "push": 5910,
      "ĠTimes": 5911,
      "common": 5912,
      "dep": 5913,
      "fin": 5914,
      "ĠMarket": 5915,
      "Ġarm": 5916,
      "Width": 5917,
      "lict": 5918,
      "riend": 5919,
      "Ġhyp": 5920,
      "Ġeth": 5921,
      "Ġyield": 5922,
      "ĠWeek": 5923,
      "edy": 5924,
      "Work": 5925,
      "range": 5926,
      "Ġthank": 5927,
      ";\\": 5928,
      "Ġmotion": 5929,
      "otype": 5930,
      "TYPE": 5931,
      "prime": 5932,
      "ĠÂ©": 5933,
      "CD": 5934,
      "Ġkept": 5935,
      "filter": 5936,
      "etes": 5937,
      "ME": 5938,
      "meta": 5939,
      "Ġattract": 5940,
      "Ġskin": 5941,
      "orial": 5942,
      "look": 5943,
      "Ġesc": 5944,
      "uty": 5945,
      "Ġpatient": 5946,
      "zeta": 5947,
      "Mode": 5948,
      "orter": 5949,
      "ky": 5950,
      "ĠRad": 5951,
      "Ġ##": 5952,
      "eds": 5953,
      "widet": 5954,
      "ĠCopy": 5955,
      "ĠWednesday": 5956,
      "omic": 5957,
      "Init": 5958,
      "Ġexerc": 5959,
      "Ġwww": 5960,
      "Ġopened": 5961,
      "Ġsupply": 5962,
      "ĠEq": 5963,
      "Pr": 5964,
      "ĠCare": 5965,
      "ĠGerman": 5966,
      "RA": 5967,
      "ala": 5968,
      "Pol": 5969,
      "icks": 5970,
      "ĠWomen": 5971,
      "Ġhus": 5972,
      "Ġelection": 5973,
      "Ġshift": 5974,
      "adding": 5975,
      "nonumber": 5976,
      "Ġpanel": 5977,
      "ĠSl": 5978,
      "Ġconnected": 5979,
      "Ġlegis": 5980,
      "ĠTheir": 5981,
      "ĠScott": 5982,
      "entity": 5983,
      "Ġfloor": 5984,
      "ette": 5985,
      "Ġ*)": 5986,
      "orrow": 5987,
      "Ġtrend": 5988,
      "KE": 5989,
      "ĠLear": 5990,
      "Ġprocesses": 5991,
      "Ġintroduced": 5992,
      "ĠCreate": 5993,
      "Ġmeasures": 5994,
      "Ġillust": 5995,
      "inate": 5996,
      "Ġiniti": 5997,
      "racy": 5998,
      "Ġappears": 5999,
      "ĠLicense": 6000,
      "Ġexplain": 6001,
      "QL": 6002,
      "Ġsymmet": 6003,
      "legal": 6004,
      "should": 6005,
      "Ġadopt": 6006,
      "Ġinfo": 6007,
      "Ġ80": 6008,
      "ificate": 6009,
      "ĠReport": 6010,
      "icago": 6011,
      "Ġlaunch": 6012,
      "uated": 6013,
      "mut": 6014,
      "Ġnegative": 6015,
      "Ġachie": 6016,
      "Ġtesting": 6017,
      "cat": 6018,
      "oration": 6019,
      "Process": 6020,
      "Ġchallenges": 6021,
      "outhern": 6022,
      "returns": 6023,
      "RI": 6024,
      "Ġtransition": 6025,
      "Ġdram": 6026,
      "ĠAfrican": 6027,
      "Ġpurchase": 6028,
      "Ġcategory": 6029,
      "Ġ<?": 6030,
      "Ġsongs": 6031,
      "Ġexcellent": 6032,
      "ĠCentral": 6033,
      "rapy": 6034,
      "ython": 6035,
      "bert": 6036,
      "ĠRussian": 6037,
      "ategories": 6038,
      "Ġspot": 6039,
      "Ġradio": 6040,
      "57": 6041,
      "Off": 6042,
      "Ġsale": 6043,
      "Ġecho": 6044,
      "sembly": 6045,
      "Ġmut": 6046,
      "ĠSy": 6047,
      "location": 6048,
      "ĠChristmas": 6049,
      "Ġpoll": 6050,
      "Ġprices": 6051,
      "show": 6052,
      "ĠBi": 6053,
      "Ġalgorithm": 6054,
      "ĠParty": 6055,
      "Ġprove": 6056,
      "Back": 6057,
      "Ġacadem": 6058,
      "reference": 6059,
      "Ġcancer": 6060,
      "Ġstress": 6061,
      "Ġdetail": 6062,
      "ReduceAction": 6063,
      "Ġpartner": 6064,
      "ĠMain": 6065,
      "Ġforces": 6066,
      "Ġinsurance": 6067,
      "BS": 6068,
      "Ġexport": 6069,
      "Ġeye": 6070,
      "Ġchannel": 6071,
      "ĠInformation": 6072,
      "ĠThanks": 6073,
      "ĠSpecial": 6074,
      "greg": 6075,
      "ĠFollow": 6076,
      "py": 6077,
      "ĠBu": 6078,
      "Ġrelative": 6079,
      "Ġaudience": 6080,
      "kin": 6081,
      "attr": 6082,
      "Configuration": 6083,
      "gate": 6084,
      "plete": 6085,
      "azine": 6086,
      "ĠMedia": 6087,
      "Ġlearned": 6088,
      "Ġsettings": 6089,
      "Ġincome": 6090,
      "oving": 6091,
      "Ġregarding": 6092,
      "Part": 6093,
      "ensure": 6094,
      "Ġproceed": 6095,
      "Select": 6096,
      ".[": 6097,
      "ĠGlobal": 6098,
      "widetilde": 6099,
      "dl": 6100,
      "Ġmiles": 6101,
      "ĠNov": 6102,
      "ĠLike": 6103,
      "Ġwriter": 6104,
      "={": 6105,
      "Ġadjust": 6106,
      "ĠFurther": 6107,
      "Us": 6108,
      "Ġ90": 6109,
      "Ġvehicle": 6110,
      "ĠNOT": 6111,
      "ĠPo": 6112,
      "Ġsch": 6113,
      "ĠSecond": 6114,
      "arp": 6115,
      "Ġdespite": 6116,
      "Server": 6117,
      "utr": 6118,
      "Ġmanager": 6119,
      "ictionary": 6120,
      "Url": 6121,
      "ĠAcadem": 6122,
      "Ġguid": 6123,
      "otic": 6124,
      "Ġassume": 6125,
      "othing": 6126,
      "ĠAward": 6127,
      "ĠNetwork": 6128,
      "Valid": 6129,
      "Types": 6130,
      "hi": 6131,
      "Ġdomain": 6132,
      "ĠApple": 6133,
      "ĠLin": 6134,
      "Ġinstr": 6135,
      "ĠHot": 6136,
      "Ġgoals": 6137,
      "Ġgain": 6138,
      "han": 6139,
      "Ġchurch": 6140,
      "pling": 6141,
      "dot": 6142,
      "ĠPeter": 6143,
      "ĠHuman": 6144,
      "ĠDate": 6145,
      "Ġhospital": 6146,
      "DD": 6147,
      "Ġvan": 6148,
      "cles": 6149,
      "ĠFrance": 6150,
      "rig": 6151,
      "Ġheavy": 6152,
      "ĠLead": 6153,
      "lig": 6154,
      "Ġvote": 6155,
      "Ġbiggest": 6156,
      "ĠDesign": 6157,
      "related": 6158,
      "Ġcas": 6159,
      "ĠAM": 6160,
      "Ġreached": 6161,
      "Filter": 6162,
      "That": 6163,
      "Ġweak": 6164,
      "Ġconsequ": 6165,
      "weight": 6166,
      "ĠBur": 6167,
      "inder": 6168,
      "ilton": 6169,
      "phone": 6170,
      "Ġspin": 6171,
      "clude": 6172,
      "asy": 6173,
      "Ġ2005": 6174,
      "Ġfunding": 6175,
      "Ġvolume": 6176,
      "buffer": 6177,
      "Ġphoto": 6178,
      "ĠWhere": 6179,
      "Ġinfluence": 6180,
      "*)": 6181,
      "Ġpaint": 6182,
      "ĠSpring": 6183,
      "Ġconfiguration": 6184,
      "ĠTim": 6185,
      "osis": 6186,
      "Ġhelps": 6187,
      "Ġbrief": 6188,
      "}^{(": 6189,
      "clusive": 6190,
      "Settings": 6191,
      "Ġdanger": 6192,
      "efined": 6193,
      "Ġtransl": 6194,
      "ĠHT": 6195,
      "oves": 6196,
      "rip": 6197,
      "ĠShow": 6198,
      "Ġadapt": 6199,
      "angle": 6200,
      ":\"": 6201,
      "tabular": 6202,
      "Ġmentioned": 6203,
      "Ġ2000": 6204,
      "Ġseemed": 6205,
      "ĠDO": 6206,
      "ĠCommunity": 6207,
      "Ġmur": 6208,
      "Ġlaun": 6209,
      "Ġcamera": 6210,
      "ĠLook": 6211,
      "////////////////": 6212,
      "ups": 6213,
      "Ġdaughter": 6214,
      "Ġ32": 6215,
      "itors": 6216,
      "Ġplus": 6217,
      "Ġorganizations": 6218,
      ":(": 6219,
      "UP": 6220,
      "Ġnone": 6221,
      "Rem": 6222,
      "asion": 6223,
      "agon": 6224,
      "etime": 6225,
      "Ġowner": 6226,
      "ĠBoth": 6227,
      "emp": 6228,
      "going": 6229,
      "Ġrare": 6230,
      "ln": 6231,
      "ĠGrand": 6232,
      "ĠDistrict": 6233,
      "Ġdim": 6234,
      "rr": 6235,
      "ĠClub": 6236,
      "Ġmeant": 6237,
      "96": 6238,
      "riptor": 6239,
      "FO": 6240,
      "itness": 6241,
      "aming": 6242,
      "Ġsmart": 6243,
      "Thread": 6244,
      "etch": 6245,
      "mail": 6246,
      "UB": 6247,
      "anta": 6248,
      "Ġmajority": 6249,
      "Ġartists": 6250,
      "ĠEngine": 6251,
      "Fig": 6252,
      "Ġtests": 6253,
      "eless": 6254,
      "Ġspend": 6255,
      "Ġkilled": 6256,
      "Ġcontinues": 6257,
      "*/": 6258,
      "lines": 6259,
      "cdots": 6260,
      "aste": 6261,
      "SH": 6262,
      "ĠName": 6263,
      "Ġtruly": 6264,
      "Ġdiscussion": 6265,
      "Ġdrug": 6266,
      "Ġresear": 6267,
      "ita": 6268,
      "bi": 6269,
      "pers": 6270,
      "unte": 6271,
      "Ġadministration": 6272,
      "Ġdatabase": 6273,
      "56": 6274,
      "Ġdamage": 6275,
      "]);": 6276,
      "rolled": 6277,
      "road": 6278,
      "Ġattend": 6279,
      "ĠPet": 6280,
      "Ġshowing": 6281,
      "ĠStep": 6282,
      "ĠChicago": 6283,
      "TP": 6284,
      "IST": 6285,
      "Ġdimension": 6286,
      "ĠCD": 6287,
      "ĠLos": 6288,
      "Ġeditor": 6289,
      "Rep": 6290,
      "ipl": 6291,
      "ools": 6292,
      "Ġidentity": 6293,
      "IA": 6294,
      "Ġvel": 6295,
      "Ġwave": 6296,
      "atrix": 6297,
      "Ġtrou": 6298,
      "Ġrise": 6299,
      "split": 6300,
      "Ġguide": 6301,
      "task": 6302,
      "Ñģ": 6303,
      "Ġprotection": 6304,
      "Ġboy": 6305,
      "Ġcaused": 6306,
      "ĠExp": 6307,
      "Ġpolicies": 6308,
      "fill": 6309,
      "Ġadvert": 6310,
      "Par": 6311,
      "anging": 6312,
      "Ġprepared": 6313,
      "resents": 6314,
      "ĠSecret": 6315,
      "ĠHead": 6316,
      "container": 6317,
      "Ġloved": 6318,
      "textit": 6319,
      "ĠTheorem": 6320,
      "ĠSecurity": 6321,
      "2015": 6322,
      "ĠTor": 6323,
      "Ġtrip": 6324,
      "Ġcultural": 6325,
      "ĠĠĠĠĠĠĠĠĠĠĠ": 6326,
      "ĠÂ»": 6327,
      "Ġindu": 6328,
      "Ġoffering": 6329,
      "ĠEarth": 6330,
      "Ġvisual": 6331,
      "ĠTechnology": 6332,
      "ĠBet": 6333,
      "ĠAmazon": 6334,
      "ĠRiver": 6335,
      "Ġapprec": 6336,
      "Ġleadership": 6337,
      "Ġofficials": 6338,
      "ishes": 6339,
      "riage": 6340,
      "Ġoccup": 6341,
      "Ġcrow": 6342,
      "Ġgenerate": 6343,
      "}}{": 6344,
      "desc": 6345,
      "Ġexchange": 6346,
      "ĠIran": 6347,
      "Ġhusband": 6348,
      "orthern": 6349,
      "Ġunless": 6350,
      "ORT": 6351,
      "Ġemp": 6352,
      "Ġminimum": 6353,
      "van": 6354,
      "ãģ": 6355,
      "ĠFund": 6356,
      "lands": 6357,
      "([": 6358,
      "Ġanc": 6359,
      "can": 6360,
      "Ġtend": 6361,
      "Ġidentify": 6362,
      "Access": 6363,
      "emporary": 6364,
      "COLOR": 6365,
      "case": 6366,
      "alysis": 6367,
      "Row": 6368,
      "ws": 6369,
      "Ġsustain": 6370,
      "ĠRichard": 6371,
      "Ġflat": 6372,
      "nergy": 6373,
      "Ġer": 6374,
      "ĠColor": 6375,
      "Ġreduced": 6376,
      "Ġbrain": 6377,
      "Control": 6378,
      "Ġlen": 6379,
      "Ġglass": 6380,
      "Ġsea": 6381,
      "Go": 6382,
      "resource": 6383,
      "tered": 6384,
      "Ġcold": 6385,
      "anges": 6386,
      "ĠEvent": 6387,
      "ĠOffic": 6388,
      "even": 6389,
      "Ġcallback": 6390,
      "ĠDiv": 6391,
      "Ġbelong": 6392,
      "Ġdeveloping": 6393,
      "Ġposted": 6394,
      "Ġincor": 6395,
      "ls": 6396,
      "ira": 6397,
      "ĠWil": 6398,
      "Ġplaced": 6399,
      "ses": 6400,
      "API": 6401,
      "Ġleads": 6402,
      ")</": 6403,
      "ĠReturns": 6404,
      "ĠBuild": 6405,
      "ĠBrown": 6406,
      "Ġjoined": 6407,
      "Ġknows": 6408,
      "ĠInit": 6409,
      "Ġidentified": 6410,
      "Pack": 6411,
      "Ġtrial": 6412,
      "ena": 6413,
      "Ġfaith": 6414,
      "ĠMap": 6415,
      "mathsf": 6416,
      "Ġlayer": 6417,
      "Ġax": 6418,
      "ĠLeague": 6419,
      "hens": 6420,
      "nel": 6421,
      "Ġruns": 6422,
      "cket": 6423,
      "ĠCam": 6424,
      "Ġpm": 6425,
      "session": 6426,
      "ĠEqu": 6427,
      "Ġfamous": 6428,
      "Äģ": 6429,
      "IF": 6430,
      "Ġcovered": 6431,
      "Ġoffset": 6432,
      "impl": 6433,
      "CA": 6434,
      "Ġrepresentation": 6435,
      "ĠUsing": 6436,
      "ker": 6437,
      "ĠPolicy": 6438,
      "Ġfinding": 6439,
      "ĠChief": 6440,
      "ĠTre": 6441,
      "ãĥ": 6442,
      "ĠĠĠĠĠĠĠĠĠĠ": 6443,
      "Nav": 6444,
      "Ġseparate": 6445,
      "Char": 6446,
      "bb": 6447,
      "Ġpropos": 6448,
      "element": 6449,
      "Ġalt": 6450,
      "illa": 6451,
      "Ġ500": 6452,
      "rie": 6453,
      "Ġefficient": 6454,
      "ĠFamily": 6455,
      "ERR": 6456,
      "Ġguarant": 6457,
      "bour": 6458,
      "ims": 6459,
      "uts": 6460,
      "Ġseeing": 6461,
      "63": 6462,
      "Location": 6463,
      "Ġargs": 6464,
      "Ġarrest": 6465,
      "Ġadvice": 6466,
      "Ġunits": 6467,
      "Ġscope": 6468,
      "Ġsmooth": 6469,
      "burg": 6470,
      "ĠLO": 6471,
      "ĠStart": 6472,
      "Ġlaws": 6473,
      "BO": 6474,
      "obuf": 6475,
      "ĠWrit": 6476,
      "Ġsigned": 6477,
      "NAME": 6478,
      "Ġoverride": 6479,
      "ĠWood": 6480,
      "centering": 6481,
      "ented": 6482,
      "Ġvariables": 6483,
      "Ġmonitor": 6484,
      "Dat": 6485,
      "Ġframework": 6486,
      "Ġearth": 6487,
      "ĠSE": 6488,
      "Ġpros": 6489,
      "Ġimplementation": 6490,
      "oder": 6491,
      "Ġwhom": 6492,
      "Ġfan": 6493,
      ";->": 6494,
      "then": 6495,
      "GB": 6496,
      "Ġvariable": 6497,
      "Ġsports": 6498,
      "ensuremath": 6499,
      "ĠMel": 6500,
      "ĠFinally": 6501,
      "ĠGermany": 6502,
      "sem": 6503,
      "Ġdie": 6504,
      "Ġjoint": 6505,
      "Ġscript": 6506,
      "Ġolder": 6507,
      "iable": 6508,
      "Ġminor": 6509,
      "52": 6510,
      "ĠLand": 6511,
      "Ġwouldn": 6512,
      "Ġ70": 6513,
      "omin": 6514,
      "olved": 6515,
      "othes": 6516,
      "ĠTH": 6517,
      "Ġextremely": 6518,
      "Ġentertain": 6519,
      "ĠYes": 6520,
      "Ġsomew": 6521,
      "Ġcommunication": 6522,
      "orney": 6523,
      "ĠAmericans": 6524,
      "ipped": 6525,
      "Ġrich": 6526,
      "Ġthanks": 6527,
      "ĠBefore": 6528,
      "udd": 6529,
      "ĠFrancis": 6530,
      "Ġadvantage": 6531,
      "Ġmargin": 6532,
      "Ġfootball": 6533,
      "Ġprofile": 6534,
      "atement": 6535,
      "ydro": 6536,
      "module": 6537,
      "ady": 6538,
      "ĠJose": 6539,
      "crete": 6540,
      "Ġemot": 6541,
      "dec": 6542,
      "omorph": 6543,
      "artifact": 6544,
      "Ġleaving": 6545,
      "Ġbutton": 6546,
      "Ġfailure": 6547,
      "gency": 6548,
      "ĠMake": 6549,
      "bound": 6550,
      "ĠObama": 6551,
      "Ġnorth": 6552,
      "Ġsched": 6553,
      "olec": 6554,
      "command": 6555,
      "Ġdraft": 6556,
      "edge": 6557,
      "ĠGree": 6558,
      "ture": 6559,
      "tw": 6560,
      "54": 6561,
      "itchen": 6562,
      "My": 6563,
      "Ġcash": 6564,
      "unit": 6565,
      "ĠEU": 6566,
      "Ġlic": 6567,
      "equal": 6568,
      "Wh": 6569,
      "ĠImage": 6570,
      "ffee": 6571,
      "ifications": 6572,
      "Ġchain": 6573,
      "Ġnorm": 6574,
      "Ġlisten": 6575,
      "Ġdiagn": 6576,
      "Ġdefinitely": 6577,
      "ato": 6578,
      "ĠBob": 6579,
      "rb": 6580,
      "scious": 6581,
      "Ġfinite": 6582,
      "ĠInvest": 6583,
      "reme": 6584,
      "What": 6585,
      "{}": 6586,
      "Ġincred": 6587,
      "cknow": 6588,
      "Ġfinished": 6589,
      "Ġarguments": 6590,
      "Ġfunds": 6591,
      "Ġprobability": 6592,
      "Ġadding": 6593,
      "Cell": 6594,
      "Ġphotos": 6595,
      "ĠMass": 6596,
      "Ġflu": 6597,
      "Names": 6598,
      "Address": 6599,
      "ĠStand": 6600,
      "VAL": 6601,
      "Ġdra": 6602,
      "Return": 6603,
      "SA": 6604,
      "Ġinterpret": 6605,
      "ĠVirgin": 6606,
      "Ġast": 6607,
      "Ġbattle": 6608,
      "Ġsenior": 6609,
      "ĠAp": 6610,
      "Ġnoted": 6611,
      "alax": 6612,
      "ideos": 6613,
      "Ġappeared": 6614,
      "lemma": 6615,
      "Ġerrors": 6616,
      "ffff": 6617,
      "product": 6618,
      "widehat": 6619,
      "Ġphil": 6620,
      ".$": 6621,
      "Ġvision": 6622,
      "Ġvacc": 6623,
      "estic": 6624,
      "ansion": 6625,
      "Ġsouth": 6626,
      "ĠHREF": 6627,
      "esh": 6628,
      "Ġgar": 6629,
      "ĠBas": 6630,
      "Ġmist": 6631,
      "ĠLove": 6632,
      "Ġaren": 6633,
      "apse": 6634,
      "Ġconference": 6635,
      "Ġcop": 6636,
      "ĠCustom": 6637,
      "ba": 6638,
      "ĠAtl": 6639,
      "anda": 6640,
      "Ġpractices": 6641,
      "87": 6642,
      "Ġremoved": 6643,
      "ĠIts": 6644,
      "Ġ2004": 6645,
      "Ġhelping": 6646,
      "ĠSil": 6647,
      "Ġstreet": 6648,
      "ĠKore": 6649,
      "Ġrepresents": 6650,
      "ĠLord": 6651,
      "uations": 6652,
      "ingu": 6653,
      "/\\": 6654,
      "ĠWestern": 6655,
      "ĠPower": 6656,
      "Ġalternative": 6657,
      "Ġthread": 6658,
      "elligence": 6659,
      "Update": 6660,
      "CN": 6661,
      "ĠArray": 6662,
      "Ġhyper": 6663,
      "Ġbond": 6664,
      "ĠCH": 6665,
      "ĠEnter": 6666,
      "Ġdestroy": 6667,
      "ĠExper": 6668,
      "equiv": 6669,
      "isms": 6670,
      "qquad": 6671,
      "unately": 6672,
      "ĠHen": 6673,
      "Ġjourney": 6674,
      "Ġfocused": 6675,
      "Ġbalance": 6676,
      "iced": 6677,
      "bul": 6678,
      "Ġmanaged": 6679,
      "INT": 6680,
      "Ġexperiences": 6681,
      "ĠInternet": 6682,
      "Json": 6683,
      "ĠSol": 6684,
      "ĠVer": 6685,
      "pan": 6686,
      "Container": 6687,
      "Ġcompetition": 6688,
      "ascript": 6689,
      "Ġweather": 6690,
      "ipping": 6691,
      "exec": 6692,
      "Ġstandards": 6693,
      "tics": 6694,
      "Pre": 6695,
      "Ġupper": 6696,
      "ĠJon": 6697,
      "53": 6698,
      "Ġhappens": 6699,
      "ĠĠĠĠĠĠĠĠĠ": 6700,
      "night": 6701,
      "Ġsquare": 6702,
      "acter": 6703,
      "Ġnotes": 6704,
      "ĠJim": 6705,
      "Bl": 6706,
      "Ġconvert": 6707,
      "Bo": 6708,
      "pay": 6709,
      "Ġagent": 6710,
      "Empty": 6711,
      "Ġexperienced": 6712,
      "Ġenvironmental": 6713,
      "Ġrespond": 6714,
      "Ġtechnical": 6715,
      "oliday": 6716,
      "riz": 6717,
      "frame": 6718,
      "ĠAssert": 6719,
      "risk": 6720,
      "token": 6721,
      "Ġunivers": 6722,
      "ĠEnt": 6723,
      "Ġdiscussed": 6724,
      "Ġbuffer": 6725,
      "51": 6726,
      "igger": 6727,
      "./": 6728,
      "ocity": 6729,
      "osoph": 6730,
      "adow": 6731,
      "ĠSand": 6732,
      "Ġcalling": 6733,
      "Ġpassion": 6734,
      "sible": 6735,
      "Ġburn": 6736,
      "empty": 6737,
      "itutions": 6738,
      "roud": 6739,
      "ĠSupp": 6740,
      "Ġsignificantly": 6741,
      "Ġmissing": 6742,
      "Ġspring": 6743,
      "Ġeasier": 6744,
      "ĠLemma": 6745,
      "cs": 6746,
      "Style": 6747,
      "number": 6748,
      "Ġended": 6749,
      "Interface": 6750,
      "Ġlinks": 6751,
      "Max": 6752,
      "atre": 6753,
      "oses": 6754,
      "idential": 6755,
      "ĠJoe": 6756,
      "df": 6757,
      "Ġviolence": 6758,
      "Ġthousands": 6759,
      "erate": 6760,
      "rav": 6761,
      "cean": 6762,
      "men": 6763,
      "Ġwhatever": 6764,
      "Ġweekend": 6765,
      "Ġdriver": 6766,
      "ĠFind": 6767,
      "Ġequivalent": 6768,
      "iden": 6769,
      "Ġweap": 6770,
      "textwidth": 6771,
      "Ġcombination": 6772,
      "ĠDen": 6773,
      "Ġmental": 6774,
      "ĠIll": 6775,
      "allery": 6776,
      "Ġcircum": 6777,
      "aper": 6778,
      "Ġfant": 6779,
      "Ġconver": 6780,
      "Ġprocessing": 6781,
      "Header": 6782,
      "mosp": 6783,
      "Det": 6784,
      "Ġnor": 6785,
      "Api": 6786,
      "ĠElect": 6787,
      "opl": 6788,
      "Ġsufficient": 6789,
      "ĠThank": 6790,
      "sql": 6791,
      "ani": 6792,
      "ĠSar": 6793,
      "ĠTrue": 6794,
      "Ġdriving": 6795,
      "ĠDu": 6796,
      "ĠMa": 6797,
      "ĠSeries": 6798,
      "Ġprison": 6799,
      "61": 6800,
      "ALL": 6801,
      "ĠOnly": 6802,
      "None": 6803,
      "ĠMartin": 6804,
      "62": 6805,
      "Ġbeat": 6806,
      "person": 6807,
      "ĠCEO": 6808,
      "atalog": 6809,
      "Ġresolution": 6810,
      "Ġsurvey": 6811,
      "uing": 6812,
      "ĠAngeles": 6813,
      "%%": 6814,
      "rome": 6815,
      "ĠCanad": 6816,
      "Ġship": 6817,
      "ĠGame": 6818,
      "Ġrent": 6819,
      "imer": 6820,
      "Ġcrim": 6821,
      "Ġcars": 6822,
      "agger": 6823,
      "Ġsusp": 6824,
      "Ġdocuments": 6825,
      "Cache": 6826,
      "Ġstated": 6827,
      "ĠNO": 6828,
      "Ġcrisis": 6829,
      "Ġcontainer": 6830,
      "ULT": 6831,
      "Ġfill": 6832,
      "Ġdelivery": 6833,
      "ImageMagick": 6834,
      "ĠJes": 6835,
      "Ġafford": 6836,
      "organ": 6837,
      "ĠFort": 6838,
      "cache": 6839,
      "Ġcreative": 6840,
      "PT": 6841,
      "Ġeat": 6842,
      "ĠLouis": 6843,
      "Ġparams": 6844,
      "Ġflex": 6845,
      "Ġpsych": 6846,
      "Ġmetal": 6847,
      "Ġwaiting": 6848,
      "life": 6849,
      "udden": 6850,
      "close": 6851,
      "Ġing": 6852,
      "Ġmarkets": 6853,
      "Ġhomes": 6854,
      "Ġpieces": 6855,
      "ANG": 6856,
      "ACE": 6857,
      "Ġexamples": 6858,
      "Ġcities": 6859,
      "Ġdistrict": 6860,
      "Integer": 6861,
      "\\{": 6862,
      "undle": 6863,
      "atin": 6864,
      "ĠUser": 6865,
      "Ġimportance": 6866,
      "Ġexternal": 6867,
      "xx": 6868,
      "First": 6869,
      "scr": 6870,
      "ĠArts": 6871,
      "Ġcry": 6872,
      "Ġratio": 6873,
      "kins": 6874,
      "ĠTeam": 6875,
      "ampionship": 6876,
      "Ġpool": 6877,
      "ĠAud": 6878,
      "Ġdecisions": 6879,
      "72": 6880,
      "Ġbecoming": 6881,
      "ĠHand": 6882,
      "Ġsignal": 6883,
      "Collection": 6884,
      "ynch": 6885,
      "Ġremaining": 6886,
      "Ġfemale": 6887,
      "ĠNor": 6888,
      "gent": 6889,
      "ĠMax": 6890,
      "ĠFood": 6891,
      "Ġtraffic": 6892,
      "ĠIT": 6893,
      "ĠVict": 6894,
      "Ġdebt": 6895,
      "which": 6896,
      "Var": 6897,
      "mid": 6898,
      "89": 6899,
      "ĠAL": 6900,
      "ĠMedical": 6901,
      "ĠWal": 6902,
      "ĠWater": 6903,
      "AGE": 6904,
      "yan": 6905,
      "Ġresidents": 6906,
      "Ġneighbor": 6907,
      "Vis": 6908,
      "Ġexplained": 6909,
      "Ġcitizens": 6910,
      "Ð¾Ð": 6911,
      "ĠFire": 6912,
      "IB": 6913,
      "Ġtit": 6914,
      "Ġflag": 6915,
      "Ġevolution": 6916,
      "Ġagreed": 6917,
      "afe": 6918,
      "thm": 6919,
      "Ġadvance": 6920,
      "Ġarrang": 6921,
      "Ġideal": 6922,
      "ĠCharles": 6923,
      "Ġhealthy": 6924,
      "skip": 6925,
      "elines": 6926,
      "Ġlabor": 6927,
      "Ġspeech": 6928,
      "ĠJohnson": 6929,
      "2014": 6930,
      "AND": 6931,
      "ĠModel": 6932,
      "access": 6933,
      "Ġtro": 6934,
      "Ġtun": 6935,
      "Ġslightly": 6936,
      "Ġmostly": 6937,
      "poration": 6938,
      "Ġagency": 6939,
      "Ġupdated": 6940,
      "sd": 6941,
      "Ġopinion": 6942,
      "Ġrefer": 6943,
      "Ġentity": 6944,
      "ĠSign": 6945,
      "Ġrelation": 6946,
      "CR": 6947,
      "Ġlibrary": 6948,
      "Ġguess": 6949,
      "Eng": 6950,
      "float": 6951,
      "och": 6952,
      "ĠLu": 6953,
      "Ġ(*": 6954,
      "}]": 6955,
      "Ġcontaining": 6956,
      "ERT": 6957,
      "aws": 6958,
      "counts": 6959,
      "Ġfinish": 6960,
      "}^\\": 6961,
      "while": 6962,
      "allel": 6963,
      "Ġtechniques": 6964,
      "iders": 6965,
      "car": 6966,
      "ĠGar": 6967,
      "support": 6968,
      "Target": 6969,
      "Ġfreedom": 6970,
      "Ġcombined": 6971,
      "Ġdecades": 6972,
      "Ġapparent": 6973,
      "ĠGL": 6974,
      "Ġexplore": 6975,
      "Ġpurposes": 6976,
      "ĠDig": 6977,
      "Ġguy": 6978,
      "ĠMur": 6979,
      "iliar": 6980,
      "claim": 6981,
      "Ġinline": 6982,
      "ĠHor": 6983,
      "Connection": 6984,
      "rastructure": 6985,
      "but": 6986,
      "ushed": 6987,
      "ĠException": 6988,
      "Ġchanging": 6989,
      "SL": 6990,
      "ashed": 6991,
      "cloud": 6992,
      "Ġdepth": 6993,
      "Ġpositions": 6994,
      "uries": 6995,
      "Ġhotel": 6996,
      "Ġretail": 6997,
      "ĠMount": 6998,
      "inem": 6999,
      "Ġresulting": 7000,
      "ĠLL": 7001,
      "utils": 7002,
      "ĠCopyright": 7003,
      "ih": 7004,
      "ixel": 7005,
      "ĠReal": 7006,
      "Ġbow": 7007,
      "river": 7008,
      "ĠEnergy": 7009,
      "Ġfol": 7010,
      "plex": 7011,
      "Ġextended": 7012,
      "artifactId": 7013,
      "ĠOrgan": 7014,
      "Ġwatching": 7015,
      "Ġplot": 7016,
      "Ġoperating": 7017,
      "Unit": 7018,
      "Mon": 7019,
      "static": 7020,
      "ĠLink": 7021,
      "osite": 7022,
      "depend": 7023,
      "Ġeventually": 7024,
      "Ġicon": 7025,
      "Ġconcerns": 7026,
      "Ġstrict": 7027,
      "appro": 7028,
      "bur": 7029,
      "umin": 7030,
      "Ġchosen": 7031,
      "ĠLake": 7032,
      "ĠLee": 7033,
      "ĠThrough": 7034,
      "Ġfilms": 7035,
      "ART": 7036,
      "ĠMexico": 7037,
      "Ġ45": 7038,
      "fa": 7039,
      "ĠMO": 7040,
      "Ġnuclear": 7041,
      "Ġjump": 7042,
      "ocket": 7043,
      "}-": 7044,
      "Ġbatter": 7045,
      "Ġcarried": 7046,
      "irmed": 7047,
      "Ġ2003": 7048,
      "Ġtoken": 7049,
      "igan": 7050,
      "agraph": 7051,
      "Ġshut": 7052,
      "fol": 7053,
      "yer": 7054,
      "ĠCreat": 7055,
      "ĠFederal": 7056,
      "auth": 7057,
      "Ġrecorded": 7058,
      "Ġteaching": 7059,
      "Ġguys": 7060,
      "Min": 7061,
      "oute": 7062,
      "ZE": 7063,
      "Ġice": 7064,
      "(-": 7065,
      "icious": 7066,
      "(:": 7067,
      "odies": 7068,
      "Ġvac": 7069,
      "Ġsplit": 7070,
      "ĠRights": 7071,
      "bottom": 7072,
      "lements": 7073,
      "Ġmil": 7074,
      "elled": 7075,
      "Ġprepar": 7076,
      "Ġfre": 7077,
      "ingly": 7078,
      "Ġterror": 7079,
      "Ġdetailed": 7080,
      "ancer": 7081,
      "2013": 7082,
      "}\\\\": 7083,
      "nabla": 7084,
      "stack": 7085,
      "root": 7086,
      "endar": 7087,
      "Ġplays": 7088,
      "ĠCath": 7089,
      "86": 7090,
      "TC": 7091,
      "utely": 7092,
      "cup": 7093,
      "Ġregions": 7094,
      "irectory": 7095,
      "Ġ..": 7096,
      "Ġbath": 7097,
      "Ġthr": 7098,
      "ĠAction": 7099,
      "ĠRoyal": 7100,
      "Ġdepartment": 7101,
      "Ġdoubt": 7102,
      "Ġegg": 7103,
      "vector": 7104,
      "groupId": 7105,
      "widget": 7106,
      "aser": 7107,
      "Ġextract": 7108,
      "Write": 7109,
      "okes": 7110,
      "Co": 7111,
      "Ġwonderful": 7112,
      "ingle": 7113,
      "Ġrapid": 7114,
      "'],": 7115,
      "Ġapproximately": 7116,
      "essions": 7117,
      "Ġdedicated": 7118,
      "Ġevening": 7119,
      "ĠBlue": 7120,
      "Ġepisode": 7121,
      "Ġnumerous": 7122,
      "False": 7123,
      "plet": 7124,
      "ipeline": 7125,
      "faces": 7126,
      "Ġ>=": 7127,
      "Ġthick": 7128,
      "msg": 7129,
      "Ġpayment": 7130,
      "LECT": 7131,
      "zen": 7132,
      "Ob": 7133,
      "real": 7134,
      "Ġfif": 7135,
      "Ġclassic": 7136,
      "Window": 7137,
      "Order": 7138,
      "Ġstarts": 7139,
      "ursor": 7140,
      "Ġsexual": 7141,
      "asket": 7142,
      "normal": 7143,
      "ĠCode": 7144,
      "andemic": 7145,
      "Ġsamples": 7146,
      "cript": 7147,
      "Ġauthors": 7148,
      "scape": 7149,
      "Ġfacilities": 7150,
      "jection": 7151,
      "aks": 7152,
      "liament": 7153,
      "fs": 7154,
      "Ġfat": 7155,
      "ĠExt": 7156,
      "ĠField": 7157,
      "Ġenable": 7158,
      "Ġlab": 7159,
      "Ġcloud": 7160,
      "Ġarticles": 7161,
      "ĠWall": 7162,
      "omy": 7163,
      "Ġextension": 7164,
      "tn": 7165,
      "Ġflav": 7166,
      "ĠSupport": 7167,
      "Ġkeeping": 7168,
      "inet": 7169,
      "Ġmassive": 7170,
      "ĠAff": 7171,
      "Last": 7172,
      "Ġmock": 7173,
      "oded": 7174,
      "hs": 7175,
      "ĠPolice": 7176,
      "Ġissued": 7177,
      "Ġban": 7178,
      "ĠMcC": 7179,
      "ĠParis": 7180,
      "Template": 7181,
      "Ġinner": 7182,
      "hab": 7183,
      "Ġgirls": 7184,
      "Ã¨": 7185,
      "Ġnoise": 7186,
      "ĠCy": 7187,
      "Ġmanufacture": 7188,
      "HS": 7189,
      "Ġforced": 7190,
      ">();": 7191,
      "join": 7192,
      "PP": 7193,
      "Ġmanage": 7194,
      "raints": 7195,
      "FONT": 7196,
      "Ġinternet": 7197,
      "Async": 7198,
      "Ġfashion": 7199,
      "ĠChris": 7200,
      "Ġdetect": 7201,
      "ĠJeff": 7202,
      "email": 7203,
      "ĠOld": 7204,
      "Ġjav": 7205,
      "Ġhistorical": 7206,
      "Ġhaven": 7207,
      "ĠArab": 7208,
      "ĠCard": 7209,
      "Ġfish": 7210,
      "Ptr": 7211,
      "ĠPerson": 7212,
      "ECT": 7213,
      "Ġlaunched": 7214,
      "{{\\": 7215,
      "Ġsynt": 7216,
      "Ġinvestigation": 7217,
      "92": 7218,
      ")=\\": 7219,
      "iginal": 7220,
      "ĠCA": 7221,
      "Ġcoverage": 7222,
      "patch": 7223,
      "conf": 7224,
      "ĠWindows": 7225,
      "Ġyouth": 7226,
      "Height": 7227,
      "Ab": 7228,
      "____": 7229,
      "types": 7230,
      "ĠMoreover": 7231,
      "ä¸": 7232,
      "package": 7233,
      "cks": 7234,
      "ĠCON": 7235,
      "iverse": 7236,
      "how": 7237,
      "Ġmedium": 7238,
      "Ġhab": 7239,
      "fast": 7240,
      "Net": 7241,
      "iration": 7242,
      "ĠNY": 7243,
      "ĠBase": 7244,
      "Ġinterests": 7245,
      "Position": 7246,
      "Ġscheme": 7247,
      "dev": 7248,
      "Callback": 7249,
      "CODE": 7250,
      "Ġchief": 7251,
      "ura": 7252,
      "ĠLi": 7253,
      "Ġdelete": 7254,
      "logg": 7255,
      "equals": 7256,
      "import": 7257,
      "phas": 7258,
      "Dir": 7259,
      "Ġbright": 7260,
      "Ġclinical": 7261,
      "Ġregister": 7262,
      "exception": 7263,
      "}+": 7264,
      "Ġphen": 7265,
      "protobuf": 7266,
      "Ġfuel": 7267,
      "Ġexcited": 7268,
      "match": 7269,
      "mo": 7270,
      "Ġvoc": 7271,
      "Ġparse": 7272,
      "ĠGeorg": 7273,
      "Ġexecutive": 7274,
      ":</": 7275,
      "Ġconven": 7276,
      "Level": 7277,
      "rical": 7278,
      "Ġleaves": 7279,
      "Ġpartnership": 7280,
      "\"))": 7281,
      "Ġsuc": 7282,
      "Ġestimate": 7283,
      "Ġproud": 7284,
      "ĠAdminist": 7285,
      "Ġchair": 7286,
      "Ġcandidate": 7287,
      "Ġcommitted": 7288,
      "Ġboost": 7289,
      "ĠTown": 7290,
      "Ġherself": 7291,
      "Ġadvanced": 7292,
      "Ġuncertain": 7293,
      "SD": 7294,
      "Ġconsole": 7295,
      "Ġliber": 7296,
      "ĠIslam": 7297,
      "ĠProfessor": 7298,
      "Windows": 7299,
      "Ġestimated": 7300,
      ">,": 7301,
      "Vari": 7302,
      "delete": 7303,
      "ĠAdv": 7304,
      "Ġring": 7305,
      "ĠPosted": 7306,
      "Ġinsert": 7307,
      "MC": 7308,
      "ĠPhoto": 7309,
      "Ġsecure": 7310,
      "ĠSO": 7311,
      "EST": 7312,
      "Ġreader": 7313,
      "ĠLo": 7314,
      "Ġrender": 7315,
      "annels": 7316,
      "rick": 7317,
      "Ġfourth": 7318,
      "Ġlisted": 7319,
      "ĠÂ·": 7320,
      "Ġspaces": 7321,
      "Ġcorrel": 7322,
      "Ġresponsibility": 7323,
      "ĠAR": 7324,
      "Ġvolunte": 7325,
      "Ġlived": 7326,
      "Ġalle": 7327,
      "ĠAsia": 7328,
      "Ġsand": 7329,
      "ĠPage": 7330,
      "Ġnetworks": 7331,
      "produ": 7332,
      "ctx": 7333,
      "ucky": 7334,
      "Ġhearing": 7335,
      "ĠProv": 7336,
      "Ġhighlight": 7337,
      "inton": 7338,
      "Ġdry": 7339,
      "amental": 7340,
      "Ġowned": 7341,
      "Ġmanner": 7342,
      "Ġpure": 7343,
      "Ġexplicit": 7344,
      "ĠMicrosoft": 7345,
      "Ġdivid": 7346,
      "Ġsharing": 7347,
      "Ġmarried": 7348,
      "Ġmask": 7349,
      "Ġofficer": 7350,
      "93": 7351,
      "Ġcreation": 7352,
      "aration": 7353,
      "files": 7354,
      "Ġrelationships": 7355,
      "Menu": 7356,
      "ĠPRO": 7357,
      "ragment": 7358,
      "ĠZe": 7359,
      "orders": 7360,
      "ĠExecut": 7361,
      "ĠPolit": 7362,
      "Ġsucceed": 7363,
      "One": 7364,
      "sign": 7365,
      "ĠMike": 7366,
      "ĠYoung": 7367,
      "Ġuniversity": 7368,
      "ĠMiddle": 7369,
      "Ġsubsc": 7370,
      "Ġestate": 7371,
      "IGN": 7372,
      "STR": 7373,
      "gebra": 7374,
      "Ġcorporate": 7375,
      "}=\\": 7376,
      "ĠSenate": 7377,
      "Acc": 7378,
      "icians": 7379,
      "Ġ{};": 7380,
      ",-": 7381,
      "iples": 7382,
      "stances": 7383,
      "langu": 7384,
      "SU": 7385,
      "note": 7386,
      "asp": 7387,
      "child": 7388,
      "ĠSup": 7389,
      "Script": 7390,
      "ĠAcademy": 7391,
      "Vector": 7392,
      "Ġnative": 7393,
      "Ġincreases": 7394,
      "Ġcrime": 7395,
      "{{": 7396,
      "Ġatmosp": 7397,
      "Ġnom": 7398,
      "Ġcomparison": 7399,
      "click": 7400,
      "ĠIndust": 7401,
      "Ġmort": 7402,
      "Ġanimals": 7403,
      "dest": 7404,
      "Ġshop": 7405,
      "actor": 7406,
      "}}(": 7407,
      "Range": 7408,
      "Ġcab": 7409,
      "ĠIl": 7410,
      "cit": 7411,
      "control": 7412,
      "COUN": 7413,
      "ĠMult": 7414,
      "Ġbehavi": 7415,
      "ĠEN": 7416,
      "Ġallowing": 7417,
      "ĠEp": 7418,
      "final": 7419,
      "Ġbrings": 7420,
      "Ġspending": 7421,
      "ĠIO": 7422,
      "()->": 7423,
      "Ġseconds": 7424,
      "ĠIndex": 7425,
      "Ġimpos": 7426,
      "}_\\": 7427,
      "Ġfilled": 7428,
      "Ġannounce": 7429,
      "PECT": 7430,
      "Ġsimpl": 7431,
      "Ġcritic": 7432,
      "Ġtrees": 7433,
      "Session": 7434,
      "ĠÎ": 7435,
      "Ġinvoke": 7436,
      "itage": 7437,
      "Ġbaby": 7438,
      "ĠRest": 7439,
      "Values": 7440,
      "Ġdistributed": 7441,
      "Pref": 7442,
      "Ġcoach": 7443,
      "iner": 7444,
      "ĠCup": 7445,
      "Ġtopic": 7446,
      "ializer": 7447,
      "ja": 7448,
      "card": 7449,
      "ãĤ": 7450,
      "obs": 7451,
      "Ġsurg": 7452,
      "Ġorders": 7453,
      "Ġcluster": 7454,
      "ulty": 7455,
      "ĠScot": 7456,
      "Ġquantum": 7457,
      "Store": 7458,
      "ĠIre": 7459,
      "ĠDou": 7460,
      "Ġ2001": 7461,
      "iveness": 7462,
      "javascript": 7463,
      "friend": 7464,
      "izont": 7465,
      "Ġnine": 7466,
      "ĠMethod": 7467,
      "Ġcontrast": 7468,
      "ĠAccess": 7469,
      "ĠJones": 7470,
      "fields": 7471,
      "PERF": 7472,
      "Hash": 7473,
      "ĠWatch": 7474,
      "Ġshock": 7475,
      "Ġconsistent": 7476,
      "Ġbra": 7477,
      "ĠHave": 7478,
      "dimension": 7479,
      "Ġholding": 7480,
      "Ġpictures": 7481,
      "Port": 7482,
      "Ġreligious": 7483,
      "ĠPass": 7484,
      "ITY": 7485,
      "Top": 7486,
      "itutional": 7487,
      "Ġpal": 7488,
      "Ġhero": 7489,
      "Ġdistinct": 7490,
      "ĠassertEquals": 7491,
      "auge": 7492,
      "Ġos": 7493,
      "():": 7494,
      "uby": 7495,
      "WS": 7496,
      "ifies": 7497,
      "ĠOk": 7498,
      "Ġinstitutions": 7499,
      "ĠPalest": 7500,
      "ogg": 7501,
      "Ġpray": 7502,
      "agers": 7503,
      "73": 7504,
      "Ġfrequency": 7505,
      "ĠJapanese": 7506,
      "$)": 7507,
      "graph": 7508,
      "Ġdoctor": 7509,
      "menu": 7510,
      "_{(": 7511,
      "ading": 7512,
      "Ġchemical": 7513,
      "Ġlicense": 7514,
      "Ġdiscovered": 7515,
      "names": 7516,
      "Ġinteraction": 7517,
      "ĠVirginia": 7518,
      "ĠLibrary": 7519,
      "Ġacknow": 7520,
      "isters": 7521,
      "Ġexistence": 7522,
      "Ġcraft": 7523,
      "Ġauthority": 7524,
      "Ġsudden": 7525,
      "There": 7526,
      "Ġsubsequ": 7527,
      "ested": 7528,
      "Ġspecifically": 7529,
      "Ġconsumer": 7530,
      "ipal": 7531,
      "Ġsounds": 7532,
      "Fe": 7533,
      "Ġroute": 7534,
      "Ġwilling": 7535,
      "Ġdefense": 7536,
      "bu": 7537,
      "indent": 7538,
      "\\\"": 7539,
      "inds": 7540,
      "Ġwinning": 7541,
      "ernel": 7542,
      "mond": 7543,
      "Ġcompre": 7544,
      "ritory": 7545,
      "rot": 7546,
      "Ġdiss": 7547,
      "ĠArmy": 7548,
      "Ġreviews": 7549,
      "Device": 7550,
      "}|": 7551,
      "END": 7552,
      "Ġrelatively": 7553,
      "high": 7554,
      "ye": 7555,
      "Ġcos": 7556,
      "Ġdifferences": 7557,
      "offset": 7558,
      "ĠDefault": 7559,
      "Ġwitness": 7560,
      "ĠCast": 7561,
      "Ġtypically": 7562,
      "Ġstructures": 7563,
      "ĠBow": 7564,
      "Ġembed": 7565,
      "Ġhousing": 7566,
      "des": 7567,
      "mathscr": 7568,
      "Ġdiscover": 7569,
      "hetic": 7570,
      "Ġserving": 7571,
      "Ġplane": 7572,
      "DP": 7573,
      "Ġsweet": 7574,
      "war": 7575,
      "toString": 7576,
      "alian": 7577,
      "Ġaffected": 7578,
      "Ġmotiv": 7579,
      "ĠValley": 7580,
      "Ġ['": 7581,
      "Ġ2002": 7582,
      "Ġswe": 7583,
      "Ġexperiment": 7584,
      "Ġwelcome": 7585,
      "Ġsupposed": 7586,
      "Ġwed": 7587,
      "Ġlose": 7588,
      "ĠPoint": 7589,
      "Sec": 7590,
      "ĠWay": 7591,
      "ĠEnvironment": 7592,
      "pute": 7593,
      "RS": 7594,
      "Ġcorner": 7595,
      "Ġsympt": 7596,
      "Ġmotor": 7597,
      "Description": 7598,
      "Long": 7599,
      "cr": 7600,
      "Ġaspects": 7601,
      "ĠMil": 7602,
      "ĠLiber": 7603,
      "ĠMot": 7604,
      "`.": 7605,
      "public": 7606,
      "Ġgift": 7607,
      "ĠNon": 7608,
      "plugin": 7609,
      "Ġmenu": 7610,
      "ĠRight": 7611,
      "Ġintended": 7612,
      "Ġdefend": 7613,
      "ructions": 7614,
      "Ġconfidence": 7615,
      "istant": 7616,
      "ĠMaster": 7617,
      "ĠAustralian": 7618,
      "ressive": 7619,
      "Ġconsidering": 7620,
      "Ġwaste": 7621,
      "94": 7622,
      "ĠEll": 7623,
      "Ġinjury": 7624,
      "Ġacademic": 7625,
      "rary": 7626,
      "ĠOnline": 7627,
      "Ġment": 7628,
      "Ġcarbon": 7629,
      "hash": 7630,
      "ĠLight": 7631,
      "secut": 7632,
      "uls": 7633,
      "inf": 7634,
      "Properties": 7635,
      "82": 7636,
      "Ġreject": 7637,
      "isted": 7638,
      "ĠPhys": 7639,
      "Ġton": 7640,
      "Ġcompare": 7641,
      "Ġtreated": 7642,
      "ĠThose": 7643,
      "Tree": 7644,
      "=\"../": 7645,
      "grade": 7646,
      "ĠPenn": 7647,
      "Ġcontribution": 7648,
      "Ġdelay": 7649,
      "Que": 7650,
      "Ġce": 7651,
      "ola": 7652,
      "Ġfell": 7653,
      "Ġshares": 7654,
      "imately": 7655,
      "Search": 7656,
      "TL": 7657,
      "ultural": 7658,
      "Child": 7659,
      "Ġdecide": 7660,
      "000000": 7661,
      ")^{": 7662,
      "allow": 7663,
      "2012": 7664,
      "ĠĠĠĠĠĠĠĠĠĠĠĠ": 7665,
      "affected": 7666,
      ")-": 7667,
      "Ġindeed": 7668,
      "Ġ\\{": 7669,
      "})\\": 7670,
      "ĠDespite": 7671,
      "PRE": 7672,
      "ĠCase": 7673,
      "Ġkid": 7674,
      "operator": 7675,
      "Ġsport": 7676,
      "Local": 7677,
      "urban": 7678,
      "ĠHaw": 7679,
      "empl": 7680,
      "Art": 7681,
      "Ġfab": 7682,
      "copy": 7683,
      "ĠTer": 7684,
      "Ġkitchen": 7685,
      "erer": 7686,
      "Ġiter": 7687,
      "Ġperspective": 7688,
      "bal": 7689,
      "Ġpolitics": 7690,
      "Ġisol": 7691,
      "reshold": 7692,
      "ĠIP": 7693,
      "Ġrelax": 7694,
      "ĠAgain": 7695,
      "Ġmusical": 7696,
      "Ġpun": 7697,
      "Ġliterature": 7698,
      "Helper": 7699,
      "Dec": 7700,
      "cluded": 7701,
      "ĠCLASS": 7702,
      "iser": 7703,
      "ĠRay": 7704,
      "aped": 7705,
      "Ġelim": 7706,
      "cur": 7707,
      "Ġles": 7708,
      "ĠInstead": 7709,
      "pet": 7710,
      "ĠAndrew": 7711,
      "ĠTR": 7712,
      "Ġlots": 7713,
      "Ġcoast": 7714,
      "Ġlocations": 7715,
      "Ġ$(\\": 7716,
      "example": 7717,
      "Ġadvent": 7718,
      "Down": 7719,
      "ĠLim": 7720,
      "ĠValue": 7721,
      "Ġ37": 7722,
      "dict": 7723,
      "debug": 7724,
      "Ġexperts": 7725,
      "iated": 7726,
      "fg": 7727,
      "ĠTake": 7728,
      "ĠBern": 7729,
      "byte": 7730,
      "Ġtells": 7731,
      "Ġtelevision": 7732,
      "eller": 7733,
      "84": 7734,
      "Ġfle": 7735,
      "Ġthoughts": 7736,
      "aked": 7737,
      "Ġcandidates": 7738,
      "Writ": 7739,
      "bel": 7740,
      "Ġplants": 7741,
      "Ġschedule": 7742,
      "Ġstack": 7743,
      "Left": 7744,
      "Ġliqu": 7745,
      "language": 7746,
      "Ġtight": 7747,
      "Ġok": 7748,
      "Ġforget": 7749,
      "Ġexpressed": 7750,
      "igr": 7751,
      "CI": 7752,
      "igin": 7753,
      "Ġcomplic": 7754,
      "Ġfamiliar": 7755,
      "hr": 7756,
      "\\!": 7757,
      "oston": 7758,
      "ĠJustice": 7759,
      "cale": 7760,
      "Ġpod": 7761,
      "ATA": 7762,
      "oom": 7763,
      "Ġconcerned": 7764,
      "ĠPay": 7765,
      "Ġemphas": 7766,
      "Ġindustrial": 7767,
      "Ġreaders": 7768,
      "Ġregistered": 7769,
      "ĠSource": 7770,
      "second": 7771,
      "Ġassets": 7772,
      "Ġrevealed": 7773,
      "ora": 7774,
      "Ġcycle": 7775,
      "Ge": 7776,
      "eper": 7777,
      "Ġsupporting": 7778,
      "redit": 7779,
      "connect": 7780,
      "Next": 7781,
      "Ġapart": 7782,
      "Ġcentre": 7783,
      "Module": 7784,
      "nc": 7785,
      "env": 7786,
      "enter": 7787,
      "Ġmessages": 7788,
      "Ġimplic": 7789,
      "interface": 7790,
      "ĠCarolina": 7791,
      "ĠChildren": 7792,
      "admin": 7793,
      "rule": 7794,
      "Ġlatter": 7795,
      "rieved": 7796,
      "Ġ\\|": 7797,
      "Ġvent": 7798,
      "INE": 7799,
      "Ġdeploy": 7800,
      "91": 7801,
      "ĠDev": 7802,
      "ĠFilm": 7803,
      "Ġjson": 7804,
      "Ġstick": 7805,
      "Util": 7806,
      "Ġbelief": 7807,
      "Ġexercise": 7808,
      "ĠCanadian": 7809,
      "Ġjustice": 7810,
      "Ġpandemic": 7811,
      "ensed": 7812,
      "Ġintegr": 7813,
      "DI": 7814,
      "Ġadvoc": 7815,
      "Ġ!==": 7816,
      "west": 7817,
      "2021": 7818,
      "ader": 7819,
      "({\\": 7820,
      "Ġchart": 7821,
      "amm": 7822,
      "oting": 7823,
      "Ġtheme": 7824,
      "water": 7825,
      "Ġuniform": 7826,
      "ĠStudies": 7827,
      "shot": 7828,
      "ĠDisc": 7829,
      "Ġwine": 7830,
      "omial": 7831,
      "eah": 7832,
      "Ġkill": 7833,
      "fortunately": 7834,
      "Ġtasks": 7835,
      "Ġsnow": 7836,
      "ĠFestival": 7837,
      "prise": 7838,
      "ĠSoft": 7839,
      "Ġfellow": 7840,
      "pref": 7841,
      "Ġran": 7842,
      "83": 7843,
      "Ġformed": 7844,
      "Ġsubstant": 7845,
      "ĠON": 7846,
      "Ġofficers": 7847,
      "Ġteachers": 7848,
      "Ġmagnetic": 7849,
      "site": 7850,
      "onym": 7851,
      "itionally": 7852,
      "anish": 7853,
      "Ġawait": 7854,
      "cons": 7855,
      "GET": 7856,
      "coh": 7857,
      "Ġwinter": 7858,
      "ĠNEW": 7859,
      "BI": 7860,
      "Ġctx": 7861,
      "pop": 7862,
      "Ġbringing": 7863,
      ".;": 7864,
      "ĠText": 7865,
      "amples": 7866,
      "Ġsy": 7867,
      "@\"": 7868,
      "inations": 7869,
      "Ġaccompl": 7870,
      "Ġconducted": 7871,
      "Ġreform": 7872,
      "&\\": 7873,
      "Ġcle": 7874,
      "Ġ(-": 7875,
      "Ġraw": 7876,
      "Ġprocedure": 7877,
      "prene": 7878,
      "holder": 7879,
      "Change": 7880,
      "URE": 7881,
      "Ġminute": 7882,
      "Right": 7883,
      "Ġstudied": 7884,
      "ĠProm": 7885,
      "Ġmovies": 7886,
      "Psi": 7887,
      "andon": 7888,
      "Ġking": 7889,
      ":\\": 7890,
      "ĠTask": 7891,
      "Ġ300": 7892,
      "Ġstopped": 7893,
      "Ġsolar": 7894,
      "Ġfeels": 7895,
      "Ġregul": 7896,
      "apes": 7897,
      "tml": 7898,
      "Ġsqu": 7899,
      "raq": 7900,
      "ĠCharl": 7901,
      "aa": 7902,
      "Ġputting": 7903,
      "Ġscientific": 7904,
      "]$": 7905,
      "Ġasking": 7906,
      "Ġturns": 7907,
      "DER": 7908,
      "orters": 7909,
      "izontal": 7910,
      "Ġcart": 7911,
      "Http": 7912,
      "Ġfacility": 7913,
      "Pass": 7914,
      "ella": 7915,
      "Ġresearchers": 7916,
      "estion": 7917,
      "Ġdepart": 7918,
      "ĠIreland": 7919,
      "foo": 7920,
      "ĠMA": 7921,
      "iture": 7922,
      "ĠLocal": 7923,
      "Ġ2023": 7924,
      "antly": 7925,
      "ĠJac": 7926,
      "umerate": 7927,
      "ĠPhot": 7928,
      "document": 7929,
      "Reference": 7930,
      "Ġconflict": 7931,
      "Ġtherm": 7932,
      "Ġcref": 7933,
      "Policy": 7934,
      "reprene": 7935,
      "Ġcommittee": 7936,
      "uality": 7937,
      "Ġdress": 7938,
      "ĠSpace": 7939,
      "Ġspectrum": 7940,
      "Ġvelocity": 7941,
      "clear": 7942,
      "Ġapproved": 7943,
      "Ġwarn": 7944,
      "Ġfurn": 7945,
      "apped": 7946,
      "Metadata": 7947,
      "Sl": 7948,
      "Ġinfrastructure": 7949,
      "DL": 7950,
      "vol": 7951,
      "Ġsevere": 7952,
      "ATH": 7953,
      "Ġstanding": 7954,
      "tical": 7955,
      "Do": 7956,
      "ogen": 7957,
      "eler": 7958,
      "ĠClick": 7959,
      "ĠIss": 7960,
      "Ġgreatest": 7961,
      "Ġcache": 7962,
      "gence": 7963,
      "ango": 7964,
      "Ġlob": 7965,
      "Ġarrived": 7966,
      "Ġvideos": 7967,
      "Ã¼": 7968,
      "Offset": 7969,
      "Ġcloser": 7970,
      "zer": 7971,
      "Ġstatements": 7972,
      "Ġmere": 7973,
      "Ġ33": 7974,
      "Ġcoe": 7975,
      "dim": 7976,
      "Record": 7977,
      "uns": 7978,
      "Ġwra": 7979,
      "ifts": 7980,
      "ĠHon": 7981,
      "ographic": 7982,
      ")}\\": 7983,
      "lisher": 7984,
      "styles": 7985,
      "Ġsuggested": 7986,
      "Ġalloc": 7987,
      "missions": 7988,
      "ĠTour": 7989,
      "Ġaccounts": 7990,
      "docs": 7991,
      "Click": 7992,
      "neq": 7993,
      "Iter": 7994,
      "Ġends": 7995,
      "Ġmolec": 7996,
      "Ġefficiency": 7997,
      "Current": 7998,
      "EQ": 7999,
      "Mem": 8000,
      "ĠNig": 8001,
      "Ġrecip": 8002,
      "ograp": 8003,
      "Ġexpansion": 8004,
      "ĠHamilton": 8005,
      "ĠSteve": 8006,
      "Ġappearance": 8007,
      "ponents": 8008,
      "Ġcommission": 8009,
      "Ġdecor": 8010,
      "Ġnodes": 8011,
      "Ġcharges": 8012,
      "athan": 8013,
      "ĠChair": 8014,
      "Ġpromote": 8015,
      "ĠThree": 8016,
      "Ġaccident": 8017,
      "Impl": 8018,
      "ĠSecretary": 8019,
      "ĠJun": 8020,
      "Expression": 8021,
      "that": 8022,
      "Ġentirely": 8023,
      "MENT": 8024,
      "Ġwalking": 8025,
      "Ġvehicles": 8026,
      "Ġdegrees": 8027,
      "Ġbuildings": 8028,
      "Ġcauses": 8029,
      "ĠSuch": 8030,
      "ĠCurrent": 8031,
      "ĠItaly": 8032,
      "Ġrecall": 8033,
      "Ġhonest": 8034,
      "ĠVictor": 8035,
      "ĠAwards": 8036,
      "Ġhash": 8037,
      "ĠRoman": 8038,
      "Ġmeasured": 8039,
      "Ġcriminal": 8040,
      "Ġconversation": 8041,
      "ĠAli": 8042,
      "Ġpossibly": 8043,
      "\"));": 8044,
      "ĠExecutive": 8045,
      "irty": 8046,
      "Ġsuccessfully": 8047,
      "Ġvary": 8048,
      "Ġwear": 8049,
      "Ġusual": 8050,
      "isc": 8051,
      "ĠUpdate": 8052,
      "Document": 8053,
      "Ġcards": 8054,
      "Ġ36": 8055,
      "Ġmale": 8056,
      "ĠWilliams": 8057,
      "ubern": 8058,
      "fire": 8059,
      "Ġdepends": 8060,
      "Ġbroken": 8061,
      "ras": 8062,
      "ĠBritain": 8063,
      "icial": 8064,
      "ĠDC": 8065,
      "ORM": 8066,
      "Ġmixed": 8067,
      "ĠAS": 8068,
      "Ġwealth": 8069,
      "Ġauthorities": 8070,
      "Parameters": 8071,
      "Ġimproved": 8072,
      "nor": 8073,
      "^+": 8074,
      "irds": 8075,
      "Ġnegot": 8076,
      "Ġmarriage": 8077,
      "================================": 8078,
      "irms": 8079,
      "matrix": 8080,
      "Post": 8081,
      "76": 8082,
      "Ġfort": 8083,
      "rames": 8084,
      "Ġimplies": 8085,
      "Ġsides": 8086,
      "nic": 8087,
      "eries": 8088,
      "Ġattacks": 8089,
      "ĠDemocratic": 8090,
      "aud": 8091,
      "Ġagents": 8092,
      "spe": 8093,
      "Ġnarr": 8094,
      "thlet": 8095,
      "system": 8096,
      "Ġcoffee": 8097,
      "Ġinvolve": 8098,
      "ĠDaniel": 8099,
      "pool": 8100,
      "Ġbreath": 8101,
      "prod": 8102,
      "Ġexpos": 8103,
      "---": 8104,
      "region": 8105,
      "Ġcaught": 8106,
      "ĠFull": 8107,
      "ivered": 8108,
      "vas": 8109,
      "amin": 8110,
      "Ġcomfortable": 8111,
      "But": 8112,
      "Ġsitting": 8113,
      "Ġrough": 8114,
      "nections": 8115,
      "bin": 8116,
      "Ġordered": 8117,
      "double": 8118,
      "Ġgather": 8119,
      "outs": 8120,
      "Ġhidden": 8121,
      "ĠEXPECT": 8122,
      "ether": 8123,
      "Ġdepending": 8124,
      "alo": 8125,
      "pled": 8126,
      "esterday": 8127,
      "uable": 8128,
      "Ġrenew": 8129,
      "Ġrestaurant": 8130,
      "ĠPac": 8131,
      "rich": 8132,
      "ĠSearch": 8133,
      "appe": 8134,
      "âĢ²": 8135,
      "Ġboundary": 8136,
      "ĠMP": 8137,
      "Ġremote": 8138,
      "ĠMean": 8139,
      "Ġenem": 8140,
      "dimensional": 8141,
      "Rel": 8142,
      "Ġabsor": 8143,
      "Ġworse": 8144,
      "'$": 8145,
      "Ġgrid": 8146,
      "construct": 8147,
      "ĠForce": 8148,
      "Ġflight": 8149,
      "Ġrepresented": 8150,
      "oe": 8151,
      "imb": 8152,
      "Ġformal": 8153,
      "ali": 8154,
      "handle": 8155,
      "images": 8156,
      "Ġstable": 8157,
      "ĠMatt": 8158,
      "Ġkick": 8159,
      "Ġneighborhood": 8160,
      "Ġadministr": 8161,
      "Storage": 8162,
      "operation": 8163,
      "ĠConference": 8164,
      "Dep": 8165,
      "va": 8166,
      "Ġsister": 8167,
      "Ġdb": 8168,
      "ĠPop": 8169,
      "Ġposts": 8170,
      "Ġconfirmed": 8171,
      "ĠMedicine": 8172,
      "300": 8173,
      "Ġabsolutely": 8174,
      "make": 8175,
      "replace": 8176,
      "ĠSports": 8177,
      "ĠKen": 8178,
      "Ġfundamental": 8179,
      "Ġaccepted": 8180,
      "ĠFour": 8181,
      "ĠRoll": 8182,
      "Ġbegins": 8183,
      "ACK": 8184,
      "Ġmanif": 8185,
      "Ġreduction": 8186,
      "Ġcharged": 8187,
      "Ġsupports": 8188,
      "drop": 8189,
      "idi": 8190,
      "lywood": 8191
    },
    "merges": [
      [
        "Ġ",
        "t"
      ],
      [
        "i",
        "n"
      ],
      [
        "Ġ",
        "a"
      ],
      [
        "h",
        "e"
      ],
      [
        "o",
        "n"
      ],
      [
        "r",
        "e"
      ],
      [
        "e",
        "r"
      ],
      [
        "a",
        "t"
      ],
      [
        "Ġt",
        "he"
      ],
      [
        "Ġ",
        "s"
      ],
      [
        "o",
        "r"
      ],
      [
        "e",
        "n"
      ],
      [
        "Ġ",
        "c"
      ],
      [
        "i",
        "t"
      ],
      [
        "e",
        "s"
      ],
      [
        "Ġ",
        "w"
      ],
      [
        "i",
        "s"
      ],
      [
        "a",
        "n"
      ],
      [
        "Ġ",
        "o"
      ],
      [
        "a",
        "l"
      ],
      [
        "Ġ",
        "f"
      ],
      [
        "a",
        "r"
      ],
      [
        "Ġ",
        "p"
      ],
      [
        "in",
        "g"
      ],
      [
        "e",
        "d"
      ],
      [
        "Ġ",
        "b"
      ],
      [
        "n",
        "d"
      ],
      [
        "o",
        "u"
      ],
      [
        "i",
        "on"
      ],
      [
        "Ġ",
        "in"
      ],
      [
        "l",
        "e"
      ],
      [
        "i",
        "c"
      ],
      [
        "Ġo",
        "f"
      ],
      [
        "Ġ",
        "m"
      ],
      [
        "Ġt",
        "o"
      ],
      [
        "a",
        "s"
      ],
      [
        "Ġ",
        "d"
      ],
      [
        "Ġa",
        "nd"
      ],
      [
        "r",
        "o"
      ],
      [
        "Ġ",
        "h"
      ],
      [
        "e",
        "t"
      ],
      [
        "en",
        "t"
      ],
      [
        "c",
        "t"
      ],
      [
        "Ġt",
        "h"
      ],
      [
        "s",
        "t"
      ],
      [
        "e",
        "l"
      ],
      [
        "i",
        "l"
      ],
      [
        "o",
        "m"
      ],
      [
        "Ġ",
        "re"
      ],
      [
        "Ġ",
        "T"
      ],
      [
        "Ġ",
        "n"
      ],
      [
        "Ġ",
        "l"
      ],
      [
        "Ġ",
        "S"
      ],
      [
        "i",
        "d"
      ],
      [
        "a",
        "m"
      ],
      [
        "Ġ",
        "e"
      ],
      [
        "Ġ",
        "I"
      ],
      [
        "Ġ",
        "A"
      ],
      [
        "u",
        "t"
      ],
      [
        "i",
        "m"
      ],
      [
        "i",
        "g"
      ],
      [
        "o",
        "l"
      ],
      [
        "o",
        "t"
      ],
      [
        "Ġ",
        "C"
      ],
      [
        "Ġ",
        "g"
      ],
      [
        "v",
        "e"
      ],
      [
        "u",
        "r"
      ],
      [
        "c",
        "e"
      ],
      [
        "at",
        "ion"
      ],
      [
        "Ġ",
        "is"
      ],
      [
        "a",
        "d"
      ],
      [
        "s",
        "e"
      ],
      [
        "Ġ",
        "Ġ"
      ],
      [
        "Ġf",
        "or"
      ],
      [
        "o",
        "w"
      ],
      [
        "Ġ",
        "\\"
      ],
      [
        "c",
        "h"
      ],
      [
        "a",
        "y"
      ],
      [
        "l",
        "y"
      ],
      [
        "Ġ",
        "on"
      ],
      [
        "Ġb",
        "e"
      ],
      [
        "v",
        "er"
      ],
      [
        "Ġ",
        "("
      ],
      [
        "Ġs",
        "t"
      ],
      [
        "Ġ",
        "M"
      ],
      [
        "Ġ",
        "u"
      ],
      [
        "u",
        "l"
      ],
      [
        "i",
        "f"
      ],
      [
        "Ġth",
        "at"
      ],
      [
        "r",
        "a"
      ],
      [
        "it",
        "h"
      ],
      [
        "Ġ",
        "y"
      ],
      [
        "Ġ",
        "P"
      ],
      [
        "Ġ",
        "B"
      ],
      [
        "o",
        "d"
      ],
      [
        "i",
        "r"
      ],
      [
        "Ġ",
        "$"
      ],
      [
        "a",
        "g"
      ],
      [
        "ĠT",
        "he"
      ],
      [
        "t",
        "er"
      ],
      [
        "e",
        "m"
      ],
      [
        "Ġ",
        "="
      ],
      [
        "Ġw",
        "ith"
      ],
      [
        "at",
        "e"
      ],
      [
        "Ġc",
        "on"
      ],
      [
        "a",
        "b"
      ],
      [
        "u",
        "m"
      ],
      [
        "Ġa",
        "s"
      ],
      [
        "Ġ",
        "\""
      ],
      [
        "r",
        "i"
      ],
      [
        "Ġ",
        "W"
      ],
      [
        "Ġ",
        "v"
      ],
      [
        "p",
        "e"
      ],
      [
        "Ġ",
        "D"
      ],
      [
        "he",
        "r"
      ],
      [
        "Ġ",
        "1"
      ],
      [
        "q",
        "u"
      ],
      [
        "Ġ",
        "it"
      ],
      [
        "Ġ",
        "H"
      ],
      [
        "Ġ",
        "F"
      ],
      [
        "Ġ",
        "R"
      ],
      [
        "Ġa",
        "n"
      ],
      [
        "c",
        "k"
      ],
      [
        "es",
        "t"
      ],
      [
        "Ġa",
        "l"
      ],
      [
        "Ġp",
        "ro"
      ],
      [
        "Ġy",
        "ou"
      ],
      [
        "is",
        "t"
      ],
      [
        "'",
        "s"
      ],
      [
        "Ġ",
        "2"
      ],
      [
        "t",
        "h"
      ],
      [
        "Ġw",
        "h"
      ],
      [
        "er",
        "s"
      ],
      [
        "e",
        "w"
      ],
      [
        "Ġ",
        "<"
      ],
      [
        "u",
        "n"
      ],
      [
        "u",
        "s"
      ],
      [
        "es",
        "s"
      ],
      [
        "Ġ",
        "L"
      ],
      [
        ")",
        ";"
      ],
      [
        "h",
        "t"
      ],
      [
        "Ġw",
        "e"
      ],
      [
        "il",
        "l"
      ],
      [
        "re",
        "s"
      ],
      [
        "Ġ",
        "{"
      ],
      [
        "p",
        "p"
      ],
      [
        "an",
        "d"
      ],
      [
        "Ġ",
        "N"
      ],
      [
        "en",
        "d"
      ],
      [
        "p",
        "t"
      ],
      [
        "Ġ",
[...]
