[UNK]	0
[CLS]	0
[SEP]	0
<context>	0
<answer>	0
[MASK]	0
s	-3.16297
▁the	-3.4322
,	-3.54108
.	-3.7265
▁and	-3.98126
n	-4.03354
▁to	-4.04107
▁a	-4.12857
▁of	-4.18488
▁	-4.42486
▁in	-4.46976
.\	-4.47399
\	-4.84038
ing	-4.92029
ed	-4.93101
-	-5.01006
▁is	-5.10841
▁was	-5.12035
d	-5.19476
'	-5.20274
▁that	-5.22061
▁for	-5.25656
t	-5.26413
▁it	-5.39168
▁on	-5.47005
▁with	-5.51454
y	-5.58052
"	-5.61021
▁be	-5.64748
er	-5.69711
▁are	-5.70268
ly	-5.79173
▁\"	-5.8814
e	-5.88698
\"	-5.91852
▁said	-5.93096
▁The	-5.93435
▁he	-5.95701
▁have	-5.98872
▁as	-5.99363
▁at	-5.99365
▁from	-5.99701
▁by	-6.00378
nThe	-6.01177
al	-6.04083
▁you	-6.07186
▁not	-6.08936
▁(	-6.11159
▁or	-6.13836
:	-6.16756
r	-6.18042
re	-6.18319
▁her	-6.19285
▁his	-6.19553
m	-6.2098
▁they	-6.22184
▁I	-6.22555
▁He	-6.25109
▁can	-6.2711
text	-6.30508
▁had	-6.32828
▁an	-6.32967
}	-6.33874
{	-6.3389
":	-6.34222
▁"	-6.36391
▁has	-6.36472
▁so	-6.37044
es	-6.38851
▁their	-6.39092
▁will	-6.39585
▁She	-6.4103
▁were	-6.41117
▁this	-6.41281
▁but	-6.42422
▁A	-6.43251
▁she	-6.44305
or	-6.46195
▁They	-6.48822
a	-6.50943
o	-6.53867
)	-6.54077
in	-6.55576
’	-6.56611
▁re	-6.56822
l	-6.59826
▁time	-6.6092
▁more	-6.60938
S	-6.61208
▁we	-6.61346
▁S	-6.61662
▁up	-6.65457
▁all	-6.68533
▁day	-6.68711
▁there	-6.70483
th	-6.70559
▁which	-6.70925
b	-6.76365
ic	-6.76553
ation	-6.76635
▁one	-6.7668
▁who	-6.77004
p	-6.77979
▁out	-6.77998
I	-6.78125
▁been	-6.79146
▁about	-6.79644
▁It	-6.79657
g	-6.79899
A	-6.8126
ur	-6.81481
le	-6.83052
ar	-6.83986
i	-6.84295
▁would	-6.85039
▁your	-6.86366
▁very	-6.87994
▁C	-6.90399
▁other	-6.91
▁de	-6.91614
an	-6.91801
▁also	-6.93136
▁new	-6.93306
▁p	-6.93784
c	-6.95331
C	-6.95356
▁-	-6.95599
▁them	-6.96152
en	-6.96242
il	-6.99151
et	-6.99229
.\"\	-7.00169
▁when	-7.00306
▁some	-7.00998
▁do	-7.01503
▁people	-7.01634
h	-7.01721
el	-7.02251
D	-7.04777
ers	-7.05069
▁over	-7.0703
ra	-7.07723
u	-7.08167
▁E	-7.08257
▁than	-7.08645
it	-7.09699
▁into	-7.106
▁could	-7.10986
▁what	-7.12964
li	-7.13292
▁F	-7.13734
▁Lily	-7.13816
▁like	-7.14424
▁B	-7.1449
,\"	-7.15087
ve	-7.15311
▁In	-7.15434
k	-7.15448
▁little	-7.17075
P	-7.17384
▁no	-7.17666
f	-7.17731
on	-7.19927
M	-7.21575
ll	-7.2194
ate	-7.22103
us	-7.22241
!	-7.23522
/	-7.24538
ri	-7.24636
▁help	-7.24684
ive	-7.25612
▁its	-7.2563
ro	-7.25724
at	-7.26303
ce	-7.26388
w	-7.2646
▁see	-7.286
▁19	-7.2895
▁play	-7.29056
▁make	-7.29254
st	-7.2954
;	-7.297
▁if	-7.29756
▁G	-7.29891
▁may	-7.30011
▁him	-7.30295
▁big	-7.309
▁first	-7.31083
▁T	-7.31223
T	-7.31924
▁two	-7.32359
▁back	-7.33808
▁go	-7.34203
de	-7.34406
la	-7.3565
ir	-7.36237
nA	-7.3685
▁happy	-7.36975
▁saw	-7.37002
E	-7.37464
ter	-7.38862
▁D	-7.38887
▁after	-7.39173
▁says	-7.3983
se	-7.39991
▁P	-7.4008
▁how	-7.40351
B	-7.40428
ol	-7.41114
▁mom	-7.41995
▁found	-7.42379
▁our	-7.42996
able	-7.43067
▁use	-7.43715
ment	-7.44056
▁co	-7.44117
▁many	-7.44665
▁years	-7.4537
▁un	-7.46305
▁work	-7.46447
▁con	-7.46703
est	-7.46773
▁most	-7.46798
▁made	-7.46801
ne	-7.47119
▁get	-7.47424
um	-7.48243
im	-7.48962
▁around	-7.49405
▁M	-7.49686
ity	-7.50447
Once	-7.50846
▁“	-7.51628
▁take	-7.51807
▁only	-7.52865
na	-7.53111
L	-7.53258
F	-7.53463
ch	-7.53797
▁\	-7.54314
▁water	-7.54387
age	-7.55564
id	-7.55793
ia	-7.56043
▁me	-7.56275
ion	-7.56288
▁way	-7.56734
▁part	-7.5695
▁just	-7.57096
▁b	-7.57792
▁home	-7.59061
▁girl	-7.59275
▁these	-7.5929
▁such	-7.59425
▁wanted	-7.59443
to	-7.59749
!\"	-7.59794
▁upon	-7.60143
▁1	-7.60289
lo	-7.61098
▁because	-7.61335
▁should	-7.61544
▁year	-7.61578
is	-7.61905
▁used	-7.62069
ma	-7.62128
▁want	-7.62423
ent	-7.63489
▁any	-7.63633
▁O	-7.6376
ine	-7.63813
ies	-7.64143
ul	-7.64579
x	-7.66015
▁But	-7.66335
▁find	-7.67144
nIn	-7.67383
▁too	-7.67824
▁man	-7.68022
▁down	-7.68093
▁did	-7.68122
ry	-7.68264
▁went	-7.68267
▁This	-7.68772
?	-7.68845
ist	-7.69553
as	-7.69743
▁where	-7.69837
▁much	-7.70295
am	-7.70935
▁st	-7.71038
ad	-7.71431
▁c	-7.72306
▁U	-7.72482
te	-7.73029
O	-7.73178
The	-7.73313
▁now	-7.73711
▁being	-7.74709
▁under	-7.7488
▁my	-7.75226
ary	-7.7525
▁through	-7.75526
▁car	-7.75948
1	-7.76315
ated	-7.76938
▁even	-7.77133
H	-7.77253
▁know	-7.77337
me	-7.77925
▁good	-7.78386
z	-7.79101
▁fun	-7.79561
▁before	-7.80774
▁well	-7.80811
▁Re	-7.81287
▁need	-7.81399
▁end	-7.82347
U	-7.82398
nS	-7.82547
ta	-7.82908
ant	-7.83473
▁We	-7.83576
ut	-7.83658
▁world	-7.83911
ie	-7.84749
ot	-7.84861
G	-7.85073
▁long	-7.85398
▁One	-7.85788
▁3	-7.86205
▁each	-7.86703
▁W	-7.86719
op	-7.86803
▁friends	-7.86946
▁off	-7.87004
2	-7.87036
▁put	-7.87608
▁N	-7.87671
▁between	-7.87739
ian	-7.88054
ill	-7.88163
▁You	-7.88458
▁H	-7.88983
▁away	-7.89134
▁Ma	-7.89991
ke	-7.9031
and	-7.90516
ow	-7.90522
R	-7.90653
ha	-7.90749
▁K	-7.9089
▁e	-7.9105
▁high	-7.91436
▁something	-7.9168
ge	-7.91806
▁asked	-7.91832
▁government	-7.9197
▁number	-7.91985
man	-7.92556
▁three	-7.92712
?\"	-7.92789
N	-7.93215
▁Ben	-7.93677
co	-7.94093
▁named	-7.94227
▁children	-7.94365
?\	-7.94503
▁look	-7.94719
min	-7.95362
nBut	-7.95509
▁those	-7.96075
ig	-7.96151
▁together	-7.96748
▁L	-7.97306
▁g	-7.97329
vi	-7.97366
ck	-7.97555
▁St	-7.97658
nHe	-7.98061
ance	-7.9808
▁both	-7.98354
▁still	-7.98366
be	-7.99183
▁De	-7.99242
son	-7.99276
▁place	-7.99638
ty	-8.00068
tic	-8.00117
▁us	-8.0046
:\	-8.00833
un	-8.00888
▁told	-8.00957
),	-8.01091
▁pro	-8.01191
▁while	-8.01454
▁2	-8.01532
ton	-8.01545
pe	-8.01563
▁system	-8.01726
3	-8.0178
▁felt	-8.01894
he	-8.01956
ci	-8.02682
ver	-8.0307
▁boy	-8.03071
▁think	-8.03087
▁say	-8.03465
”	-8.03549
▁looked	-8.03924
▁last	-8.04009
%	-8.04036
▁r	-8.04612
▁pre	-8.04934
▁things	-8.05304
▁different	-8.05323
▁started	-8.05517
▁life	-8.05696
▁small	-8.05708
▁during	-8.05893
V	-8.0622
▁R	-8.06259
om	-8.06291
▁ran	-8.06531
ted	-8.06584
ti	-8.0672
▁again	-8.06992
▁loved	-8.07035
▁called	-8.07651
▁information	-8.07655
▁food	-8.07921
We	-8.07922
▁state	-8.0806
▁di	-8.08604
▁Mr	-8.08892
▁don	-8.08994
▁came	-8.09113
▁Tom	-8.0929
nd	-8.09355
ard	-8.09966
ru	-8.1001
▁important	-8.10271
va	-8.10305
▁dis	-8.10344
▁come	-8.11196
com	-8.11482
▁20	-8.11776
ish	-8.11869
ical	-8.12075
▁So	-8.12214
ally	-8.12358
▁smiled	-8.12713
▁set	-8.12848
▁comp	-8.13547
ous	-8.14062
▁got	-8.1446
▁form	-8.14776
▁study	-8.14814
up	-8.15032
pa	-8.15038
▁best	-8.15085
▁US	-8.15732
▁special	-8.15925
▁support	-8.16131
ting	-8.16296
sh	-8.16371
▁18	-8.16468
W	-8.16563
ence	-8.16752
4	-8.16763
▁every	-8.17397
▁took	-8.17409
▁same	-8.17532
ating	-8.17891
▁health	-8.18151
▁show	-8.18179
▁per	-8.18408
ite	-8.18433
.\"	-8.18512
per	-8.18527
▁research	-8.18559
▁To	-8.18634
▁thought	-8.18682
ial	-8.1871
▁own	-8.1883
▁park	-8.19005
ure	-8.19181
ness	-8.19403
▁And	-8.19453
▁Timmy	-8.19458
▁For	-8.19477
▁always	-8.19561
ho	-8.20206
ster	-8.20665
▁10	-8.20685
ling	-8.20758
ap	-8.21141
v	-8.21391
ations	-8.21967
land	-8.22336
▁family	-8.2256
▁right	-8.22737
▁better	-8.23404
▁test	-8.23616
▁old	-8.23749
ee	-8.23827
▁ex	-8.23859
).	-8.24084
mo	-8.2439
dy	-8.24696
It	-8.25129
▁public	-8.25144
00	-8.25174
▁Pa	-8.25257
▁human	-8.25506
▁ma	-8.25551
▁great	-8.25575
▁including	-8.2609
nOne	-8.26384
▁head	-8.26542
ism	-8.26895
▁point	-8.26945
▁until	-8.27116
ber	-8.27121
▁bird	-8.27246
ac	-8.27541
€	-8.27659
mb	-8.27791
)\	-8.27801
we	-8.27822
hi	-8.27971
nIt	-8.2815
▁next	-8.28183
old	-8.28252
the	-8.28521
000	-8.28638
▁never	-8.28929
▁give	-8.28944
▁New	-8.28988
con	-8.29009
qu	-8.29173
ab	-8.29688
▁American	-8.29741
▁v	-8.30171
▁land	-8.30679
ell	-8.30898
▁Le	-8.3124
sion	-8.31573
nE	-8.31994
ward	-8.32055
▁house	-8.32275
der	-8.3228
▁run	-8.32291
▁4	-8.32485
ful	-8.32503
▁ch	-8.32667
▁La	-8.32687
nB	-8.32919
▁hard	-8.32949
▁using	-8.32969
▁Co	-8.33022
gu	-8.33041
▁few	-8.33296
▁sh	-8.33362
▁going	-8.33399
▁does	-8.33614
▁students	-8.33659
▁space	-8.33737
ub	-8.34135
ca	-8.34157
▁outside	-8.34226
mon	-8.34388
nC	-8.34448
▁power	-8.3453
▁sad	-8.34568
ip	-8.34678
▁keep	-8.34949
ten	-8.35122
▁school	-8.35551
tion	-8.35574
▁Ro	-8.3571
▁data	-8.35719
▁–	-8.36078
▁dog	-8.36445
▁Ba	-8.36459
bo	-8.36696
▁another	-8.37023
▁Tim	-8.37185
▁friend	-8.37317
▁J	-8.37649
▁Li	-8.37862
▁light	-8.38001
▁playing	-8.38213
▁against	-8.3836
▁disease	-8.38387
▁control	-8.38415
▁able	-8.38472
▁Do	-8.38512
our	-8.38802
▁Me	-8.38805
▁decided	-8.38812
▁University	-8.38877
▁air	-8.39352
em	-8.39355
mp	-8.39764
ni	-8.40212
go	-8.40323
▁might	-8.40369
▁Mo	-8.40475
▁name	-8.40516
▁risk	-8.40775
▁idea	-8.40775
ction	-8.41017
▁Con	-8.41183
ag	-8.41492
red	-8.4156
▁report	-8.41955
▁country	-8.42154
▁If	-8.42165
nThey	-8.4244
les	-8.42541
▁must	-8.42633
▁large	-8.42717
tor	-8.4295
mi	-8.43115
ga	-8.43144
▁didn	-8.43202
ct	-8.43204
▁since	-8.43351
▁Mi	-8.43595
▁po	-8.43642
0	-8.43673
▁group	-8.43811
less	-8.43835
▁second	-8.43843
one	-8.43935
▁hand	-8.43945
▁become	-8.44076
way	-8.44184
▁four	-8.44216
▁An	-8.44348
▁tree	-8.44351
▁start	-8.44552
|	-8.44702
nF	-8.44829
▁Be	-8.45015
▁f	-8.45415
act	-8.45475
▁change	-8.4566
▁open	-8.45768
da	-8.45894
▁here	-8.45899
os	-8.45993
▁UK	-8.46399
ba	-8.4708
▁project	-8.47098
if	-8.4716
▁team	-8.47201
▁Su	-8.47395
▁area	-8.47589
▁bo	-8.47769
ther	-8.48069
▁process	-8.48293
||	-8.48393
nP	-8.48484
20	-8.48593
▁child	-8.48621
di	-8.48702
▁Bo	-8.48768
▁w	-8.49058
▁million	-8.49329
▁often	-8.49347
\".\	-8.4956
▁cause	-8.4957
ring	-8.49924
▁excited	-8.49979
nThis	-8.50447
▁Po	-8.50523
▁Ha	-8.50919
▁ground	-8.51364
▁feel	-8.51412
▁site	-8.51524
ak	-8.5156
line	-8.51639
do	-8.51839
ang	-8.52212
▁sun	-8.52364
no	-8.52598
▁example	-8.5268
▁se	-8.52711
▁body	-8.52767
▁kind	-8.52834
▁As	-8.52883
▁m	-8.53365
▁less	-8.53551
ding	-8.53633
ex	-8.53656
▁mo	-8.53718
ology	-8.5394
igh	-8.54079
▁Ra	-8.54096
▁women	-8.54097
▁safe	-8.5421
▁lot	-8.54297
▁gr	-8.54638
▁without	-8.54657
tra	-8.54815
▁game	-8.55008
▁en	-8.55305
ative	-8.55993
▁sp	-8.56014
tro	-8.56019
vo	-8.56122
▁Al	-8.56427
▁known	-8.56585
▁present	-8.56746
▁5	-8.56839
▁face	-8.56877
▁When	-8.57036
▁inside	-8.57161
ition	-8.57323
mit	-8.57371
▁ball	-8.57541
▁Sam	-8.57555
▁Ca	-8.57658
led	-8.57748
ph	-8.5775
▁cost	-8.57883
▁far	-8.58092
(	-8.5823
▁local	-8.58424
▁close	-8.58435
ever	-8.58876
▁liked	-8.5902
rs	-8.59025
▁flight	-8.59092
▁Dr	-8.5928
ual	-8.59484
▁side	-8.59769
▁care	-8.59803
▁sub	-8.59834
▁left	-8.59926
ev	-8.60164
▁BBC	-8.6027
tain	-8.60271
▁National	-8.60279
▁remain	-8.60339
▁early	-8.60399
,”	-8.6054
▁line	-8.60545
▁development	-8.60671
▁energy	-8.60866
▁young	-8.61013
6	-8.61131
ep	-8.6126
▁United	-8.61341
▁really	-8.61342
K	-8.61419
▁percent	-8.61443
▁real	-8.61626
nLily	-8.6195
ome	-8.62015
ized	-8.62015
▁view	-8.62272
▁cat	-8.62484
ile	-8.62579
▁fire	-8.62729
▁full	-8.62737
▁include	-8.62797
▁war	-8.63286
▁result	-8.63287
▁scared	-8.63391
ron	-8.63505
▁Se	-8.63568
▁cl	-8.6365
▁free	-8.63651
ise	-8.6391
▁From	-8.63955
▁love	-8.64036
▁order	-8.64068
▁ba	-8.64147
â	-8.64161
▁strong	-8.64276
▁call	-8.64353
▁experience	-8.64362
ach	-8.64422
cent	-8.64528
▁room	-8.64553
▁book	-8.64595
▁la	-8.64944
▁knew	-8.65027
▁blood	-8.65037
▁record	-8.65169
▁fish	-8.65526
▁read	-8.65732
▁common	-8.65801
“	-8.65966
▁near	-8.66033
▁making	-8.66075
che	-8.66177
▁gave	-8.66593
out	-8.66702
—	-8.66761
▁aircraft	-8.66807
▁6	-8.6691
...	-8.66969
▁across	-8.67141
▁week	-8.67335
ue	-8.67456
qui	-8.67482
▁later	-8.67624
ud	-8.67634
▁allow	-8.67922
▁past	-8.67941
wa	-8.6796
▁trans	-8.68151
9	-8.68221
▁attack	-8.68229
▁7	-8.68569
ham	-8.68578
▁His	-8.68659
Y	-8.68713
▁law	-8.68768
nM	-8.68876
▁provide	-8.68966
ny	-8.68997
nMr	-8.69032
tle	-8.69051
▁heard	-8.69169
mer	-8.6929
king	-8.69823
▁Sa	-8.69867
▁low	-8.7011
▁age	-8.70173
by	-8.70595
8	-8.71092
▁Air	-8.71592
▁person	-8.71628
cing	-8.71702
▁Pro	-8.71794
▁animals	-8.71944
▁box	-8.72159
▁eat	-8.72433
ities	-8.72456
ped	-8.72462
▁within	-8.72754
▁learn	-8.72809
▁seen	-8.72933
▁tra	-8.72969
▁ho	-8.73059
ay	-8.73061
ack	-8.7314
▁let	-8.73302
▁case	-8.73412
side	-8.73476
▁problem	-8.7349
▁tried	-8.73563
▁why	-8.73694
▁several	-8.73728
!\	-8.73771
nT	-8.73793
▁There	-8.73801
ake	-8.73911
▁live	-8.73995
).\	-8.74008
ors	-8.74036
oc	-8.74188
▁turn	-8.74189
▁added	-8.74195
▁treatment	-8.74246
▁cr	-8.74272
▁having	-8.74466
▁move	-8.74565
▁available	-8.74618
nG	-8.7464
ier	-8.74705
▁bi	-8.74868
▁short	-8.74898
▁stay	-8.74916
od	-8.74989
▁men	-8.75003
▁heart	-8.75024
▁try	-8.75099
ide	-8.75306
▁lo	-8.75361
|\	-8.75415
▁design	-8.75461
▁share	-8.75476
▁increase	-8.75476
▁sign	-8.75616
▁program	-8.75687
▁toys	-8.75786
▁John	-8.75835
5	-8.75838
lin	-8.76031
▁class	-8.76066
▁cancer	-8.76094
▁red	-8.76205
▁region	-8.76227
▁history	-8.76248
▁mommy	-8.76384
lic	-8.76393
ug	-8.76532
▁course	-8.76582
▁played	-8.76585
▁five	-8.76632
pro	-8.7665
▁hope	-8.76653
▁sure	-8.76728
▁—	-8.76732
▁enough	-8.76824
▁death	-8.76891
▁became	-8.76941
iv	-8.76963
▁post	-8.77049
▁Na	-8.77193
ory	-8.77233
▁ever	-8.77247
▁possible	-8.77663
ium	-8.77699
row	-8.77731
ions	-8.77834
▁li	-8.78063
time	-8.78113
▁visit	-8.78131
▁contain	-8.78135
▁following	-8.78141
7	-8.78155
No	-8.78452
▁future	-8.78518
▁rate	-8.78556
fa	-8.78647
▁building	-8.78671
tin	-8.7871
▁tell	-8.78719
▁star	-8.78764
for	-8.78837
pi	-8.78971
ship	-8.7902
J	-8.79037
nWhen	-8.79151
▁done	-8.7916
▁&	-8.79379
▁sc	-8.79406
▁along	-8.79503
▁Max	-8.79513
nI	-8.79573
▁15	-8.79582
▁'	-8.79684
que	-8.79713
ving	-8.79994
▁field	-8.80057
po	-8.80075
nJ	-8.80156
▁top	-8.80166
▁pay	-8.8037
▁[	-8.80438
fi	-8.80649
tail	-8.80911
ator	-8.80953
gen	-8.81123
▁12	-8.81452
▁South	-8.8154
ments	-8.81575
▁inter	-8.81699
▁lead	-8.81762
end	-8.81847
▁fl	-8.81931
▁Z	-8.82077
▁V	-8.82244
ger	-8.823
ries	-8.82331
▁fact	-8.82376
▁working	-8.82379
bi	-8.8258
▁paper	-8.82658
gi	-8.82667
ze	-8.82791
▁fa	-8.82933
▁already	-8.82939
▁o	-8.83084
▁given	-8.83086
▁believe	-8.83098
▁All	-8.83162
▁source	-8.83179
▁plant	-8.83226
▁ta	-8.83298
ture	-8.83366
ize	-8.83482
▁cut	-8.83517
nSo	-8.8364
▁bad	-8.83732
ants	-8.83829
▁today	-8.83863
▁dad	-8.84005
▁night	-8.84015
▁World	-8.84103
▁areas	-8.84204
year	-8.84394
▁Ar	-8.84443
▁vi	-8.84473
▁money	-8.84645
all	-8.84728
nN	-8.84756
▁Te	-8.84824
▁prevent	-8.84907
▁main	-8.84943
bu	-8.85055
▁Ho	-8.85119
▁bear	-8.8514
rea	-8.85202
▁protect	-8.85249
ler	-8.85421
▁soon	-8.85439
▁job	-8.85652
▁market	-8.85683
ound	-8.85755
▁picture	-8.85876
▁looking	-8.85965
▁States	-8.86043
▁species	-8.86169
▁fall	-8.86217
▁story	-8.86251
▁police	-8.86264
▁Lo	-8.86294
port	-8.86328
ner	-8.8641
cc	-8.86477
▁problems	-8.86506
▁among	-8.8658
▁clean	-8.86608
nL	-8.86796
lar	-8.86801
▁proud	-8.86811
▁population	-8.86884
]	-8.86907
▁30	-8.87022
ability	-8.87105
▁hold	-8.87188
fe	-8.87294
▁garden	-8.87335
ick	-8.87344
▁level	-8.87664
▁Y	-8.8787
au	-8.88189
▁Di	-8.88189
▁key	-8.88234
▁wait	-8.88286
10	-8.88301
lu	-8.88301
▁began	-8.88402
▁current	-8.88415
▁$	-8.88451
ew	-8.88622
ov	-8.88641
▁imp	-8.88719
▁countries	-8.88876
ef	-8.88948
▁su	-8.89076
ah	-8.89156
▁talk	-8.89204
▁Mar	-8.89317
▁individual	-8.89357
▁Her	-8.89369
▁means	-8.89425
rt	-8.89522
▁That	-8.89551
▁likely	-8.89596
tri	-8.89624
▁require	-8.89654
art	-8.8974
rit	-8.89808
und	-8.89825
▁pass	-8.89857
▁gas	-8.89886
ki	-8.90003
▁least	-8.90021
▁page	-8.90135
▁sound	-8.90181
▁War	-8.90191
▁taken	-8.90204
▁le	-8.90352
▁technology	-8.90437
of	-8.90551
▁North	-8.90669
int	-8.90776
▁company	-8.91001
▁Earth	-8.91013
▁sea	-8.91158
ult	-8.91312
.”\	-8.9136
▁model	-8.91369
tu	-8.91394
▁city	-8.91432
▁17	-8.91472
▁needed	-8.91571
▁add	-8.91761
▁months	-8.9189
ray	-8.91934
▁access	-8.91965
▁clear	-8.92032
gg	-8.92046
▁No	-8.9207
▁Jack	-8.92076
▁period	-8.92174
▁Ne	-8.92226
▁offer	-8.92427
▁major	-8.92519
tal	-8.9266
▁social	-8.92666
▁doctor	-8.92758
▁learned	-8.92841
du	-8.93039
▁These	-8.9306
▁met	-8.93078
cu	-8.93251
ft	-8.93342
▁whether	-8.93368
ible	-8.93436
▁six	-8.93447
▁mean	-8.93784
han	-8.938
This	-8.93844
You	-8.93907
▁dr	-8.93964
▁May	-8.94083
▁stop	-8.94203
▁am	-8.94375
▁interest	-8.94413
▁grow	-8.94496
▁ha	-8.94582
▁8	-8.94583
▁qua	-8.94635
▁bit	-8.94762
▁ask	-8.94783
▁Ta	-8.94986
▁nice	-8.95028
▁based	-8.95054
▁community	-8.95144
▁sorry	-8.9518
▁service	-8.95243
▁due	-8.95315
▁researchers	-8.95339
▁rest	-8.95396
▁reason	-8.95558
▁parents	-8.95755
io	-8.95887
▁measure	-8.95901
▁fast	-8.96081
lan	-8.96093
▁leader	-8.9625
19	-8.96325
50	-8.9648
That	-8.96492
▁natural	-8.9652
▁ca	-8.96601
▁continue	-8.96606
▁issue	-8.96716
nAs	-8.96725
nFor	-8.96774
▁understand	-8.96812
▁days	-8.96933
nW	-8.96953
my	-8.97113
▁link	-8.97128
▁Some	-8.97159
▁warm	-8.97212
▁thing	-8.97216
▁impact	-8.97249
▁create	-8.97343
▁higher	-8.97361
ath	-8.97499
▁rule	-8.9751
men	-8.97569
▁non	-8.97687
▁9	-8.97769
▁act	-8.98034
nRe	-8.98065
mm	-8.98153
▁difficult	-8.98219
▁further	-8.9826
▁couldn	-8.98284
light	-8.98324
▁value	-8.98426
ave	-8.9857
▁bring	-8.98664
▁British	-8.98821
▁claim	-8.98923
dic	-8.98954
▁consider	-8.98956
▁What	-8.98968
nShe	-8.98975
▁sky	-8.98995
▁amount	-8.99125
▁Space	-8.99241
tter	-8.99298
▁Ka	-8.9932
▁London	-8.99392
▁plan	-8.99492
▁Car	-8.99517
ping	-8.99575
▁j	-8.9959
▁k	-8.99593
▁color	-8.99662
▁store	-8.99679
▁list	-8.99881
▁decision	-9.00015
▁taking	-9.00111
▁Ga	-9.00167
rr	-9.00287
▁object	-9.00311
▁type	-9.004
cor	-9.00401
▁potential	-9.00478
▁held	-9.00625
▁rock	-9.00626
ear	-9.00808
▁16	-9.00826
▁computer	-9.0085
sa	-9.0097
▁deal	-9.00988
▁|	-9.01022
istic	-9.01056
ace	-9.01118
▁mission	-9.01152
▁cells	-9.01194
▁anti	-9.01197
▁Je	-9.01208
▁watch	-9.013
uc	-9.01463
ey	-9.0147
▁national	-9.01506
▁function	-9.01577
▁engine	-9.0164
▁Vi	-9.0168
▁explore	-9.01816
ley	-9.01818
▁operation	-9.01887
▁white	-9.01888
▁Pe	-9.01917
air	-9.02008
▁hi	-9.02094
▁hours	-9.02251
Q	-9.02254
bb	-9.02367
▁role	-9.02539
av	-9.02628
▁action	-9.0267
▁according	-9.02673
▁suggest	-9.02699
▁science	-9.0274
day	-9.02751
▁listen	-9.02998
▁surface	-9.03005
▁happen	-9.03106
▁half	-9.03112
aw	-9.03249
form	-9.03285
dge	-9.03292
ious	-9.03366
▁develop	-9.03587
▁won	-9.03599
ose	-9.03665
pen	-9.03689
▁significant	-9.03743
▁Mom	-9.0377
▁section	-9.03895
▁produce	-9.04099
▁draw	-9.04145
▁black	-9.04165
▁step	-9.04269
pt	-9.04646
▁levels	-9.04834
▁range	-9.0489
▁Health	-9.04923
▁travel	-9.04961
▁On	-9.05126
▁Anna	-9.05316
▁11	-9.05367
low	-9.05573
▁Pla	-9.05677
▁focus	-9.057
ice	-9.0574
▁du	-9.05767
ea	-9.05787
ral	-9.05794
▁question	-9.05819
▁Cl	-9.05863
▁arm	-9.0589
▁hear	-9.05904
bra	-9.05926
▁behind	-9.06058
▁organ	-9.06193
▁Ad	-9.06264
pp	-9.06277
fu	-9.06314
▁business	-9.06387
▁quickly	-9.06415
▁beautiful	-9.0665
ration	-9.06768
▁At	-9.06903
oo	-9.07231
ists	-9.07346
▁music	-9.07488
200	-9.07509
▁standard	-9.0756
▁lived	-9.0758
▁ago	-9.07636
ka	-9.07652
▁services	-9.07763
▁wind	-9.07877
▁break	-9.07885
▁forest	-9.07902
▁brain	-9.0808
▁tri	-9.08098
▁results	-9.08104
▁art	-9.08174
▁lost	-9.08228
▁leg	-9.08355
▁fi	-9.08408
▁others	-9.08421
▁education	-9.08452
▁cover	-9.08523
▁pe	-9.08575
▁living	-9.08658
▁improve	-9.08729
ient	-9.08734
▁2012	-9.08781
br	-9.08818
▁America	-9.08872
▁Ph	-9.08957
▁getting	-9.08975
▁kept	-9.08996
▁block	-9.09015
▁reach	-9.09074
▁Ke	-9.09187
▁England	-9.09191
▁political	-9.09523
iti	-9.09536
30	-9.0965
nAn	-9.09662
struct	-9.09674
▁month	-9.09694
use	-9.10025
▁though	-9.10087
▁oil	-9.10397
▁economic	-9.10403
▁feeling	-9.10448
▁gl	-9.10496
▁hugged	-9.10502
▁answer	-9.10594
har	-9.10615
par	-9.10782
▁specific	-9.10847
▁door	-9.10864
▁fly	-9.10871
▁recent	-9.109
▁systems	-9.11101
▁similar	-9.1129
▁Fa	-9.11298
▁language	-9.11313
▁environment	-9.11363
▁showed	-9.11461
ps	-9.11493
▁doing	-9.1154
▁Fi	-9.11593
her	-9.11616
▁method	-9.1173
▁piece	-9.11753
▁everyone	-9.11764
_	-9.11853
▁almost	-9.11865
nR	-9.12009
▁Si	-9.12053
▁global	-9.12256
▁evidence	-9.12357
▁above	-9.12422
▁noise	-9.12434
tch	-9.12515
▁words	-9.12566
▁fe	-9.12577
▁effective	-9.12663
What	-9.12725
nThere	-9.12731
ctor	-9.12731
serv	-9.12939
▁return	-9.12991
like	-9.12992
▁conditions	-9.13078
rate	-9.13312
▁pressure	-9.13396
▁Mu	-9.13471
Yes	-9.13558
▁appear	-9.13837
▁members	-9.14047
fin	-9.14108
▁Center	-9.14258
▁character	-9.14278
▁military	-9.14476
▁search	-9.14524
▁careful	-9.1461
▁deep	-9.1464
▁occur	-9.14745
▁size	-9.14802
▁industry	-9.14874
▁kids	-9.14901
▁However	-9.14935
▁app	-9.1502
▁practice	-9.15129
▁Ja	-9.1514
▁approach	-9.15273
▁York	-9.15353
▁build	-9.15355
▁court	-9.15378
▁European	-9.15481
▁town	-9.15655
▁doll	-9.15667
▁--	-9.15693
▁hands	-9.15695
▁general	-9.16031
▁lots	-9.16042
nAnd	-9.16055
ong	-9.16114
▁patients	-9.16159
▁hit	-9.16162
str	-9.1622
▁reported	-9.16252
ency	-9.16369
▁scientists	-9.16613
▁count	-9.16621
▁damage	-9.16716
▁international	-9.16755
val	-9.16823
▁once	-9.16887
▁100	-9.16934
nIf	-9.16968
▁vote	-9.16974
▁enter	-9.17092
▁coming	-9.17188
eg	-9.17299
▁published	-9.17311
▁follow	-9.17338
▁changes	-9.17444
unt	-9.1763
▁former	-9.17851
▁opened	-9.18093
▁figure	-9.18236
ore	-9.18342
ope	-9.18352
X	-9.18373
▁fo	-9.18408
▁climate	-9.18491
▁lower	-9.18604
og	-9.18624
med	-9.18677
cl	-9.18807
▁single	-9.18814
▁whole	-9.18896
▁usually	-9.18905
▁mother	-9.19006
▁loud	-9.19051
▁times	-9.19163
▁14	-9.1919
▁blue	-9.19213
nTo	-9.1936
ink	-9.19415
▁nation	-9.19559
▁reduce	-9.19569
▁hurt	-9.19663
sign	-9.19686
part	-9.19715
▁matter	-9.19781
▁author	-9.1988
ker	-9.19887
▁President	-9.20009
▁longer	-9.20061
▁late	-9.20099
▁content	-9.20216
▁article	-9.20292
▁price	-9.20364
right	-9.20394
▁2013	-9.2059
▁charge	-9.20601
▁fell	-9.20645
ject	-9.20655
▁temperature	-9.20704
ised	-9.20767
vision	-9.20794
pir	-9.20886
▁Bu	-9.20992
▁hot	-9.21027
▁medical	-9.21064
hu	-9.21105
▁X	-9.21138
ified	-9.21173
▁tu	-9.21177
▁green	-9.21185
over	-9.21194
▁pretty	-9.21221
▁normal	-9.21382
cy	-9.21397
▁al	-9.21462
▁deliver	-9.21536
▁especially	-9.2162
ja	-9.21661
▁West	-9.21708
▁treat	-9.21761
▁eyes	-9.2183
▁buy	-9.2185
▁account	-9.22074
▁touch	-9.22119
gra	-9.22172
▁Science	-9.22279
▁smile	-9.2232
>	-9.22339
▁goal	-9.22499
▁target	-9.22519
▁em	-9.22581
mic	-9.22602
Thank	-9.22625
▁China	-9.22677
lf	-9.22752
ff	-9.23189
▁yet	-9.23198
ec	-9.23343
▁Every	-9.23371
vent	-9.23417
mal	-9.23422
▁president	-9.2361
18	-9.23786
▁trying	-9.2398
nWhat	-9.23984
▁mark	-9.24202
▁rain	-9.24242
▁concern	-9.24265
▁feature	-9.24331
▁check	-9.24421
▁ice	-9.24446
▁Research	-9.24462
nO	-9.2447
▁term	-9.2448
▁tax	-9.24582
▁pain	-9.24589
▁cases	-9.24594
▁needs	-9.24852
gar	-9.24931
▁party	-9.24978
▁mu	-9.25198
▁thanked	-9.25266
fer	-9.25364
▁growth	-9.25592
▁stand	-9.2573
▁paint	-9.25753
▁Mia	-9.25842
▁fuel	-9.2587
▁film	-9.25887
▁wi	-9.25951
▁total	-9.25964
▁Wi	-9.25965
▁cook	-9.26014
▁After	-9.2603
mar	-9.26159
▁groups	-9.26208
▁walk	-9.26266
▁plants	-9.26337
▁rather	-9.2634
put	-9.264
12	-9.26414
▁launch	-9.26638
TM	-9.26658
rry	-9.2667
▁50	-9.26674
ib	-9.26765
▁road	-9.26864
▁original	-9.2689
ect	-9.27041
ash	-9.27077
▁mis	-9.27077
▁someone	-9.27109
▁serious	-9.27112
ble	-9.27116
▁drink	-9.27136
▁video	-9.27239
▁March	-9.27251
▁Or	-9.27261
ob	-9.27267
▁ten	-9.27292
▁media	-9.2732
▁developed	-9.2737
ek	-9.27376
nAfter	-9.27401
▁fight	-9.27403
ai	-9.27443
uch	-9.27511
▁Du	-9.27514
▁train	-9.27577
▁represent	-9.27598
▁sleep	-9.27608
▁website	-9.27618
▁super	-9.27643
▁win	-9.27651
▁makes	-9.27658
▁cell	-9.27722
▁flew	-9.27784
van	-9.2783
▁Har	-9.27894
▁Can	-9.27919
▁position	-9.28031
▁however	-9.28101
▁Pre	-9.2825
▁13	-9.28287
▁learning	-9.28358
▁structure	-9.2839
▁application	-9.28444
wi	-9.28518
▁perform	-9.2852
▁gene	-9.28527
▁sw	-9.28603
▁Hu	-9.28637
pri	-9.28697
▁challenge	-9.287
▁Man	-9.28704
▁collect	-9.28743
log	-9.28912
ify	-9.29001
▁address	-9.29014
▁sold	-9.29085
▁questions	-9.29153
▁cannot	-9.2922
mate	-9.29247
den	-9.29261
▁Gu	-9.29309
amp	-9.29377
▁San	-9.29394
▁laughed	-9.29492
▁Jo	-9.29583
let	-9.29584
nOn	-9.29585
▁East	-9.29766
▁NASA	-9.29767
▁minutes	-9.29785
ization	-9.29789
▁production	-9.29879
▁wide	-9.29901
▁training	-9.29994
ney	-9.30088
▁Europe	-9.3009
▁extra	-9.3012
where	-9.30164
cal	-9.30189
j	-9.30206
ware	-9.30214
▁himself	-9.30258
▁2011	-9.30342
ST	-9.30374
▁comes	-9.30388
▁brave	-9.30393
▁carry	-9.3047
▁below	-9.305
▁State	-9.30553
▁cap	-9.3066
▁Mon	-9.30708
ina	-9.30836
▁affect	-9.30992
▁pilot	-9.31079
▁adult	-9.31093
▁running	-9.31179
▁loss	-9.31201
▁depend	-9.31252
▁else	-9.31293
In	-9.31368
▁worked	-9.31418
▁died	-9.31429
▁material	-9.31451
▁built	-9.31492
▁director	-9.31501
▁actually	-9.31507
▁bright	-9.3151
▁moment	-9.31551
▁table	-9.31567
kin	-9.31571
▁happened	-9.31593
▁involved	-9.3165
▁hospital	-9.31708
▁studies	-9.31991
ological	-9.32053
▁century	-9.32105
nAt	-9.32126
ging	-9.32183
▁led	-9.3231
▁either	-9.32323
▁threat	-9.32357
▁certain	-9.32378
▁im	-9.32404
▁With	-9.32483
▁anything	-9.32489
▁expected	-9.32569
▁race	-9.32655
▁cold	-9.3274
lip	-9.32763
▁recommend	-9.32855
▁helped	-9.32993
▁effect	-9.33097
▁device	-9.33113
▁June	-9.33265
▁sometimes	-9.33273
▁cool	-9.3328
▁plane	-9.33303
cle	-9.33316
▁brought	-9.33468
▁ear	-9.33476
based	-9.33509
▁lives	-9.33518
▁document	-9.33554
▁wood	-9.33605
▁online	-9.33738
▁voice	-9.33756
▁stage	-9.33762
ged	-9.33774
▁network	-9.33827
▁poor	-9.33844
▁security	-9.3389
▁leave	-9.33977
▁English	-9.33987
are	-9.34032
▁physical	-9.34112
▁Sp	-9.34129
ved	-9.34252
▁dark	-9.34293
▁Ch	-9.34466
▁created	-9.34495
lor	-9.34539
▁Bar	-9.3455
ple	-9.34577
▁sy	-9.34616
▁Per	-9.34653
vel	-9.34686
▁begin	-9.34795
▁safety	-9.34831
œ	-9.34888
ER	-9.34914
phy	-9.34972
▁front	-9.35049
▁themselves	-9.35297
▁para	-9.35317
▁word	-9.3538
▁bank	-9.35666
▁chance	-9.35685
shire	-9.35721
dia	-9.35753
▁News	-9.35758
ute	-9.35773
▁contact	-9.35808
▁bar	-9.35853
▁ob	-9.35861
▁difference	-9.35871
▁final	-9.35924
ock	-9.35981
▁cur	-9.35996
▁dec	-9.36001
*	-9.36003
▁School	-9.36023
▁third	-9.36053
▁climb	-9.36063
▁weight	-9.36145
▁push	-9.36172
▁activity	-9.36257
car	-9.36346
▁fair	-9.36357
▁2010	-9.36496
▁Cha	-9.36507
▁wa	-9.36557
▁unit	-9.36567
▁July	-9.36583
▁series	-9.36651
▁walking	-9.36667
▁image	-9.36674
▁pick	-9.36712
▁April	-9.36724
▁rights	-9.36729
SA	-9.36741
▁expert	-9.36804
▁please	-9.36922
▁resources	-9.37008
▁hug	-9.37036
▁25	-9.37048
Let	-9.37069
▁walked	-9.37093
11	-9.37141
lk	-9.37286
gue	-9.37291
work	-9.37318
▁minister	-9.37341
fo	-9.37342
▁40	-9.3736
▁products	-9.37403
▁average	-9.37514
▁fat	-9.37566
▁Africa	-9.376
▁International	-9.3763
▁response	-9.3772
▁angry	-9.37833
▁pl	-9.37838
▁caused	-9.37865
▁season	-9.37901
▁miles	-9.37922
▁shape	-9.38208
▁subject	-9.38264
▁wall	-9.38274
▁skin	-9.38288
▁campaign	-9.38333
▁sa	-9.38435
▁successful	-9.38437
Why	-9.38508
▁event	-9.38709
▁Department	-9.38726
▁pen	-9.38748
ugh	-9.38757
aging	-9.38771
▁micro	-9.38779
▁El	-9.38812
▁satellite	-9.38888
▁stopped	-9.39008
▁suffer	-9.3901
▁issues	-9.39085
▁Bi	-9.39093
▁save	-9.39155
▁designed	-9.39196
▁user	-9.39196
▁file	-9.39222
▁review	-9.39279
▁followed	-9.39341
ches	-9.39352
▁spread	-9.39417
▁trees	-9.3947
▁comment	-9.39482
round	-9.39545
▁effects	-9.39552
▁station	-9.39597
▁personal	-9.39616
▁ready	-9.39619
▁Cor	-9.39751
▁planet	-9.39819
▁wrong	-9.39906
▁letter	-9.40021
▁symptoms	-9.4005
▁India	-9.40186
ric	-9.40274
nMa	-9.40282
▁feed	-9.40337
▁Australia	-9.40414
▁birds	-9.40415
▁simple	-9.40491
▁shows	-9.40514
▁Institute	-9.40543
www	-9.40639
▁infection	-9.407
▁increased	-9.40734
▁reached	-9.40743
▁various	-9.40759
hy	-9.40866
▁feet	-9.40872
▁lesson	-9.40876
▁God	-9.41018
▁Service	-9.41028
▁Ex	-9.41058
ress	-9.41159
▁success	-9.41221
▁Pri	-9.41246
▁boat	-9.41411
▁activities	-9.41411
▁animal	-9.41416
▁killed	-9.41453
▁entire	-9.41474
▁baby	-9.41542
▁statement	-9.41546
▁fr	-9.4161
▁stick	-9.41631
cul	-9.41689
▁schools	-9.41697
▁mind	-9.4186
▁quality	-9.41911
▁‘	-9.4206
▁attempt	-9.42133
▁Un	-9.42172
fect	-9.42214
▁speed	-9.42231
▁election	-9.42237
▁itself	-9.42247
▁books	-9.4226
zz	-9.42278
▁farm	-9.42343
▁rise	-9.42345
▁addition	-9.42349
▁achieve	-9.42445
▁Col	-9.42458
mor	-9.42528
▁situation	-9.42529
verse	-9.4253
▁Ri	-9.42744
pos	-9.42855
▁ju	-9.42898
▁flu	-9.42934
pla	-9.42955
▁phone	-9.42995
nTom	-9.43044
vis	-9.4305
nthe	-9.43106
–	-9.43143
▁healthy	-9.43206
▁force	-9.43258
bal	-9.43274
mark	-9.43281
▁meet	-9.43299
▁demand	-9.43357
ification	-9.43394
ook	-9.43417
ologist	-9.43463
▁programme	-9.43492
ane	-9.43514
ically	-9.43623
▁â	-9.43668
+	-9.4367
▁self	-9.43679
▁select	-9.43725
Co	-9.43927
▁plans	-9.43995
chi	-9.44073
▁companies	-9.44075
▁member	-9.44078
▁How	-9.44083
▁Tra	-9.44169
▁base	-9.44176
▁ship	-9.44178
▁river	-9.44215
▁vehicle	-9.4432
▁fix	-9.44322
▁popular	-9.44324
za	-9.44345
16	-9.444
▁Sha	-9.44422
▁student	-9.44516
▁decade	-9.4453
org	-9.44538
▁path	-9.44548
▁speak	-9.44663
▁0	-9.44752
▁brother	-9.44792
AR	-9.44919
tes	-9.44961
term	-9.4499
▁chemical	-9.45007
▁fruit	-9.45072
▁modern	-9.45075
▁environmental	-9.4512
▁cross	-9.45206
▁Va	-9.45227
bit	-9.45228
▁drive	-9.45234
▁condition	-9.4525
AT	-9.45255
mat	-9.45268
▁staff	-9.45335
cro	-9.45393
▁north	-9.45404
▁picked	-9.45421
▁heat	-9.45487
ari	-9.4552
gent	-9.45537
▁provided	-9.45551
▁wear	-9.45567
▁Ju	-9.45568
lock	-9.45606
▁accept	-9.4583
▁avoid	-9.45842
▁text	-9.45907
cer	-9.45932
▁continued	-9.45949
ou	-9.46008
▁dead	-9.46087
▁Gra	-9.46164
▁Che	-9.46169
▁Ni	-9.46221
▁Qu	-9.46235
▁explain	-9.46257
60	-9.46259
nWe	-9.46428
▁mix	-9.46461
▁January	-9.46482
oth	-9.4663
off	-9.46774
▁kill	-9.46812
▁Lu	-9.46922
▁Go	-9.46957
▁everything	-9.47
▁huge	-9.47042
▁flow	-9.47068
dent	-9.47158
ya	-9.47174
▁increasing	-9.47217
▁towards	-9.47308
▁saying	-9.47398
▁match	-9.47521
▁woman	-9.47604
17	-9.47668
rough	-9.47687
ators	-9.47731
▁weeks	-9.47793
pre	-9.47806
ana	-9.47945
▁policy	-9.47957
▁pet	-9.47993
▁seven	-9.48
▁sat	-9.4805
▁da	-9.48097
nK	-9.48121
Look	-9.48149
gan	-9.48308
▁firm	-9.4837
▁private	-9.48468
▁south	-9.48489
▁sent	-9.48516
▁growing	-9.48611
▁soil	-9.48625
▁window	-9.48646
▁meeting	-9.48671
://	-9.48682
▁flowers	-9.48687
▁hole	-9.48709
▁owner	-9.48715
▁David	-9.48726
▁earlier	-9.48804
There	-9.48834
▁hair	-9.48891
▁September	-9.48983
▁slide	-9.49028
▁track	-9.49088
▁particular	-9.49261
▁Sara	-9.49334
▁office	-9.49397
▁cry	-9.49469
ulation	-9.49474
He	-9.49606
reg	-9.49636
▁Ki	-9.49646
▁eye	-9.49675
▁map	-9.49719
cur	-9.49942
▁bus	-9.49977
ky	-9.50095
▁write	-9.50345
▁truck	-9.5037
▁flying	-9.50371
▁closer	-9.50383
▁serve	-9.50445
▁probably	-9.50472
▁Ru	-9.50487
▁i	-9.50488
▁provides	-9.50496
▁expect	-9.50507
.5	-9.50507
▁date	-9.50664
▁grass	-9.50687
▁Act	-9.50689
▁fear	-9.50694
qua	-9.50802
▁October	-9.50848
▁trade	-9.5095
ama	-9.50996
▁machine	-9.51009
▁morning	-9.51123
udi	-9.51233
hor	-9.51238
▁sing	-9.51276
▁solution	-9.51301
-1	-9.51355
▁basic	-9.51428
▁cha	-9.51441
▁2009	-9.51471
▁degree	-9.51478
▁carbon	-9.51481
▁movement	-9.51496
▁ensure	-9.51517
▁24	-9.51585
▁August	-9.5172
▁Indian	-9.5172
▁currently	-9.518
▁exist	-9.51861
▁performance	-9.51902
▁Ge	-9.5196
▁forward	-9.5201
▁na	-9.5201
arch	-9.52095
▁snow	-9.52116
ular	-9.52239
▁required	-9.5224
▁received	-9.52245
avi	-9.52371
uck	-9.52371
▁fit	-9.52398
▁weather	-9.52426
▁turned	-9.52463
▁eight	-9.52501
▁Wales	-9.52604
▁complete	-9.52696
ident	-9.52718
▁ver	-9.52998
▁By	-9.53038
▁types	-9.5314
▁summer	-9.53181
▁experiment	-9.53263
▁easy	-9.53276
ably	-9.53279
ox	-9.53337
▁21	-9.53489
ole	-9.53521
ural	-9.53576
ju	-9.53581
▁related	-9.53612
cip	-9.53637
▁adventure	-9.53638
cycle	-9.53654
graph	-9.53655
▁detect	-9.53681
top	-9.5385
500	-9.53916
▁respect	-9.53992
vol	-9.5413
▁doesn	-9.54191
cho	-9.54224
▁shiny	-9.54228
▁officer	-9.54298
nSt	-9.54302
▁complex	-9.54363
▁management	-9.54431
▁reading	-9.54433
▁product	-9.54476
▁Bob	-9.54521
▁December	-9.54546
▁ability	-9.5458
tric	-9.54588
.”	-9.54723
board	-9.54835
▁receive	-9.54899
▁Park	-9.54956
▁board	-9.54972
meter	-9.54999
40	-9.5504
nYou	-9.55077
▁instead	-9.55085
▁maintain	-9.55094
▁November	-9.55104
▁African	-9.55117
nCh	-9.55137
▁dress	-9.55186
▁photo	-9.5527
▁discuss	-9.55336
late	-9.55554
▁reports	-9.55605
▁diet	-9.55678
▁print	-9.55764
▁recently	-9.55786
▁host	-9.55828
▁nearly	-9.5584
▁noticed	-9.55909
pl	-9.56003
▁developing	-9.56013
▁replace	-9.56051
▁element	-9.56052
▁sense	-9.56108
▁hat	-9.56122
▁mass	-9.56136
▁official	-9.5614
▁considered	-9.5621
PA	-9.56212
▁card	-9.56259
▁wing	-9.56395
▁French	-9.56471
▁employ	-9.56503
▁direct	-9.56591
▁chief	-9.56593
▁Scotland	-9.56604
▁Council	-9.56677
▁alone	-9.5672
▁quite	-9.56885
▁King	-9.56917
matic	-9.57181
rop	-9.57255
▁comm	-9.57335
▁nothing	-9.574
ix	-9.57404
▁exercise	-9.57442
▁commercial	-9.57601
▁true	-9.57611
▁included	-9.57615
ase	-9.5762
▁Mc	-9.57629
▁catch	-9.57693
▁associated	-9.57705
▁throughout	-9.57769
▁trial	-9.57779
▁2008	-9.57802
cus	-9.57836
13	-9.57846
nHowever	-9.57884
▁option	-9.57895
▁screen	-9.58008
▁billion	-9.58038
▁While	-9.58127
Don	-9.58305
▁knowledge	-9.58324
▁soft	-9.58348
▁Now	-9.58362
pon	-9.58452
ote	-9.58493
▁regular	-9.58521
▁display	-9.58669
▁Ve	-9.58675
▁behavior	-9.58694
ford	-9.58827
vention	-9.58842
vert	-9.59013
▁skills	-9.59055
▁understanding	-9.59087
15	-9.59211
▁events	-9.59313
▁families	-9.59449
▁auto	-9.59491
▁City	-9.59778
£	-9.5978
▁location	-9.59801
▁materials	-9.59839
▁spec	-9.59844
▁round	-9.59868
ON	-9.59921
▁California	-9.59936
▁agreed	-9.5994
▁monitor	-9.59961
▁particularly	-9.59988
▁leaves	-9.60015
▁thank	-9.60029
itation	-9.60041
▁although	-9.60048
▁style	-9.60154
gy	-9.60224
▁floor	-9.60225
29	-9.60244
til	-9.60256
uff	-9.60285
▁software	-9.60308
nHis	-9.60446
▁message	-9.60451
▁Lucy	-9.60702
IS	-9.60754
▁web	-9.60793
▁Wa	-9.60873
AN	-9.60893
room	-9.60925
▁Force	-9.60929
spec	-9.60955
▁slow	-9.60988
nDe	-9.6102
▁gone	-9.61054
▁gain	-9.61075
▁leading	-9.61125
▁patient	-9.6119
▁spot	-9.61265
▁limit	-9.61273
▁perfect	-9.6128
▁song	-9.61293
▁send	-9.61349
▁Dis	-9.61596
▁enjoy	-9.61763
▁Pi	-9.61813
east	-9.61906
▁forces	-9.62086
▁contract	-9.62127
▁economy	-9.62173
▁culture	-9.62174
▁largest	-9.62219
ising	-9.62348
▁pattern	-9.62404
ES	-9.62442
▁released	-9.62505
▁virus	-9.62523
▁foot	-9.62532
▁join	-9.62591
field	-9.62608
35	-9.62857
ett	-9.62864
45	-9.62885
▁jump	-9.62916
▁nature	-9.62994
rup	-9.6314
▁terms	-9.63233
NA	-9.63243
af	-9.63275
▁produced	-9.63306
rk	-9.63323
▁technique	-9.6333
▁sweet	-9.63347
▁orbit	-9.63377
▁council	-9.63395
▁remember	-9.63402
▁watched	-9.63439
Our	-9.63478
well	-9.63535
lam	-9.63544
▁center	-9.63592
▁street	-9.63694
▁Mars	-9.63704
lig	-9.63709
nHer	-9.63824
▁version	-9.6386
▁bio	-9.63885
▁multi	-9.63888
▁transport	-9.63899
▁includes	-9.63926
▁burn	-9.6393
▁progress	-9.64007
▁February	-9.64031
teen	-9.6409
▁drug	-9.64187
▁simply	-9.64253
▁necessary	-9.64331
But	-9.64396
▁hundred	-9.64436
urge	-9.6446
▁moved	-9.64472
▁officials	-9.64568
▁financial	-9.64672
▁heavy	-9.64686
▁wave	-9.64697
▁=	-9.64739
rian	-9.6475
▁stories	-9.64777
▁UN	-9.64811
▁relationship	-9.64816
aries	-9.64821
▁lack	-9.64837
▁log	-9.64855
One	-9.64865
▁solar	-9.64979
▁release	-9.65054
▁greater	-9.65097
▁Fe	-9.65098
pper	-9.65116
▁France	-9.65198
bri	-9.6528
▁whose	-9.65297
▁described	-9.65303
▁legal	-9.65438
nSome	-9.65547
▁rare	-9.65559
▁bone	-9.65879
Can	-9.65994
▁scientific	-9.66017
▁regard	-9.66035
▁Ab	-9.66141
▁Exp	-9.66184
▁lu	-9.66214
▁shop	-9.66224
iff	-9.66265
lly	-9.66327
body	-9.6639
▁Bri	-9.66462
▁father	-9.66483
▁teacher	-9.66512
▁mid	-9.66536
▁carried	-9.66634
▁Washington	-9.66751
▁prove	-9.66799
▁choice	-9.66885
cha	-9.66905
▁tend	-9.6693
lea	-9.66959
▁Comp	-9.6698
▁stress	-9.67067
▁capital	-9.67073
▁seek	-9.67141
If	-9.67178
▁rocket	-9.67196
▁yellow	-9.67368
tent	-9.6738
gram	-9.6743
▁connect	-9.67431
▁centre	-9.67449
zi	-9.67463
▁coast	-9.67599
▁Dad	-9.67613
▁bag	-9.677
▁II	-9.67722
▁farmer	-9.67817
▁separate	-9.67949
▁images	-9.68045
▁Sta	-9.68062
hood	-9.68069
▁bomb	-9.68113
▁spent	-9.68196
▁collection	-9.68211
▁dry	-9.68275
▁professional	-9.68321
▁written	-9.68574
cept	-9.68723
▁nodded	-9.68724
▁programs	-9.68735
duct	-9.68755
press	-9.68765
▁seat	-9.68897
▁port	-9.69072
▁http	-9.69098
▁laugh	-9.69099
▁trip	-9.69132
AS	-9.69139
ung	-9.69203
▁sample	-9.69204
▁thousands	-9.69204
▁scale	-9.69226
▁Not	-9.69324
▁active	-9.69407
ulate	-9.69424
▁shown	-9.69436
▁determine	-9.69449
▁encourage	-9.69491
▁purpose	-9.69491
acy	-9.69539
▁Let	-9.69651
att	-9.69694
▁High	-9.69695
▁eating	-9.697
▁predict	-9.69735
▁ocean	-9.69781
oma	-9.69798
▁arrived	-9.69872
▁medicine	-9.70015
az	-9.70036
▁latest	-9.70051
▁factor	-9.70112
▁60	-9.70125
▁shot	-9.7016
▁System	-9.70251
▁finally	-9.70351
▁wild	-9.70395
back	-9.70442
▁Office	-9.70779
pping	-9.70833
▁swing	-9.70978
ender	-9.71018
▁east	-9.71058
▁protest	-9.7109
▁central	-9.711
water	-9.71166
▁Association	-9.71211
▁radio	-9.71213
▁protein	-9.71352
ination	-9.71458
▁pan	-9.71526
▁Minister	-9.71534
▁anyone	-9.71548
ik	-9.71554
▁rabbit	-9.71562
ko	-9.71634
▁island	-9.7164
▁TV	-9.71686
▁Iraq	-9.71754
▁Jane	-9.71771
▁dream	-9.71801
▁sit	-9.71815
RE	-9.71833
tru	-9.71833
▁dance	-9.71963
▁workers	-9.71988
▁2007	-9.72017
▁concept	-9.72081
▁writing	-9.72154
cial	-9.72164
▁Ber	-9.72228
▁surprise	-9.7248
▁drugs	-9.725
▁traditional	-9.72501
▁German	-9.72524
nLi	-9.72547
▁unique	-9.72564
▁Suddenly	-9.72621
▁drop	-9.72632
▁mum	-9.72648
▁factors	-9.7268
▁generation	-9.72782
▁goes	-9.72841
▁worry	-9.72848
▁dangerous	-9.72894
▁22	-9.72904
▁poll	-9.72922
▁Bra	-9.72998
▁House	-9.73007
▁William	-9.73019
▁compared	-9.73094
▁flower	-9.73096
▁camp	-9.7311
▁reflect	-9.73119
▁genetic	-9.73134
▁command	-9.73136
▁equal	-9.73152
▁accident	-9.7319
▁roll	-9.73265
app	-9.73318
▁strength	-9.73361
▁discovered	-9.73505
▁replied	-9.73519
▁variety	-9.73605
▁implement	-9.7372
ough	-9.7373
▁nuclear	-9.73734
14	-9.73761
▁survey	-9.73849
ature	-9.73932
▁benefits	-9.73944
mission	-9.73965
don	-9.74026
▁attention	-9.74079
▁allowed	-9.74138
▁cloud	-9.7418
▁sand	-9.74215
mble	-9.74241
25	-9.74283
▁Britain	-9.74286
▁wrote	-9.74295
▁press	-9.74317
▁Asia	-9.74418
jo	-9.74587
Re	-9.74599
▁supply	-9.74613
ax	-9.74637
▁storm	-9.74661
▁River	-9.7472
▁analysis	-9.74816
▁Day	-9.74858
▁sport	-9.75015
▁observe	-9.75026
▁harm	-9.75101
▁additional	-9.7521
▁task	-9.75291
▁announced	-9.75325
xi	-9.75335
▁disorder	-9.75383
▁involve	-9.75462
▁seem	-9.75462
•	-9.75646
▁efforts	-9.75682
▁County	-9.7569
▁agency	-9.75724
▁responsible	-9.75793
▁influence	-9.75939
▁positive	-9.7594
▁indicate	-9.75968
▁driver	-9.75974
cast	-9.76111
▁organization	-9.76252
▁recover	-9.76271
▁egg	-9.76304
▁closed	-9.76455
▁critical	-9.76458
nSuddenly	-9.76483
▁independent	-9.76498
▁moon	-9.76669
▁prior	-9.76681
cular	-9.76872
▁camera	-9.76888
▁nut	-9.76905
▁Even	-9.76927
▁severe	-9.76967
itch	-9.77049
▁benefit	-9.77348
izing	-9.77348
stead	-9.77532
▁gather	-9.77568
▁Chris	-9.77639
last	-9.7766
▁cake	-9.77681
▁attract	-9.77685
▁communication	-9.777
▁opt	-9.77712
▁communities	-9.7791
lay	-9.78033
ica	-9.78116
▁meaning	-9.78143
▁teachers	-9.78168
▁annual	-9.78208
Maybe	-9.78216
bil	-9.78498
▁Art	-9.78538
eng	-9.78578
▁band	-9.78592
▁Russian	-9.78606
▁Union	-9.78677
▁larger	-9.78719
▁EU	-9.78778
▁code	-9.78799
▁identify	-9.78827
▁couple	-9.78919
▁previous	-9.78929
▁Cre	-9.78961
▁seems	-9.79133
ement	-9.79147
▁dig	-9.7916
▁crash	-9.79188
▁okay	-9.7919
rent	-9.79242
▁foreign	-9.7925
▁sell	-9.79375
lum	-9.79388
scription	-9.79417
can	-9.79473
▁component	-9.79524
craft	-9.79547
▁sort	-9.79607
▁critic	-9.79628
▁tall	-9.79658
▁App	-9.79795
▁Nor	-9.79913
angle	-9.79959
oid	-9.79975
▁mode	-9.79987
▁finished	-9.80012
▁respond	-9.80042
▁winter	-9.80109
▁tools	-9.80234
win	-9.80288
▁Fo	-9.80302
night	-9.80309
▁enable	-9.80318
▁favorite	-9.80403
mail	-9.80481
pose	-9.80486
▁Fu	-9.80495
▁broken	-9.80495
▁society	-9.80501
▁born	-9.80552
▁fine	-9.80572
▁2014	-9.80595
▁arrest	-9.80689
▁partner	-9.80704
▁curious	-9.80721
▁Education	-9.80747
▁tight	-9.80748
▁Paul	-9.80842
▁drone	-9.80895
▁kitchen	-9.80917
▁correct	-9.80933
▁female	-9.80948
▁signal	-9.80949
▁protection	-9.80986
▁carefully	-9.81079
▁thr	-9.81092
▁crew	-9.81113
▁equipment	-9.8121
▁sal	-9.81239
▁sale	-9.81245
OR	-9.81294
▁village	-9.81303
▁Program	-9.81338
▁investigation	-9.81365
ference	-9.81372
etic	-9.81386
▁Your	-9.81405
▁Canada	-9.8166
▁MP	-9.8186
▁federal	-9.81909
RA	-9.81928
▁daily	-9.82003
lies	-9.82042
▁essential	-9.82049
nDa	-9.82105
▁extend	-9.82285
▁Court	-9.82292
▁install	-9.82351
▁attend	-9.82442
wo	-9.82537
nFrom	-9.82552
▁welcome	-9.82581
▁moving	-9.82779
elect	-9.82793
▁ahead	-9.82855
▁middle	-9.82864
▁browser	-9.83005
▁distance	-9.83006
▁procedure	-9.83083
▁initial	-9.8312
▁Mor	-9.83123
é	-9.83178
▁Chinese	-9.83241
Lily	-9.83246
raw	-9.83275
▁breath	-9.83339
▁affected	-9.83343
▁crime	-9.83355
▁flood	-9.83399
▁photograph	-9.83424
▁gold	-9.83484
▁2006	-9.83514
▁effort	-9.83519
▁secret	-9.83799
▁Wo	-9.83856
Because	-9.83891
▁birth	-9.83927
▁wonder	-9.83979
▁lake	-9.84025
▁Ti	-9.84047
▁beginning	-9.84118
▁goodbye	-9.84129
col	-9.84149
▁Mark	-9.84169
▁club	-9.84225
▁Spot	-9.84241
nHow	-9.8425
▁Mary	-9.84289
▁destroy	-9.8432
▁anymore	-9.84395
but	-9.84473
Ma	-9.84487
▁operate	-9.84515
▁smaller	-9.84543
▁civil	-9.84552
▁powerful	-9.84557
cious	-9.84647
nDr	-9.84713
▁Russia	-9.84809
▁spin	-9.84837
▁eventually	-9.84912
▁More	-9.8515
▁Of	-9.85275
▁prison	-9.85283
▁James	-9.85287
rain	-9.85344
▁testing	-9.85418
osis	-9.85459
▁disc	-9.85469
book	-9.8547
▁realized	-9.85507
▁opportunity	-9.85508
▁strange	-9.85543
q	-9.85614
nBen	-9.85661
▁tail	-9.8571
▁Sunday	-9.858
▁horse	-9.85884
▁23	-9.85926
nWhile	-9.85961
▁Sarah	-9.85968
▁older	-9.86028
DA	-9.8611
▁branch	-9.86141
▁bill	-9.86146
▁mouth	-9.86151
=	-9.86349
▁crop	-9.86377
▁passed	-9.86464
▁Wal	-9.86586
▁milk	-9.86612
▁passenger	-9.86644
▁believed	-9.8666
▁changed	-9.86674
take	-9.86767
rist	-9.86795
nBe	-9.86883
▁victim	-9.86922
▁faster	-9.86938
▁sugar	-9.8695
ood	-9.86958
▁interesting	-9.87006
▁Gen	-9.87027
▁acid	-9.87035
▁directly	-9.87158
95	-9.87176
▁suit	-9.87196
Mo	-9.87207
▁trust	-9.87301
▁magic	-9.87526
▁biggest	-9.87547
▁stone	-9.87554
▁pond	-9.87605
▁Peter	-9.87609
▁Green	-9.87731
▁trouble	-9.87761
▁primary	-9.87893
ternal	-9.88024
▁General	-9.88134
mph	-9.88153
▁weak	-9.88252
▁waste	-9.8833
▁rich	-9.88332
▁root	-9.88381
▁Red	-9.88496
37	-9.88675
▁George	-9.88723
▁Sue	-9.88745
▁explained	-9.88783
how	-9.88796
▁easily	-9.88873
vid	-9.88902
▁refer	-9.88967
ounce	-9.88979
▁Friday	-9.89208
▁glad	-9.89267
Z	-9.89335
▁Web	-9.89356
▁filled	-9.89484
nMi	-9.89587
▁daughter	-9.8961
▁2005	-9.89649
▁grabbed	-9.89729
▁Monday	-9.89802
75	-9.89811
▁argue	-9.89865
lick	-9.89967
▁Everyone	-9.89991
▁judge	-9.90054
pha	-9.90076
▁(1	-9.90126
▁hill	-9.90195
▁highly	-9.90226
▁$1	-9.90247
▁Sea	-9.90261
▁shared	-9.90316
▁mountain	-9.90336
hal	-9.90381
▁(19	-9.90425
▁launched	-9.90537
▁mouse	-9.90537
▁direction	-9.90538
▁useful	-9.9054
▁wish	-9.90553
▁earth	-9.90692
▁balance	-9.90864
▁mess	-9.90884
▁giving	-9.90915
▁bacteria	-9.90948
EN	-9.90973
itive	-9.90975
▁jumped	-9.90992
▁prop	-9.91011
▁battle	-9.91269
▁Joe	-9.91354
▁Many	-9.91365
▁sentence	-9.91453
▁guide	-9.91581
▁appropriate	-9.91605
▁My	-9.91705
▁smell	-9.91755
▁length	-9.91804
▁pack	-9.91936
omy	-9.91945
▁appeared	-9.92011
▁generally	-9.92026
▁authorities	-9.92078
▁Tu	-9.92139
iz	-9.92186
▁instrument	-9.92252
▁metal	-9.92265
head	-9.92283
▁surprised	-9.92354
ez	-9.92391
▁Black	-9.9246
▁Sch	-9.92472
nWith	-9.92496
▁Great	-9.92502
AL	-9.92534
load	-9.92586
▁strike	-9.92604
2)	-9.92655
uk	-9.92725
CE	-9.92807
▁credit	-9.92878
eight	-9.92881
▁established	-9.92906
▁origin	-9.92907
▁worth	-9.9299
▁via	-9.92997
▁Hi	-9.93014
▁beyond	-9.93032
▁Pu	-9.93092
point	-9.93128
▁visual	-9.93157
dri	-9.93179
▁Christian	-9.93224
▁tired	-9.93279
▁throw	-9.93322
▁amazing	-9.93329
▁Mommy	-9.93331
▁professor	-9.93521
IT	-9.93538
21	-9.93542
▁Ireland	-9.93768
▁executive	-9.93801
ecu	-9.93859
▁gun	-9.94056
▁violence	-9.94082
▁Germany	-9.94116
ivity	-9.9417
place	-9.94214
▁weapon	-9.94347
stitu	-9.94368
US	-9.94375
▁broad	-9.94393
▁church	-9.94475
hr	-9.94478
▁Israel	-9.94497
▁score	-9.94515
stan	-9.94574
▁Brown	-9.946
▁wonderful	-9.94673
▁sector	-9.94747
▁providing	-9.94753
▁spokesman	-9.94789
▁multiple	-9.94854
▁Tuesday	-9.94912
▁emissions	-9.95021
long	-9.95052
▁colon	-9.95074
New	-9.95076
IN	-9.9509
▁majority	-9.95156
▁Most	-9.95248
▁2000	-9.95251
▁Island	-9.9528
circ	-9.95281
▁Environment	-9.95285
32	-9.95313
ago	-9.95334
▁muscle	-9.95357
rick	-9.95383
▁smart	-9.95394
▁lift	-9.95426
▁incident	-9.95448
▁£1	-9.95566
▁conduct	-9.95683
22	-9.95702
▁College	-9.95731
unch	-9.95788
▁Commission	-9.9579
▁beach	-9.95846
▁career	-9.95975
▁tissue	-9.96071
▁lab	-9.96076
ED	-9.96141
96	-9.96225
word	-9.96235
▁speech	-9.96359
▁pull	-9.96385
▁Society	-9.96395
▁emergency	-9.96413
▁located	-9.96413
▁establish	-9.96417
▁sail	-9.96452
nMom	-9.96472
▁famous	-9.96503
▁die	-9.96531
▁planning	-9.96573
▁diabetes	-9.96575
▁male	-9.96645
▁jet	-9.96695
cell	-9.96746
under	-9.96827
▁motor	-9.96856
▁bull	-9.96889
ancy	-9.96919
▁setting	-9.96966
▁spa	-9.9699
65	-9.96994
clo	-9.9704
▁lady	-9.97086
▁rapid	-9.97172
▁enjoyed	-9.97194
▁limited	-9.97218
▁ancient	-9.97264
▁duck	-9.97284
bert	-9.97359
▁define	-9.97396
▁Japan	-9.97427
▁Port	-9.97429
aff	-9.97541
▁kit	-9.97568
▁28	-9.97581
▁debate	-9.97608
▁Nu	-9.97776
▁failure	-9.97778
▁Other	-9.97802
▁title	-9.97811
▁nine	-9.9785
▁examine	-9.97862
▁connection	-9.97911
▁lit	-9.97994
▁Reg	-9.98006
▁spring	-9.98026
▁topic	-9.98041
▁bug	-9.98044
▁property	-9.98182
duce	-9.98204
pho	-9.98253
ography	-9.98256
bar	-9.9826
@	-9.98339
▁generate	-9.98398
36	-9.98492
They	-9.98496
▁consumer	-9.98579
▁describe	-9.98609
▁Wednesday	-9.98652
▁choose	-9.98726
▁reaction	-9.98748
▁stream	-9.98751
▁shut	-9.98768
▁etc	-9.988
▁traffic	-9.98837
▁fresh	-9.98837
48	-9.9887
▁manager	-9.98912
▁airport	-9.98929
▁Robert	-9.98955
▁cup	-9.99093
▁murder	-9.99169
]\	-9.99203
burg	-9.993
▁raise	-9.99364
▁teaching	-9.99471
▁citizen	-9.99484
▁assist	-9.99508
down	-9.99563
▁Church	-9.99596
▁investment	-9.99599
99	-9.99741
▁HIV	-9.99745
▁agreement	-9.99751
▁broke	-9.99754
▁ride	-9.99826
▁atmosphere	-9.99838
▁First	-9.99839
5%	-10
▁Hol	-10.0004
▁hour	-10.0007
nMo	-10.001
▁returned	-10.0013
▁placed	-10.0014
▁expand	-10.0023
▁joint	-10.0032
▁king	-10.0037
▁peace	-10.0039
#	-10.004
▁2004	-10.0042
▁27	-10.0042
▁Museum	-10.0049
▁moral	-10.0052
▁route	-10.0054
▁mental	-10.0058
▁grand	-10.0063
▁bigger	-10.0067
▁express	-10.0072
▁Water	-10.0075
▁abuse	-10.0084
profit	-10.0097
▁Congress	-10.0101
RI	-10.0109
ball	-10.0111
▁Com	-10.0117
▁border	-10.0121
▁grant	-10.0123
RO	-10.0123
▁tiny	-10.0124
cover	-10.0127
▁lose	-10.0127
▁promote	-10.0138
▁taste	-10.0138
▁teach	-10.0151
temp	-10.0158
▁rat	-10.0159
▁repeat	-10.0161
▁obtain	-10.0164
▁conflict	-10.0164
cott	-10.0166
▁shouted	-10.0166
▁robot	-10.0168
▁vegetable	-10.017
state	-10.0173
lex	-10.0177
▁herself	-10.0179
ential	-10.0198
nBy	-10.0206
onic	-10.0207
▁Smith	-10.0208
more	-10.0209
80	-10.0212
▁spend	-10.0214
▁Korea	-10.0216
▁apply	-10.0216
nPa	-10.0219
▁delay	-10.0219
▁hunt	-10.0222
▁contribute	-10.0225
01	-10.0229
▁Thursday	-10.0233
▁fur	-10.0236
▁Ang	-10.0237
▁paid	-10.0249
omic	-10.0258
wood	-10.0263
▁consult	-10.0283
▁sexual	-10.0286
▁vaccine	-10.029
▁friendly	-10.0296
▁26	-10.0299
▁failed	-10.03
▁despite	-10.0308
▁estimated	-10.0323
▁offered	-10.0336
▁suggested	-10.0337
▁spark	-10.0339
▁slowly	-10.0347
▁discussion	-10.0354
▁capture	-10.0355
▁construction	-10.036
▁Tri	-10.0368
▁Part	-10.0368
▁History	-10.0369
▁airline	-10.0375
▁highest	-10.0378
▁Trans	-10.0386
▁funding	-10.0404
▁exhibit	-10.0414
▁70	-10.0414
▁funny	-10.0421
▁medication	-10.0433
▁completely	-10.0434
▁pretend	-10.0436
▁memory	-10.0441
47	-10.0443
▁income	-10.0446
▁basis	-10.0458
▁journey	-10.0459
▁journal	-10.0464
▁Mil	-10.0465
▁Ko	-10.0467
nCon	-10.0486
▁fighting	-10.0488
▁request	-10.049
nMore	-10.0509
33	-10.0511
44	-10.0512
▁remembered	-10.0512
▁estimate	-10.0513
▁crisis	-10.0518
▁tip	-10.052
▁bath	-10.0522
▁bottom	-10.0523
war	-10.0524
tribute	-10.0529
lect	-10.0538
▁alternative	-10.0541
▁colour	-10.0545
▁tea	-10.0547
▁Royal	-10.0548
▁gift	-10.0549
▁demonstrate	-10.0553
▁aviation	-10.0555
▁smoke	-10.0559
▁interview	-10.056
▁institution	-10.0565
ease	-10.0566
▁recognize	-10.0573
▁lay	-10.0576
▁Lib	-10.0583
▁apple	-10.0584
▁2003	-10.0587
▁transfer	-10.0589
▁identified	-10.0591
▁sister	-10.0595
cra	-10.0604
▁Ham	-10.0607
▁Republic	-10.061
▁counter	-10.0612
▁frame	-10.0617
▁giant	-10.0619
▁mine	-10.0624
▁schedule	-10.0626
▁Cap	-10.0627
▁Bur	-10.0627
▁newspaper	-10.0634
▁Labour	-10.064
▁symbol	-10.0646
fra	-10.065
radi	-10.0652
iver	-10.0663
hel	-10.0663
▁yummy	-10.067
▁White	-10.0672
ional	-10.068
▁Saturday	-10.0682
nTh	-10.0682
▁double	-10.0682
▁Read	-10.0688
▁creating	-10.0708
▁copy	-10.0717
▁belong	-10.0718
▁previously	-10.0718
▁Egypt	-10.072
▁sick	-10.0727
▁artist	-10.0734
zo	-10.0735
▁exposure	-10.074
▁nearby	-10.0747
▁caught	-10.076
▁Star	-10.0764
▁surgery	-10.0764
▁80	-10.0767
▁Northern	-10.0776
berg	-10.0782
▁frog	-10.0782
▁edge	-10.0783
▁spacecraft	-10.0784
▁adopt	-10.079
▁pair	-10.0798
▁frequent	-10.0801
1)	-10.0805
▁scan	-10.081
▁Grand	-10.0811
▁players	-10.0812
▁senior	-10.0813
▁invest	-10.0817
▁perhaps	-10.0831
▁adapt	-10.0835
Good	-10.084
▁overall	-10.0843
▁email	-10.0844
▁treated	-10.0856
▁fully	-10.0857
fici	-10.0863
▁scene	-10.0868
▁existing	-10.0896
illa	-10.0897
ibility	-10.091
▁breast	-10.091
bel	-10.0914
▁Michael	-10.0916
▁illness	-10.0925
▁People	-10.0926
▁pot	-10.0934
▁conference	-10.0937
nJohn	-10.0949
▁Lord	-10.0953
▁appeal	-10.0956
nDi	-10.0956
▁raised	-10.0957
▁spoke	-10.0963
▁religious	-10.0972
ino	-10.0973
▁advantage	-10.0974
▁southern	-10.0981
▁internet	-10.0987
▁grade	-10.0992
Who	-10.0997
▁meant	-10.0999
▁Work	-10.1001
24	-10.1003
ographic	-10.1006
▁digital	-10.1007
▁rot	-10.1009
▁waved	-10.1017
▁habitat	-10.1023
turn	-10.1024
▁sex	-10.1035
▁talking	-10.1035
▁Use	-10.104
▁Iran	-10.1046
▁chose	-10.1054
▁Arab	-10.1059
38	-10.1059
▁consist	-10.1064
▁neuro	-10.1072
▁CO	-10.1072
▁leaving	-10.1077
▁pig	-10.1084
▁alcohol	-10.1088
space	-10.1097
▁immediately	-10.1097
nHa	-10.1104
bul	-10.1105
script	-10.1109
nAccording	-10.1109
char	-10.1116
nPro	-10.1116
▁glass	-10.112
▁lion	-10.113
55	-10.1134
▁forgot	-10.114
▁brown	-10.1149
▁covered	-10.115
▁remove	-10.115
Where	-10.1167
LA	-10.1168
▁rid	-10.1169
▁wife	-10.1172
▁becoming	-10.1175
▁suspect	-10.1175
▁Group	-10.1182
rush	-10.1182
▁historical	-10.1199
▁survive	-10.1207
▁tie	-10.1208
▁advice	-10.1209
▁square	-10.1213
▁prime	-10.1215
Of	-10.1221
▁kick	-10.1231
▁Roman	-10.1239
▁emerge	-10.124
ffi	-10.1249
▁Today	-10.1253
▁layer	-10.1257
▁scar	-10.1258
▁decline	-10.1283
▁reduced	-10.1294
▁Texas	-10.1296
▁decide	-10.1302
▁scheme	-10.1315
▁net	-10.1317
▁finger	-10.132
▁balloon	-10.1324
▁mobile	-10.133
▁restrict	-10.1334
terior	-10.1336
▁introduced	-10.1339
▁college	-10.1349
▁status	-10.1349
▁engineering	-10.1354
▁insect	-10.1362
scribe	-10.1371
▁neighbor	-10.1375
▁Bank	-10.1375
▁Please	-10.1377
▁DNA	-10.1379
range	-10.138
▁cried	-10.1383
▁celebrate	-10.139
nLe	-10.1391
poli	-10.1395
▁Press	-10.1407
▁fill	-10.1414
▁reference	-10.142
▁warning	-10.1421
▁quiet	-10.1422
▁Mac	-10.143
▁Medical	-10.1433
▁90	-10.1437
▁forced	-10.1439
eu	-10.144
▁dropped	-10.1451
Mommy	-10.1451
▁cities	-10.1459
▁mention	-10.1462
cri	-10.1463
08	-10.1463
▁northern	-10.1473
stone	-10.1474
▁hum	-10.1476
▁technical	-10.148
ctu	-10.1482
▁custom	-10.1483
rich	-10.1485
▁yourself	-10.1493
▁twin	-10.1496
▁bunny	-10.1498
▁importance	-10.1502
tech	-10.1508
Wow	-10.1512
▁iron	-10.1518
▁nest	-10.1521
▁corner	-10.1537
▁reform	-10.1541
▁principle	-10.1545
gri	-10.1548
▁classroom	-10.1557
▁button	-10.1563
▁capacity	-10.1563
▁engage	-10.1563
▁agree	-10.1564
▁colleague	-10.1565
▁pop	-10.1567
ua	-10.1577
▁reserve	-10.1577
▁determined	-10.1585
OK	-10.1585
▁department	-10.1591
▁yes	-10.1601
Tom	-10.1602
▁Jewish	-10.1602
▁fail	-10.1605
70	-10.1605
ette	-10.1607
▁chair	-10.1612
▁zoo	-10.1618
▁candidate	-10.162
▁favour	-10.162
▁plate	-10.1622
rank	-10.1637
view	-10.1638
▁budget	-10.1639
▁prince	-10.1642
5,000	-10.1645
▁Martin	-10.1645
▁clothes	-10.1647
▁string	-10.1648
nAll	-10.1652
▁completed	-10.1654
ogen	-10.1656
▁helicopter	-10.1657
▁pulled	-10.1663
▁promised	-10.1669
▁therefore	-10.1679
▁Char	-10.1685
scope	-10.1686
oke	-10.1691
▁Scottish	-10.1695
▁Western	-10.1695
▁load	-10.1703
▁wished	-10.1704
▁worried	-10.1714
▁aspect	-10.1716
34	-10.1716
house	-10.1727
mid	-10.1729
▁radiation	-10.173
unk	-10.1731
23	-10.1738
▁Although	-10.1741
▁extremely	-10.1745
▁worse	-10.1748
▁pink	-10.1753
▁Inter	-10.1754
▁relatively	-10.1758
▁Street	-10.1763
▁butterfly	-10.1766
▁cream	-10.177
▁instruction	-10.1774
▁magnet	-10.1788
Po	-10.1793
▁dinner	-10.1801
▁served	-10.1802
▁Mexico	-10.1806
▁seemed	-10.1806
▁govern	-10.1808
▁Secretary	-10.1815
▁sharp	-10.1816
▁Richard	-10.1819
▁castle	-10.182
▁removed	-10.1827
▁emotion	-10.1828
▁solve	-10.183
▁happily	-10.1835
89	-10.1839
▁Law	-10.184
ception	-10.1844
▁secure	-10.185
▁bottle	-10.186
▁promise	-10.1863
▁spirit	-10.1871
▁bike	-10.1872
▁items	-10.1891
▁troops	-10.1902
▁rub	-10.1903
atory	-10.1904
EC	-10.1906
▁operating	-10.1909
▁negative	-10.1918
▁shoot	-10.1921
even	-10.1921
▁injury	-10.1925
▁tank	-10.1925
mpl	-10.1926
▁era	-10.1926
▁wire	-10.1927
▁mistake	-10.1931
▁expensive	-10.1932
▁Journal	-10.1936
88	-10.1937
▁joy	-10.1937
[	-10.1937
▁wh	-10.1964
39	-10.1966
▁2001	-10.1968
▁Muslim	-10.197
▁relative	-10.1972
▁Shi	-10.1974
42	-10.1976
lution	-10.1983
▁Government	-10.1984
85	-10.1995
▁technologies	-10.2
▁electro	-10.2
nMany	-10.2002
▁customers	-10.2006
▁defend	-10.2012
▁proposed	-10.2023
▁stem	-10.2025
▁nose	-10.2028
09	-10.2032
▁2002	-10.2033
▁movie	-10.2034
▁delicious	-10.2043
▁hopped	-10.2048
▁typically	-10.2053
▁army	-10.2055
▁joined	-10.2059
▁Ste	-10.2063
▁electronic	-10.2064
▁driving	-10.2068
▁attach	-10.207
▁rail	-10.2099
▁Home	-10.2099
▁plastic	-10.2101
▁football	-10.2101
▁Public	-10.2103
LE	-10.2106
07	-10.2118
uction	-10.2122
▁divide	-10.2125
▁minor	-10.2128
▁advance	-10.2135
related	-10.2137
▁Agency	-10.214
break	-10.2142
▁Flight	-10.2148
▁tube	-10.2157
▁Foundation	-10.2158
▁Children	-10.2165
▁parent	-10.217
▁causing	-10.2179
▁Human	-10.218
▁Internet	-10.2182
NE	-10.219
▁sensor	-10.2194
▁residents	-10.2195
▁panel	-10.2195
▁highlight	-10.2199
▁shock	-10.2199
▁complain	-10.2203
▁flag	-10.2219
▁pump	-10.2222
▁bodies	-10.2224
▁conducted	-10.2224
NO	-10.2226
▁spending	-10.2231
▁terror	-10.2233
▁confirmed	-10.2236
64	-10.2238
▁efficient	-10.2242
▁geo	-10.2244
▁electricity	-10.2244
▁conservation	-10.2258
▁organisation	-10.226
77	-10.2263
▁hide	-10.2266
▁label	-10.227
▁combination	-10.2277
▁native	-10.2279
▁boost	-10.2288
▁opportunities	-10.2294
▁Ver	-10.2305
▁stretch	-10.2308
▁Test	-10.2311
▁cultural	-10.232
41	-10.2321
▁decrease	-10.2322
▁observation	-10.2331
▁lung	-10.2332
▁proposal	-10.2334
▁switch	-10.2337
▁circle	-10.2344
▁presence	-10.2349
▁prepared	-10.2349
▁Pakistan	-10.2362
nTim	-10.2363
▁Police	-10.2369
▁Cup	-10.2372
▁missile	-10.2383
ville	-10.2388
05	-10.2395
▁changing	-10.2395
▁thus	-10.2405
▁yard	-10.2408
▁exactly	-10.2419
Child	-10.2427
▁Lake	-10.2434
▁discover	-10.244
▁finish	-10.244
nOther	-10.2446
87	-10.2447
▁Middle	-10.2447
▁warned	-10.2449
<	-10.245
loc	-10.2457
92	-10.2462
▁Boeing	-10.2465
▁wheel	-10.2471
▁easier	-10.2481
CO	-10.2482
▁escape	-10.2488
▁reveal	-10.2496
▁Syria	-10.2497
▁Olympic	-10.2505
▁revealed	-10.2507
▁competition	-10.2507
nLast	-10.2519
▁repair	-10.2526
©	-10.2529
▁blow	-10.2531
▁constant	-10.2541
▁exciting	-10.2543
▁danger	-10.2552
▁regulation	-10.2555
viv	-10.2556
▁salt	-10.2561
▁concerned	-10.2562
ddle	-10.2565
▁Just	-10.2567
▁disappear	-10.257
▁handle	-10.2573
▁purchase	-10.2577
▁opinion	-10.2582
▁Technology	-10.2594
▁Medicine	-10.2596
▁prefer	-10.2599
isation	-10.261
▁clearly	-10.2618
▁Florida	-10.2623
02	-10.2626
▁bowl	-10.2626
▁oxygen	-10.2628
▁Obama	-10.263
▁meat	-10.2635
▁district	-10.2635
▁Project	-10.2637
▁Mill	-10.264
print	-10.264
standing	-10.2658
ji	-10.2659
▁notice	-10.2659
49	-10.2666
Those	-10.2669
▁corn	-10.2672
Spec	-10.2673
▁provider	-10.2679
▁straight	-10.2681
▁managed	-10.2683
▁click	-10.2686
▁Dar	-10.2691
RC	-10.2692
▁evolution	-10.2698
active	-10.2703
▁breed	-10.2705
▁GMT	-10.2711
strat	-10.2713
▁instance	-10.2719
▁forget	-10.2723
▁flat	-10.2723
▁bridge	-10.2723
▁accused	-10.273
▁phase	-10.2734
When	-10.2747
90	-10.2754
▁Energy	-10.2769
▁opposition	-10.2769
▁accurate	-10.2774
▁squirrel	-10.2777
93	-10.2783
▁Sally	-10.2788
▁improvement	-10.2788
▁processes	-10.2795
▁Aviation	-10.2802
▁sight	-10.2814
▁alter	-10.282
▁wealth	-10.282
▁industrial	-10.2831
▁occasion	-10.2851
▁everywhere	-10.2853
▁cloth	-10.2862
Hello	-10.2862
▁commission	-10.2868
▁slave	-10.2878
▁assessment	-10.2879
▁bat	-10.2886
▁thin	-10.2888
43	-10.2888
46	-10.289
▁bite	-10.2893
▁struggle	-10.2893
▁university	-10.2906
06	-10.2908
▁thick	-10.2909
grade	-10.2911
▁applied	-10.2916
▁creature	-10.2918
flu	-10.2923
27	-10.2924
▁astronaut	-10.2928
▁consequence	-10.2943
▁policies	-10.2946
▁television	-10.2949
▁reduction	-10.2955
▁hungry	-10.2956
Hi	-10.2965
ense	-10.297
▁cheap	-10.2974
power	-10.2976
▁chart	-10.2991
▁Development	-10.3001
▁investigate	-10.3001
▁swim	-10.3004
67	-10.3005
▁teeth	-10.3009
▁resource	-10.3011
▁advanced	-10.3021
▁sitting	-10.3042
cap	-10.3043
▁stock	-10.3044
▁editor	-10.3052
▁novel	-10.3054
78	-10.3056
▁parties	-10.3059
86	-10.3088
Photo	-10.311
▁immune	-10.311
▁approximately	-10.3112
▁convert	-10.3114
▁Party	-10.312
▁planned	-10.3125
▁Thomas	-10.3125
▁remind	-10.3126
▁properties	-10.3133
▁widely	-10.3134
▁Each	-10.3135
▁certainly	-10.3136
▁vessel	-10.3141
▁household	-10.3143
▁assess	-10.3144
▁missing	-10.3144
▁Land	-10.3149
▁Chi	-10.315
▁manage	-10.3151
03	-10.3154
▁surrounding	-10.3156
▁union	-10.3161
exp	-10.3163
▁volume	-10.3174
▁massive	-10.3176
▁shift	-10.3182
▁distinct	-10.3183
▁Democrat	-10.3184
▁km	-10.319
▁freedom	-10.32
▁shall	-10.3205
▁orange	-10.3205
▁Civil	-10.3207
▁educational	-10.3227
▁interpret	-10.323
▁enhance	-10.3233
▁quick	-10.3239
▁agencies	-10.3241
▁treasure	-10.3251
26	-10.3252
▁Arch	-10.3255
▁cow	-10.3264
flow	-10.3264
▁substance	-10.3264
▁proper	-10.3266
▁During	-10.3267
▁bought	-10.3279
57	-10.3281
▁Food	-10.3283
most	-10.3284
800	-10.3292
&	-10.3295
▁zone	-10.3298
▁committee	-10.3308
▁chain	-10.3309
▁brief	-10.3318
▁solid	-10.3319
nAlthough	-10.3321
▁nurse	-10.3329
▁Control	-10.3331
▁exam	-10.334
▁liquid	-10.3342
lice	-10.3342
▁register	-10.3363
▁trend	-10.3369
How	-10.3383
▁scary	-10.339
lves	-10.3398
▁Also	-10.3405
▁Professor	-10.3426
▁diagnose	-10.3441
▁hang	-10.3452
▁obvious	-10.3457
▁unusual	-10.3457
nTimmy	-10.3464
▁Japanese	-10.3465
oxi	-10.3468
▁Army	-10.3476
▁Queen	-10.3478
▁error	-10.3478
▁knee	-10.3485
28	-10.3493
▁1999	-10.3512
▁Since	-10.3519
63	-10.3519
nNow	-10.3521
▁saving	-10.3522
▁Spanish	-10.3523
▁rescue	-10.3535
▁Benny	-10.3542
76	-10.3542
▁math	-10.3545
▁debt	-10.3547
▁height	-10.3551
▁Radio	-10.3559
04	-10.3562
▁1990	-10.3568
ison	-10.3577
▁sustain	-10.3598
▁doubt	-10.3598
▁grew	-10.3599
▁background	-10.3603
▁Hospital	-10.3606
▁argument	-10.3609
▁parliament	-10.3611
▁transform	-10.3615
▁Pacific	-10.363
▁facilities	-10.3635
▁broadcast	-10.3652
▁clinical	-10.3662
▁injuries	-10.3662
▁suddenly	-10.3665
▁Two	-10.3667
▁Information	-10.3668
Tech	-10.3671
56	-10.3674
▁Daisy	-10.3676
58	-10.37
American	-10.3705
▁Common	-10.3708
▁creation	-10.3709
▁worldwide	-10.3712
▁Bill	-10.3717
▁rebel	-10.3719
68	-10.3726
▁cabin	-10.3736
▁Over	-10.3741
▁package	-10.3741
count	-10.3743
52	-10.3744
▁Steve	-10.3744
▁crack	-10.3752
▁download	-10.3756
66	-10.3757
▁businesses	-10.3768
fish	-10.377
▁disaster	-10.3771
▁lie	-10.3772
▁stuck	-10.3773
▁Vol	-10.3775
▁fluid	-10.3779
▁leaf	-10.3782
79	-10.3785
▁domestic	-10.379
▁helpful	-10.3793
▁truth	-10.3798
▁vitamin	-10.3811
▁Book	-10.3814
▁responsibility	-10.3814
▁Central	-10.3814
ggle	-10.3815
nSam	-10.3817
▁Director	-10.3828
72	-10.3833
▁outcome	-10.3839
▁intended	-10.3842
People	-10.3843
▁taught	-10.3847
Oh	-10.3849
▁Charles	-10.3853
▁defence	-10.3863
▁dust	-10.3887
▁bread	-10.3897
▁justice	-10.39
CSS	-10.3918
▁architect	-10.3918
▁mill	-10.3937
abilities	-10.3949
▁pool	-10.3953
▁holiday	-10.396
je	-10.3962
▁illegal	-10.3963
▁distribution	-10.397
▁mechanism	-10.3985
62	-10.3986
wide	-10.3994
sufficient	-10.3996
▁conclude	-10.3999
▁definition	-10.4004
▁snack	-10.4011
▁discovery	-10.4017
nMost	-10.402
▁authority	-10.4037
▁bow	-10.4039
nMar	-10.4048
▁strategy	-10.4052
▁museum	-10.4052
nCom	-10.4053
▁electric	-10.4056
▁apparent	-10.4058
▁pollution	-10.4063
TH	-10.4067
▁library	-10.4072
fall	-10.4084
▁reality	-10.4089
▁Moon	-10.4092
▁consumption	-10.41
▁dam	-10.4101
▁Billy	-10.4107
▁fossil	-10.4111
61	-10.4118
▁reducing	-10.4122
$	-10.4127
▁According	-10.4128
▁Hall	-10.4153
▁pipe	-10.4165
▁nano	-10.4169
▁bark	-10.4171
▁Latin	-10.4173
TO	-10.4177
▁vital	-10.4182
▁Greek	-10.4184
▁properly	-10.4187
▁lunch	-10.4198
▁virtual	-10.4204
▁dramatic	-10.421
▁smooth	-10.4213
▁putting	-10.4221
▁platform	-10.4221
▁twice	-10.423
▁Learn	-10.423
▁puppy	-10.4241
▁Google	-10.4244
▁crowd	-10.4244
mount	-10.4248
▁exposed	-10.425
▁academic	-10.4258
▁coat	-10.4267
nJack	-10.4267
▁extreme	-10.4268
▁ultimate	-10.4275
▁guard	-10.4284
▁writer	-10.4302
▁jail	-10.4319
▁victory	-10.4327
with	-10.433
▁mechanic	-10.4336
▁measurement	-10.4346
▁airplane	-10.4355
▁advise	-10.4357
▁actual	-10.4358
59	-10.436
▁Lila	-10.436
▁Louis	-10.4368
▁Jones	-10.4373
▁compound	-10.4379
▁Will	-10.438
gress	-10.4386
free	-10.4387
▁Library	-10.4394
▁pocket	-10.4396
73	-10.4406
▁criminal	-10.4411
▁administration	-10.4414
▁infant	-10.4414
▁tear	-10.4416
▁understood	-10.4417
53	-10.4417
84	-10.4422
▁tradition	-10.4438
▁grandma	-10.4439
▁channel	-10.444
▁plea	-10.4443
▁nutrition	-10.4449
69	-10.4452
▁Johnson	-10.4454
▁audience	-10.4455
▁yield	-10.446
▁marine	-10.4461
▁resistance	-10.4472
▁remote	-10.4472
▁blanket	-10.4478
54	-10.4506
▁motion	-10.4506
▁occurred	-10.4508
▁Hill	-10.4509
▁vast	-10.4509
▁blog	-10.4509
▁cave	-10.451
▁knock	-10.4513
▁leadership	-10.4517
▁rose	-10.4528
51	-10.4528
▁bush	-10.4539
▁Tommy	-10.4545
▁monster	-10.4549
▁maintenance	-10.4551
▁marriage	-10.4554
98	-10.4554
▁epi	-10.4555
▁trap	-10.4568
▁Brazil	-10.4569
▁organic	-10.4571
nDuring	-10.4575
▁monkey	-10.4578
▁amazed	-10.4586
▁Committee	-10.4589
▁rising	-10.4593
▁Blue	-10.4608
▁gall	-10.4608
▁Paris	-10.4609
▁landscape	-10.4613
▁prepare	-10.4614
▁Ocean	-10.4628
▁imagine	-10.4637
▁Catholic	-10.4643
biotic	-10.4651
phone	-10.466
▁stepped	-10.4674
▁afford	-10.4676
▁concentration	-10.4684
▁injured	-10.4693
▁studied	-10.4714
▁urban	-10.4723
▁fox	-10.4725
▁basket	-10.4726
▁Vo	-10.4756
▁interact	-10.4766
▁chronic	-10.4768
▁dragon	-10.4771
▁excess	-10.4771
▁database	-10.4777
▁session	-10.4778
▁tre	-10.4781
▁Rock	-10.4782
▁stuff	-10.4785
arrow	-10.4788
▁Ya	-10.4798
▁poverty	-10.4798
▁trigger	-10.4798
▁juice	-10.4806
▁Federal	-10.481
▁sharing	-10.4811
▁infected	-10.4816
▁minute	-10.4816
▁contribution	-10.4822
▁volunteer	-10.4828
▁electrical	-10.483
HO	-10.4841
▁supplement	-10.4847
▁behaviour	-10.4856
▁manufacturer	-10.4863
▁elephant	-10.4865
▁permit	-10.4866
▁portion	-10.4867
▁molecule	-10.4868
▁slightly	-10.4868
▁practical	-10.4874
media	-10.4887
▁labor	-10.4895
▁Disease	-10.4906
▁Centre	-10.4926
▁mineral	-10.4937
▁belief	-10.4941
▁Christmas	-10.4944
83	-10.4949
▁neighbour	-10.4956
▁stroke	-10.4959
▁roof	-10.496
°	-10.4962
▁valuable	-10.4969
▁master	-10.4972
Help	-10.4973
▁Airport	-10.4974
▁march	-10.498
nAnother	-10.4981
▁Year	-10.4981
▁exchange	-10.4983
▁combined	-10.4993
▁fundamental	-10.4993
▁extensive	-10.4999
▁unknown	-10.5003
▁silly	-10.5012
▁daddy	-10.5014
▁McC	-10.5021
▁Life	-10.5027
valu	-10.503
itude	-10.5031
▁Wood	-10.5032
▁exploring	-10.5033
▁depression	-10.5036
▁permanent	-10.5036
▁grateful	-10.5042
▁Old	-10.5049
▁Academy	-10.5052
▁Israeli	-10.5056
▁contrast	-10.5073
▁Conservative	-10.5089
▁wound	-10.509
▁colorful	-10.5091
▁swimming	-10.5092
▁Welsh	-10.5102
▁desire	-10.5103
▁assume	-10.5103
▁tumor	-10.5123
71	-10.5126
nHo	-10.5135
▁fence	-10.5138
▁Report	-10.5147
▁habit	-10.5147
▁creative	-10.5151
▁Italy	-10.5161
▁numerous	-10.517
▁gentle	-10.5174
▁housing	-10.5195
bury	-10.5201
▁Virginia	-10.5201
▁initiative	-10.5201
▁1998	-10.5221
▁calm	-10.5222
▁operator	-10.5223
▁defeat	-10.5234
▁intelligence	-10.5236
▁restore	-10.5242
▁politician	-10.5261
▁Road	-10.5262
▁legislation	-10.5283
▁coach	-10.5283
▁Matt	-10.5283
box	-10.5284
▁semi	-10.5286
▁Frank	-10.5291
▁civilian	-10.5297
▁absolute	-10.5324
▁storage	-10.5325
▁gap	-10.5326
hydr	-10.534
▁brand	-10.5341
▁supplies	-10.5347
▁expression	-10.535
▁lawyer	-10.5362
▁appearance	-10.5364
▁pregnancy	-10.5369
▁drove	-10.5375
▁faith	-10.5376
fusion	-10.5379
▁honey	-10.5385
▁vary	-10.5387
▁Afghanistan	-10.5388
▁nap	-10.5393
▁witness	-10.5395
▁politics	-10.5407
▁participate	-10.5417
Jimmy	-10.5417
▁alleged	-10.5421
▁wrap	-10.5424
▁wildlife	-10.543
▁trick	-10.5431
▁religion	-10.5456
▁facility	-10.5485
wick	-10.5486
▁efficiency	-10.5491
▁cash	-10.5502
nFinally	-10.5507
look	-10.5511
▁committed	-10.5514
▁Social	-10.5517
▁visitors	-10.552
▁whale	-10.552
▁Business	-10.553
▁admitted	-10.5546
▁magazine	-10.5546
nBBC	-10.5549
74	-10.5554
▁spray	-10.5559
▁toxic	-10.5574
▁regime	-10.5581
▁cutting	-10.5581
▁approved	-10.5589
▁worst	-10.5589
▁strip	-10.5591
▁Spain	-10.5599
▁grain	-10.5606
▁birthday	-10.5614
▁interaction	-10.5618
▁£2	-10.5621
2,000	-10.5622
82	-10.5627
▁1980	-10.5632
plane	-10.5636
▁neck	-10.5639
▁Guide	-10.5647
▁commitment	-10.5647
▁fold	-10.5649
▁secretary	-10.565
▁infrastructure	-10.5657
Image	-10.5662
▁empty	-10.5674
▁resolution	-10.5684
▁NHS	-10.5694
▁routine	-10.5697
▁blame	-10.5699
▁missed	-10.5701
▁narrow	-10.5702
▁possess	-10.571
▁minimum	-10.5717
▁referred	-10.5725
▁Jesus	-10.5728
called	-10.5742
▁consistent	-10.5744
▁splash	-10.577
▁rural	-10.5773
▁Canadian	-10.5773
▁graduate	-10.5773
▁strategies	-10.5783
▁Andrew	-10.579
▁Students	-10.5796
▁shore	-10.5798
▁sequence	-10.5803
example	-10.5804
Through	-10.5806
▁Power	-10.5814
which	-10.5821
▁Prince	-10.5827
▁capable	-10.5828
▁succeed	-10.583
▁correspondent	-10.583
▁snake	-10.583
▁Prime	-10.5831
▁preserve	-10.5837
▁threw	-10.5839
▁excellent	-10.5846
▁carrot	-10.5847
position	-10.5855
▁babies	-10.586
▁diagnosis	-10.5863
half	-10.5866
▁battery	-10.587
nSince	-10.5873
▁export	-10.5875
▁Jews	-10.5885
front	-10.5892
▁maximum	-10.5893
▁physician	-10.5893
▁melt	-10.5904
claim	-10.5904
▁confirm	-10.5906
▁float	-10.5917
▁1997	-10.5917
▁husband	-10.592
encies	-10.5921
▁Data	-10.5922
▁spell	-10.5923
▁publish	-10.5923
stream	-10.593
▁revolution	-10.593
▁facing	-10.5934
▁ingredient	-10.5947
▁nervous	-10.5947
▁exception	-10.5951
▁bench	-10.5952
▁kiss	-10.596
▁crucial	-10.5971
▁prize	-10.5974
▁weekend	-10.5981
▁Italian	-10.5982
▁intervention	-10.5985
▁collapse	-10.5998
▁married	-10.5998
▁combat	-10.6006
▁chairman	-10.6018
▁peak	-10.6019
▁journalist	-10.603
▁Review	-10.6035
▁Finally	-10.605
▁earthquake	-10.6053
▁afraid	-10.6067
▁biological	-10.6069
▁Twitter	-10.6073
▁euro	-10.6082
97	-10.6089
▁Soviet	-10.6094
▁prompt	-10.6102
▁possibly	-10.6104
▁integrate	-10.6111
▁otherwise	-10.6111
▁teddy	-10.6115
▁awareness	-10.6118
▁sustainable	-10.6122
▁Bush	-10.6123
▁guilty	-10.6125
▁Rights	-10.6138
▁laser	-10.6141
▁variable	-10.6142
▁stood	-10.6149
▁leak	-10.6151
▁syndrome	-10.6163
▁swam	-10.6168
▁Cancer	-10.617
▁ecosystem	-10.6173
▁nerve	-10.6184
▁possibility	-10.6187
▁perspective	-10.619
▁partnership	-10.6194
▁serving	-10.6219
▁column	-10.6225
▁League	-10.6239
town	-10.624
▁independence	-10.6243
borne	-10.6246
▁adjust	-10.6253
▁champion	-10.6253
▁inquiry	-10.6253
▁1970	-10.6257
▁poison	-10.6263
▁smoking	-10.6281
▁winner	-10.6287
Current	-10.6289
▁manufacturing	-10.6291
▁agricultural	-10.6298
▁strain	-10.6309
from	-10.631
▁flash	-10.6325
ING	-10.6328
▁Long	-10.6345
Today	-10.6345
▁Company	-10.6362
▁Under	-10.6372
▁dedicated	-10.6379
Access	-10.6384
▁visible	-10.6387
Okay	-10.6401
▁confidence	-10.6422
▁refuge	-10.6425
▁familiar	-10.6429
▁comfortable	-10.6466
▁Facebook	-10.6468
▁immediate	-10.6473
▁hyper	-10.6475
▁Henry	-10.6522
▁exploration	-10.6532
scale	-10.6543
▁denied	-10.6547
Please	-10.655
▁comprehensive	-10.655
▁Carolina	-10.6554
▁hidden	-10.6557
▁Atlantic	-10.6561
▁scholar	-10.6568
▁primarily	-10.6579
▁proportion	-10.6579
50,000	-10.6587
▁scientist	-10.6588
▁asteroid	-10.659
▁constitution	-10.6593
▁subsequent	-10.6612
▁Valley	-10.6612
▁greenhouse	-10.6617
▁dioxide	-10.6622
▁punish	-10.6622
▁peaceful	-10.6631
▁Irish	-10.6634
▁rod	-10.6635
▁division	-10.6635
▁disrupt	-10.6649
▁guidelines	-10.6655
▁split	-10.6659
▁permission	-10.6677
▁kidney	-10.668
▁defense	-10.668
▁filter	-10.6681
mouth	-10.6682
▁ethnic	-10.6688
▁cheese	-10.6691
▁spotted	-10.6695
▁client	-10.6696
▁alert	-10.6699
▁relax	-10.6706
▁spider	-10.671
▁Trust	-10.6713
▁ignore	-10.6717
worth	-10.673
▁chicken	-10.6735
▁silver	-10.6735
▁harvest	-10.6739
▁typical	-10.6752
▁Navy	-10.6765
suit	-10.6769
▁Administration	-10.6787
▁involving	-10.6801
▁license	-10.6805
▁Nature	-10.681
▁representative	-10.6813
▁evaluate	-10.6831
▁extent	-10.6832
▁external	-10.6848
▁borrow	-10.6883
▁Security	-10.689
▁impossible	-10.689
▁vulnerable	-10.689
▁rival	-10.6894
▁drain	-10.6907
▁confident	-10.6909
▁laboratory	-10.6913
nTwo	-10.6913
▁province	-10.6916
▁improving	-10.6931
member	-10.694
nAbout	-10.6942
▁2015	-10.6948
▁clock	-10.6953
▁skill	-10.6957
▁skip	-10.696
▁hormone	-10.6961
▁recognise	-10.6961
▁consume	-10.6965
▁Network	-10.6965
▁lucky	-10.6968
▁patch	-10.6977
▁About	-10.6985
▁absorb	-10.6998
▁hazard	-10.7014
▁conclusion	-10.7036
▁grab	-10.7054
▁honor	-10.7058
▁relevant	-10.707
▁Parliament	-10.7074
▁enormous	-10.7112
▁chocolate	-10.7116
▁forecast	-10.712
▁Zealand	-10.7154
▁encounter	-10.7158
▁fleet	-10.7166
▁reliable	-10.7169
▁Laboratory	-10.7173
▁puzzle	-10.7173
▁index	-10.7176
▁Coast	-10.7178
▁Southern	-10.7208
▁disturb	-10.7211
▁enabling	-10.7223
▁withdraw	-10.7223
▁literature	-10.7226
▁continuing	-10.7242
▁import	-10.7247
▁brush	-10.7259
·	-10.7261
▁substantial	-10.7265
▁Molly	-10.7265
▁employees	-10.7266
▁equivalent	-10.7269
▁plot	-10.7275
▁elected	-10.7275
▁dozen	-10.7282
▁chapter	-10.7284
▁Palestinian	-10.7288
▁sensitive	-10.7288
▁association	-10.7296
▁guarantee	-10.7296
▁universe	-10.7296
▁Management	-10.7304
▁settlement	-10.7308
▁coffee	-10.7315
▁Down	-10.7341
▁owl	-10.7343
▁mild	-10.7359
▁attitude	-10.7366
▁obesity	-10.737
▁backyard	-10.737
▁circuit	-10.7393
▁supposed	-10.7393
treat	-10.7408
▁tunnel	-10.7413
▁declared	-10.7413
Origin	-10.7414
Edit	-10.7418
View	-10.7423
▁analyze	-10.7432
▁except	-10.7437
▁accomplish	-10.744
▁conversation	-10.7444
▁Manchester	-10.7448
▁assistance	-10.7451
▁variation	-10.748
▁calculate	-10.7483
▁survival	-10.7491
▁bucket	-10.7495
▁depth	-10.7512
source	-10.7531
▁honest	-10.7532
▁tackle	-10.7539
▁feather	-10.7563
▁Cameron	-10.7571
▁barrier	-10.7571
▁Gulf	-10.7579
▁drought	-10.7595
▁profile	-10.7595
▁steel	-10.7608
▁festival	-10.7622
▁precise	-10.7623
▁childhood	-10.7629
▁dispute	-10.7631
▁mice	-10.7645
▁conventional	-10.7659
▁zero	-10.7663
▁competitive	-10.7667
▁stomach	-10.7695
▁agriculture	-10.7719
▁ruin	-10.7727
▁purple	-10.7755
nVi	-10.7758
▁Windows	-10.7763
▁Resources	-10.7764
class	-10.7766
▁array	-10.7787
▁bubble	-10.7788
▁ongoing	-10.7799
▁ruling	-10.7817
▁deposit	-10.7837
▁regulator	-10.7841
▁identity	-10.7841
direct	-10.7842
Engine	-10.7845
▁widespread	-10.7857
▁Georgia	-10.7857
▁truly	-10.7862
keeper	-10.7866
▁asthma	-10.7868
Psych	-10.7883
▁preparation	-10.789
▁winning	-10.7892
▁hydro	-10.7893
▁explanation	-10.7906
▁guess	-10.7916
▁carrier	-10.7925
▁cord	-10.7926
▁Safety	-10.7927
▁formula	-10.7935
▁introduction	-10.7939
▁curriculum	-10.796
▁territory	-10.7968
▁entry	-10.797
▁restaurant	-10.7981
▁crawl	-10.7985
▁Columbia	-10.7989
▁centuries	-10.7993
▁dinosaur	-10.8001
▁introduce	-10.8005
▁circumstances	-10.8018
▁Games	-10.802
▁charity	-10.8023
▁telescope	-10.8035
▁shadow	-10.8047
▁Chicago	-10.8068
▁mirror	-10.8068
Organ	-10.807
▁Chief	-10.8087
3,000	-10.8095
▁thousand	-10.8097
▁relief	-10.8102
▁Special	-10.8106
Several	-10.8156
▁shark	-10.8157
▁desert	-10.8158
▁comparison	-10.8165
▁crayon	-10.8165
onym	-10.8169
▁receiving	-10.8173
▁comfort	-10.8184
▁insurance	-10.819
▁lonely	-10.8203
▁renewable	-10.8211
▁innovation	-10.8216
▁afternoon	-10.822
▁altitude	-10.8224
▁joke	-10.8231
▁Islamic	-10.8233
Commun	-10.8242
▁ratio	-10.8244
▁pupils	-10.825
school	-10.8255
▁confused	-10.8271
▁Second	-10.8284
▁Mountain	-10.8288
▁elderly	-10.8292
▁shelter	-10.8302
Unfortunately	-10.8305
▁continent	-10.8305
▁capabilities	-10.8307
▁tele	-10.8309
nMeanwhile	-10.8327
▁clapped	-10.8331
▁examination	-10.8332
▁finance	-10.8336
▁compete	-10.8347
▁crown	-10.8349
▁violent	-10.8352
▁hydrogen	-10.8363
▁Family	-10.837
▁struck	-10.8391
▁Studies	-10.8408
Teacher	-10.8426
▁Edward	-10.8439
▁abnormal	-10.8447
▁lecture	-10.8452
▁illustrate	-10.846
▁pregnant	-10.8478
▁demonstration	-10.8482
Watch	-10.8501
Figure	-10.8512
Question	-10.8518
▁arrive	-10.8528
▁revenue	-10.853
▁plenty	-10.853
▁woke	-10.8539
▁tomorrow	-10.8544
Scientists	-10.8548
▁acknowledge	-10.8552
▁Young	-10.8564
▁hypo	-10.8574
▁medal	-10.8576
▁destination	-10.8579
▁eliminate	-10.8596
nPolice	-10.8601
▁medium	-10.861
▁fashion	-10.8614
▁opposite	-10.8623
▁Oxford	-10.8623
▁assembly	-10.8632
▁Ohio	-10.8636
▁principal	-10.864
▁incorporate	-10.8645
▁recall	-10.865
▁affair	-10.8654
▁Colorado	-10.8667
▁rainbow	-10.8685
▁assault	-10.8689
▁Another	-10.8712
▁militant	-10.872
▁ordinary	-10.872
▁activist	-10.8725
▁lifestyle	-10.8734
known	-10.8743
▁necessarily	-10.8756
▁prospect	-10.877
▁radar	-10.8779
▁diversity	-10.8783
▁myself	-10.8783
▁cholesterol	-10.8788
▁valid	-10.8802
▁talent	-10.8806
▁Justice	-10.883
▁horizon	-10.8837
▁Change	-10.8839
▁Survey	-10.8842
▁urged	-10.8845
▁honour	-10.8874
Search	-10.8878
▁explosion	-10.8882
▁disappointed	-10.8887
▁proceed	-10.8897
▁continuous	-10.8905
▁controversial	-10.891
▁outdoor	-10.8915
▁suicide	-10.8919
▁athlete	-10.8923
í	-10.9428
`	-10.9631
á	-10.9818
®	-11.0644
^	-11.0741
~	-11.2103
ü	-11.3284
ö	-11.365
»	-11.3702
ó	-11.376
‘	-11.4297
′	-11.5446
ā	-11.6723
⁄	-11.7443
Â	-11.7692
ñ	-11.7758
о	-11.7958
è	-11.8313
ä	-11.843
а	-11.9278
и	-12.0681
е	-12.1321
μ	-12.1608
×	-12.2506
ο	-12.2793
ç	-12.2977
α	-12.2977
Ã	-12.3108
р	-12.3709
н	-12.3809
с	-12.3809
ا	-12.389
ō	-12.4179
æ	-12.4412
т	-12.4455
́	-12.5522
‐	-12.5546
ô	-12.5765
ə	-12.5988
−	-12.6038
ل	-12.6089
à	-12.6089
ν	-12.6191
↑	-12.6294
в	-12.645
±	-12.6503
к	-12.6503
ˈ	-12.6556
¿	-12.688
→	-12.7158
ú	-12.7561
β	-12.7829
ī	-12.7981
л	-12.8042
π	-12.858
§	-12.8711
«	-12.9046
É	-12.9323
τ	-12.9499
ã	-12.9643
ρ	-12.9752
ς	-12.9789
š	-12.9825
¢	-13.0239
ū	-13.0277
‚	-13.0277
д	-13.0433
ι	-13.0472
ε	-13.0511
ï	-13.0996
м	-13.129
п	-13.1419
†	-13.1462
ē	-13.1593
م	-13.1771
λ	-13.1906
σ	-13.1951
ë	-13.2089
κ	-13.2229
у	-13.2418
ي	-13.261
я	-13.2957
›	-13.3109
̃	-13.3109
ê	-13.3161
ر	-13.3161
θ	-13.3212
г	-13.3474
ø	-13.4132
ن	-13.4303
ƒ	-13.4595
י	-13.4775
و	-13.4836
ه	-13.4958
َ	-13.5207
γ	-13.5207
ɪ	-13.5271
●	-13.5593
ı	-13.5725
―	-13.5725
з	-13.5859
й	-13.5927
ы	-13.6132
¬	-13.6271
ו	-13.6271
δ	-13.6556
å	-13.6702
Δ	-13.6775
č	-13.7075
б	-13.7228
η	-13.7306
÷	-13.7866
ь	-13.8116
ع	-13.8116
ś	-13.8201
ּ	-13.8201
̄	-13.8201
ć	-13.8459
ß	-13.8547
„	-13.8815
¡	-13.8906
ω	-13.8997
û	-13.9373
ت	-13.9373
س	-13.9373
ִ	-13.9373
ί	-13.9566
א	-13.9566
ː	-13.9763
¦	-13.9763
ḥ	-13.9763
î	-13.9964
ب	-14.0066
ة	-14.0066
د	-14.0274
ч	-14.0274
ł	-14.0379
ה	-14.0379
ְ	-14.0379
ă	-14.0485
Ö	-14.0593
ş	-14.0701
ž	-14.0811
υ	-14.1148
ב	-14.138
ά	-14.138
ָ	-14.138
≥	-14.138
ר	-14.138
Ð	-14.138
Ó	-14.1497
ό	-14.1497
ṭ	-14.1497
מ	-14.1616
ĭ	-14.1737
Š	-14.1737
Á	-14.2234
х	-14.2362
ַ	-14.2624
ť	-14.2757
К	-14.2892
ם	-14.2892
ì	-14.2892
С	-14.3029
Ä	-14.3168
ц	-14.3309
ш	-14.3309
的	-14.3309
ा	-14.3452
√	-14.3452
≤	-14.3452
φ	-14.3596
↩	-14.3596
ɛ	-14.3596
ʻ	-14.3596
Ø	-14.3597
Æ	-14.3744
ת	-14.3893
¶	-14.4044
ל	-14.4044
點	-14.4198
і	-14.4354
נ	-14.4354
ق	-14.4513
Å	-14.4674
ˌ	-14.4674
ʼ	-14.5005
έ	-14.5347
र	-14.5347
♦	-14.5347
ě	-14.5522
∞	-14.5522
ð	-14.5701
ف	-14.5701
ש	-14.5701
✈	-14.5701
ك	-14.5883
ή	-14.5883
ń	-14.5883
⇒	-14.5883
►	-14.5883
。	-14.5883
þ	-14.6068
ἰ	-14.6257
ْ	-14.6257
М	-14.6449
ش	-14.6449
Ḥ	-14.6449
Ś	-14.6449
「	-14.6449
ד	-14.6645
ِ	-14.6645
क	-14.6645
ř	-14.6645
の	-14.6645
」	-14.6645
ò	-14.6845
ý	-14.6845
ɡ	-14.6845
ע	-14.6845
ṣ	-14.6845
←	-14.6845
、	-14.6845
一	-14.6845
В	-14.7049
ж	-14.7049
А	-14.7049
ُ	-14.7049
ņ	-14.7049
Ω	-14.7049
ج	-14.7049
ー	-14.7257
χ	-14.7257
‒	-14.7257
【	-14.747
ん	-14.747
】	-14.747
ص	-14.7688
Î	-14.791
أ	-14.8137
ɔ	-14.8137
ʊ	-14.8137
ἐ	-14.8137
ῦ	-14.837
ى	-14.837
■	-14.837
ɑ	-14.8608
ф	-14.8608
ğ	-14.8608
る	-14.8608
Σ	-14.8852
า	-14.8852
ύ	-14.8852
★	-14.8852
う	-14.8852
ֹ	-14.9102
文	-14.9358
ŏ	-14.9358
く	-14.9358
ù	-14.9358
ė	-14.9358
े	-14.9358
خ	-14.9621
ط	-14.9621
ĕ	-14.9891
ح	-14.9891
्	-14.9891
ἀ	-14.9891
ʃ	-14.9891
な	-15.0169
し	-15.0169
ח	-15.0169
┐	-15.0169
¥	-15.0169
か	-15.0169
ֵ	-15.0169
น	-15.0455
Ç	-15.0455
ю	-15.0455
Н	-15.0455
¤	-15.0455
Ü	-15.0455
ֶ	-15.0455
ẓ	-15.0455
ź	-15.0455
̊	-15.0455
た	-15.0749
∙	-15.1052
ą	-15.1052
す	-15.1052
缺	-15.1052
Ş	-15.1052
ξ	-15.1052
Ă	-15.1052
О	-15.1052
・	-15.1365
म	-15.1365
ῆ	-15.1365
優	-15.1365
ʒ	-15.1365
ὶ	-15.1365
お	-15.1687
ŋ	-15.1687
〉	-15.1687
い	-15.1687
İ	-15.1687
ی	-15.1687
〈	-15.1687
と	-15.1687
字	-15.1687
П	-15.2021
を	-15.2021
Ú	-15.2021
ᴜ	-15.2021
◦	-15.2021
惊	-15.2021
ذ	-15.2021
で	-15.2021
Ž	-15.2365
צ	-15.2365
️	-15.2365
Č	-15.2365
ḳ	-15.2365
是	-15.2366
人	-15.2366
כ	-15.2723
Ė	-15.2723
ż	-15.2723
Γ	-15.2723
ὴ	-15.2723
▪	-15.2723
生	-15.2723
Í	-15.3093
Ā	-15.3093
ṃ	-15.3093
ῶ	-15.3093
ʿ	-15.3093
Ε	-15.3093
大	-15.3093
อ	-15.3477
ก	-15.3477
ि	-15.3477
Р	-15.3477
ὐ	-15.3477
Λ	-15.3477
ψ	-15.3477
ъ	-15.3477
ὸ	-15.3477
中	-15.3477
ّ	-15.3478
日	-15.3478
ῖ	-15.3877
न	-15.3877
Ñ	-15.3877
ṇ	-15.3877
り	-15.3877
ɒ	-15.3878
Т	-15.3878
ṛ	-15.3878
て	-15.3878
ั	-15.4294
子	-15.4294
Φ	-15.4294
ę	-15.4294
ं	-15.4294
Π	-15.4294
‟	-15.4294
≈	-15.4294
✓	-15.4294
さ	-15.4294
Θ	-15.4294
פ	-15.4294
っ	-15.4294
は	-15.4294
ǁ	-15.4729
ა	-15.4729
،	-15.4729
ס	-15.4729
ׁ	-15.4729
よ	-15.4729
ŕ	-15.4729
ง	-15.5183
ร	-15.5183
া	-15.5183
だ	-15.5183
ो	-15.5183
이	-15.5183
ď	-15.5183
ὰ	-15.5183
‹	-15.5183
∼	-15.5183
õ	-15.5184
대	-15.5184
不	-15.5184
家	-15.5659
レ	-15.566
И	-15.566
щ	-15.566
त	-15.566
स	-15.566
ल	-15.566
ǎ	-15.566
З	-15.566
ी	-15.566
Ē	-15.566
Ł	-15.566
غ	-15.566
द	-15.566
ი	-15.566
ま	-15.566
원	-15.566
年	-15.566
山	-15.6159
Ì	-15.616
ג	-15.616
่	-15.616
ʖ	-15.616
Α	-15.616
ἡ	-15.616
Г	-15.616
≠	-15.616
⟨	-15.616
⟩	-15.616
ק	-15.616
ล	-15.616
天	-15.616
ビ	-15.6686
Ο	-15.6686
‰	-15.6686
ѕ	-15.6686
ท	-15.6686
‡	-15.6686
인	-15.6686
月	-15.6686
星	-15.7241
Ī	-15.7242
ζ	-15.7242
ث	-15.7242
ز	-15.7242
đ	-15.7242
ɩ	-15.7242
➢	-15.7242
ء	-15.7242
지	-15.7242
ม	-15.7242
你	-15.7242
个	-15.7242
ώ	-15.783
È	-15.783
Ф	-15.783
ン	-15.783
驚	-15.783
Χ	-15.783
▼	-15.783
え	-15.783
猫	-15.783
э	-15.783
เ	-15.783
♥	-15.783
和	-15.8454
本	-15.8454
先	-15.8454
第	-15.8455
に	-15.8455
ţ	-15.8455
ग	-15.8455
あ	-15.8455
所	-15.8455
ħ	-15.8455
手	-15.8455
ŭ	-15.8455
‧	-15.8455
↔	-15.8455
□	-15.8455
사	-15.8455
إ	-15.8455
れ	-15.8455
ё	-15.8455
わ	-15.8455
地	-15.8455
西	-15.8456
ʌ	-15.9121
つ	-15.9121
ʁ	-15.9121
ე	-15.9121
▲	-15.9121
ֲ	-15.9121
来	-15.9122
行	-15.9122
้	-15.9836
ज	-15.9836
प	-15.9836
ض	-15.9836
Ḳ	-15.9836
ư	-15.9836
ך	-15.9836
ẹ	-15.9836
ジ	-15.9836
리	-15.9836
한	-15.9836
Б	-15.9836
ک	-15.9836
소	-15.9836
通	-15.9836
在	-15.9837
之	-16.0603
林	-16.0604
十	-16.0604
ย	-16.0605
二	-16.0605
ず	-16.0605
Μ	-16.0605
Ν	-16.0605
य	-16.0605
व	-16.0605
į	-16.0605
ɹ	-16.0605
Τ	-16.0605
ḡ	-16.0605
ữ	-16.0605
∫	-16.0605
∴	-16.0605
가	-16.0605
공	-16.0605
터	-16.0605
🚀	-16.0605
Д	-16.0605
च	-16.0605
▶	-16.0605
き	-16.0605
☆	-16.0605
성	-16.0605
국	-16.0605
上	-16.0606
金	-16.1436
陳	-16.1437
道	-16.1438
王	-16.1438
บ	-16.1438
《	-16.1438
Ë	-16.1438
Ý	-16.1438
ɨ	-16.1438
У	-16.1438
ئ	-16.1438
↪	-16.1438
▸	-16.1438
ら	-16.1438
白	-16.1438
Ï	-16.1438
Õ	-16.1438
Đ	-16.1438
∑	-16.1438
❤	-16.1438
寺	-16.1438
市	-16.1438
房	-16.1438
정	-16.1438
་	-16.1438
薬	-16.1438
我	-16.1438
部	-16.1439
要	-16.1439
新	-16.1439
有	-16.1439
南	-16.1441
李	-16.1441
平	-16.2347
以	-16.2347
ส	-16.2347
ʾ	-16.2347
Κ	-16.2347
ह	-16.2347
̋	-16.2347
》	-16.2347
Я	-16.2347
ן	-16.2347
報	-16.2347
다	-16.2347
북	-16.2347
주	-16.2347
ׂ	-16.2347
資	-16.2348
者	-16.2348
安	-16.2348
了	-16.2348
成	-16.2348
心	-16.2348
張	-16.2349
高	-16.235
吳	-16.2351
法	-16.3347
ื	-16.3347
城	-16.3347
ด	-16.3347
▬	-16.3347
化	-16.3347
方	-16.3347
正	-16.3347
Υ	-16.3347
ظ	-16.3347
ḍ	-16.3347
ὁ	-16.3347
ŷ	-16.3347
ơ	-16.3347
अ	-16.3347
ड	-16.3347
ḵ	-16.3347
ἶ	-16.3347
ῃ	-16.3347
◇	-16.3347
◾	-16.3347
ろ	-16.3347
개	-16.3347
는	-16.3347
😂	-16.3347
Þ	-16.3347
ʺ	-16.3347
ˆ	-16.3347
女	-16.3347
水	-16.3347
知	-16.3348
下	-16.3348
火	-16.3348
很	-16.3348
空	-16.3349
宗	-16.4455
夫	-16.4457
義	-16.4458
ˀ	-16.4458
蔔	-16.4458
蘿	-16.4458
센	-16.4458
ט	-16.4458
आ	-16.4458
ῳ	-16.4458
京	-16.4458
首	-16.4458
Ď	-16.4459
Ż	-16.4459
Ɛ	-16.4459
̧	-16.4459
ـ	-16.4459
ٌ	-16.4459
ห	-16.4459
რ	-16.4459
ạ	-16.4459
∀	-16.4459
∈	-16.4459
➔	-16.4459
主	-16.4459
八	-16.4459
神	-16.4459
단	-16.4459
봉	-16.4459
의	-16.4459
ő	-16.4459
ˇ	-16.4459
ề	-16.4459
ち	-16.4459
公	-16.4459
고	-16.4459
기	-16.4459
ต	-16.4459
탐	-16.4459
Л	-16.4459
書	-16.4459
방	-16.4459
清	-16.4459
與	-16.4459
訊	-16.4459
代	-16.4459
三	-16.4459
海	-16.4459
会	-16.4459
他	-16.4459
思	-16.4461
这	-16.4461
沈	-16.4461
馬	-16.5705
如	-16.5707
巴	-16.5708
ิ	-16.5708
ク	-16.5708
Ò	-16.5708
Э	-16.5708
期	-16.5708
화	-16.5708
ɸ	-16.5708
̓	-16.5708
ա	-16.5708
ु	-16.5708
დ	-16.5708
四	-16.5708
銀	-16.5708
̯	-16.5709
ז	-16.5709
ए	-16.5709
ว	-16.5709
แ	-16.5709
ო	-16.5709
ṅ	-16.5709
ứ	-16.5709
Ἰ	-16.5709
⬢	-16.5709
せ	-16.5709
む	-16.5709
只	-16.5709
国	-16.5709
章	-16.5709
蹲	-16.5709
로	-16.5709
문	-16.5709
ʏ	-16.5709
Ι	-16.5709
Е	-16.5709
Х	-16.5709
ἄ	-16.5709
₹	-16.5709
✰	-16.5709
도	-16.5709
Ẓ	-16.5709
象	-16.5709
こ	-16.5709
政	-16.5709
長	-16.5709
ะ	-16.5709
然	-16.5709
全	-16.5709
自	-16.5709
动	-16.571
小	-16.571
机	-16.5711
東	-16.7134
國	-16.7136
明	-16.7137
源	-16.7137
田	-16.7137
可	-16.7137
物	-16.7137
軍	-16.7137
好	-16.7137
͞	-16.7137
ุ	-16.7137
̨	-16.7137
ল	-16.7137
გ	-16.7137
タ	-16.7137
ত	-16.7137
จ	-16.7137
イ	-16.7137
ル	-16.7137
台	-16.7137
舆	-16.7137
나	-16.7137
Ч	-16.7137
ٍ	-16.7137
़	-16.7137
ী	-16.7137
ნ	-16.7137
♯	-16.7137
も	-16.7137
ů	-16.7137
ǧ	-16.7137
श	-16.7137
ἅ	-16.7137
ἱ	-16.7137
↓	-16.7137
べ	-16.7137
彼	-16.7137
拍	-16.7137
보	-16.7137
수	-16.7137
아	-16.7137
À	-16.7137
ǐ	-16.7137
Ь	-16.7137
һ	-16.7137
ے	-16.7137
த	-16.7137
ు	-16.7137
ả	-16.7137
ế	-16.7137
⇔	-16.7137
○	-16.7137
两	-16.7137
前	-16.7137
屋	-16.7137
悢	-16.7137
打	-16.7137
霊	-16.7137
面	-16.7137
구	-16.7137
그	-16.7137
은	-16.7137
ј	-16.7137
ट	-16.7137
ὀ	-16.7137
府	-16.7137
😉	-16.7137
题	-16.7137
完	-16.7137
្	-16.7137
此	-16.7137
解	-16.7137
其	-16.7138
出	-16.7138
说	-16.7138
說	-16.7138
就	-16.7138
力	-16.7138
周	-16.8795
英	-16.8799
楊	-16.8801
仲	-16.8802
德	-16.8803
君	-16.8804
特	-16.8804
ค	-16.8804
段	-16.8804
育	-16.8804
ス	-16.8804
意	-16.8804
ไ	-16.8804
ɬ	-16.8804
พ	-16.8804
ี	-16.8804
ὑ	-16.8804
座	-16.8804
由	-16.8804
利	-16.8804
服	-16.8804
集	-16.8804
ÿ	-16.8804
Ě	-16.8804
Β	-16.8804
ம	-16.8804
ს	-16.8804
ゃ	-16.8804
半	-16.8804
時	-16.8804
서	-16.8804
ň	-16.8804
ȳ	-16.8804
ɲ	-16.8804
ɾ	-16.8804
ष	-16.8804
்	-16.8804
მ	-16.8804
ტ	-16.8804
ḏ	-16.8804
Ṭ	-16.8804
ầ	-16.8804
ố	-16.8804
ὅ	-16.8804
※	-16.8804
₱	-16.8804
♭	-16.8804
が	-16.8804
分	-16.8804
呢	-16.8804
声	-16.8804
志	-16.8804
朱	-16.8804
目	-16.8804
都	-16.8804
거	-16.8804
상	-16.8804
용	-16.8804
피	-16.8804
Ρ	-16.8804
پ	-16.8804
ब	-16.8804
ἁ	-16.8804
⌗	-16.8804
品	-16.8804
산	-16.8804
운	-16.8804
Ê	-16.8804
ǒ	-16.8804
ボ	-16.8804
教	-16.8804
분	-16.8804
信	-16.8804
ក	-16.8804
រ	-16.8804
句	-16.8804
็	-16.8804
直	-16.8804
容	-16.8804
左	-16.8804
时	-16.8804
头	-16.8804
必	-16.8804
支	-16.8804
龍	-16.8804
事	-16.8804
六	-16.8805
最	-16.8805
翼	-16.8805
次	-16.8805
看	-16.8805
陸	-16.8807
華	-17.0798
伯	-17.0799
百	-17.08
木	-17.0801
柳	-17.0802
風	-17.0802
許	-17.0802
草	-17.0802
工	-17.0802
泉	-17.0803
音	-17.0803
夢	-17.0803
野	-17.0803
秋	-17.0803
斯	-17.0803
理	-17.0803
路	-17.0803
̀	-17.0803
修	-17.0804
無	-17.0804
オ	-17.0804
士	-17.0804
ト	-17.0804
回	-17.0804
太	-17.0804
シ	-17.0804
表	-17.0804
Û	-17.0804
フ	-17.0804
爾	-17.0804
読	-17.0804
马	-17.0804
회	-17.0804
ֻ	-17.0804
ᾶ	-17.0804
北	-17.0804
紅	-17.0804
오	-17.0804
Η	-17.0804
ր	-17.0804
ম	-17.0804
ข	-17.0804
ἴ	-17.0804
め	-17.0804
些	-17.0804
索	-17.0804
蔵	-17.0804
长	-17.0804
영	-17.0804
ġ	-17.0804
ɐ	-17.0804
ֱ	-17.0804
औ	-17.0804
⁕	-17.0804
∗	-17.0804
端	-17.0804
게	-17.0804
어	-17.0804
😊	-17.0804
Ô	-17.0804
ĺ	-17.0804
Ū	-17.0804
ǔ	-17.0804
ș	-17.0804
ɓ	-17.0804
ɜ	-17.0804
ʐ	-17.0804
̅	-17.0804
ً	-17.0804
इ	-17.0804
ख	-17.0804
भ	-17.0804
দ	-17.0804
ி	-17.0804
್	-17.0804
ช	-17.0804
ბ	-17.0804
ლ	-17.0804
ờ	-17.0804
ợ	-17.0804
ἑ	-17.0804
∆	-17.0804
≡	-17.0804
─	-17.0804
☑	-17.0804
☞	-17.0804
✔	-17.0804
〜	-17.0804
そ	-17.0804
ば	-17.0804
借	-17.0804
制	-17.0804
右	-17.0804
吗	-17.0804
嘛	-17.0804
园	-17.0804
峰	-17.0804
形	-17.0804
忍	-17.0804
松	-17.0804
果	-17.0804
民	-17.0804
江	-17.0804
班	-17.0804
累	-17.0804
網	-17.0804
見	-17.0804
车	-17.0804
니	-17.0804
마	-17.0804
바	-17.0804
선	-17.0804
포	-17.0804
하	-17.0804
～	-17.0804
🇬	-17.0804
🗸	-17.0804
Ц	-17.0804
آ	-17.0804
Ṣ	-17.0804
ご	-17.0804
息	-17.0804
گ	-17.0804
氣	-17.0804
ង	-17.0804
ֽ	-17.0804
社	-17.0804
典	-17.0804
那	-17.0804
ป	-17.0804
或	-17.0804
立	-17.0804
得	-17.0804
作	-17.0804
简	-17.0804
頭	-17.0804
河	-17.0804
注	-17.0804
私	-17.0804
接	-17.0804
也	-17.0804
黑	-17.0804
传	-17.0804
取	-17.0805
因	-17.0805
朗	-17.0805
良	-17.0805
言	-17.0805
展	-17.0806
敬	-17.0806
多	-17.0806
謝	-17.0806
到	-17.0806
电	-17.0806
后	-17.0806
九	-17.0807
胡	-17.3295
漢	-17.3298
黄	-17.33
同	-17.3301
雲	-17.3301
程	-17.3301
劉	-17.3302
靜	-17.3302
傅	-17.3303
景	-17.3303
從	-17.3303
元	-17.3303
顧	-17.3303
ム	-17.3303
場	-17.3303
泊	-17.3303
秀	-17.3303
編	-17.3303
這	-17.3303
ํ	-17.3303
五	-17.3303
合	-17.3303
扇	-17.3304
結	-17.3304
ব	-17.3304
則	-17.3304
计	-17.3304
ʹ	-17.3304
झ	-17.3304
伊	-17.3304
局	-17.3304
度	-17.3304
算	-17.3304
賀	-17.3304
ї	-17.3304
জ	-17.3304
္	-17.3304
Ḫ	-17.3304
ね	-17.3304
個	-17.3304
御	-17.3304
汇	-17.3304
父	-17.3304
航	-17.3304
间	-17.3304
안	-17.3304
ै	-17.3304
ḷ	-17.3304
ὄ	-17.3304
⚡	-17.3304
内	-17.3304
母	-17.3304
足	-17.3304
體	-17.3304
우	-17.3304
조	-17.3304
𒀯	-17.3304
Ù	-17.3304
ļ	-17.3304
̵	-17.3304
Ծ	-17.3304
ἔ	-17.3304
廉	-17.3304
张	-17.3304
남	-17.3304
진	-17.3304
ƞ	-17.3304
ˑ	-17.3304
̌	-17.3304
Ά	-17.3304
Ш	-17.3304
ہ	-17.3304
ে	-17.3304
ನ	-17.3304
ಪ	-17.3304
ვ	-17.3304
ấ	-17.3304
ị	-17.3304
ọ	-17.3304
ộ	-17.3304
ὔ	-17.3304
ὺ	-17.3304
ῇ	-17.3304
ῷ	-17.3304
∘	-17.3304
∨	-17.3304
∩	-17.3304
◊	-17.3304
『	-17.3304
』	-17.3304
じ	-17.3304
ぶ	-17.3304
ほ	-17.3304
ザ	-17.3304
ド	-17.3304
ハ	-17.3304
世	-17.3304
例	-17.3304
固	-17.3304
把	-17.3304
拼	-17.3304
泌	-17.3304
版	-17.3304
球	-17.3304
葉	-17.3304
蘭	-17.3304
詞	-17.3304
Ꙁ	-17.3304
되	-17.3304
부	-17.3304
송	-17.3304
시	-17.3304
에	-17.3304
자	-17.3304
해	-17.3304
🏼	-17.3304
📣	-17.3304
😒	-17.3304
🙂	-17.3304
🛩	-17.3304
ǫ	-17.3304
ʕ	-17.3304
ἠ	-17.3304
ユ	-17.3304
义	-17.3304
示	-17.3304
竜	-17.3304
장	-17.3304
֫	-17.3304
კ	-17.3304
区	-17.3304
康	-17.3304
藤	-17.3304
語	-17.3304
모	-17.3304
민	-17.3304
̇	-17.3304
Ψ	-17.3304
ょ	-17.3304
라	-17.3304
백	-17.3304
ག	-17.3304
ែ	-17.3304
保	-17.3304
認	-17.3304
室	-17.3304
허	-17.3304
包	-17.3304
词	-17.3304
ศ	-17.3304
등	-17.3304
특	-17.3304
間	-17.3304
問	-17.3304
後	-17.3304
非	-17.3304
科	-17.3304
们	-17.3304
內	-17.3304
系	-17.3304
性	-17.3304
液	-17.3304
任	-17.3304
菜	-17.3304
统	-17.3304
用	-17.3305
蔡	-17.3305
村	-17.3305
发	-17.3306
情	-17.3306
鄭	-17.3306
徐	-17.3306
过	-17.3306
予	-17.3306
曹	-17.3307
奇	-17.331
達	-17.6628
祝	-17.6629
阿	-17.6633
亮	-17.6633
征	-17.6633
佛	-17.6633
羅	-17.6634
毅	-17.6634
趙	-17.6634
韓	-17.6635
師	-17.6635
葛	-17.6635
辛	-17.6635
郭	-17.6635
宇	-17.6635
維	-17.6636
若	-17.6636
克	-17.6636
老	-17.6637
̷	-17.6637
演	-17.6637
遠	-17.6637
ニ	-17.6637
グ	-17.6637
バ	-17.6637
員	-17.6637
推	-17.6637
襟	-17.6637
ブ	-17.6637
ং	-17.6637
ɽ	-17.6637
セ	-17.6637
廣	-17.6637
ʔ	-17.6637
̶	-17.6637
吏	-17.6637
學	-17.6637
話	-17.6637
兄	-17.6637
區	-17.6637
断	-17.6637
美	-17.6637
🇹	-17.6637
Ź	-17.6637
̍	-17.6637
फ	-17.6637
গ	-17.6637
য	-17.6637
়	-17.6637
வ	-17.6637
ึ	-17.6637
ู	-17.6637
ḇ	-17.6637
☺	-17.6637
デ	-17.6637
儿	-17.6637
坐	-17.6637
析	-17.6637
經	-17.6637
縦	-17.6637
舎	-17.6637
計	-17.6637
走	-17.6637
辞	-17.6637
룡	-17.6637
ṓ	-17.6637
ȟ	-17.6637
ɗ	-17.6637
ɣ	-17.6637
ɶ	-17.6637
ʉ	-17.6637
ʋ	-17.6637
˅	-17.6637
њ	-17.6637
ә	-17.6637
Ա	-17.6637
؟	-17.6637
ू	-17.6637
త	-17.6637
ള	-17.6637
Ἑ	-17.6637
け	-17.6637
ウ	-17.6637
东	-17.6637
使	-17.6637
剛	-17.6637
察	-17.6637
脈	-17.6637
암	-17.6637
평	-17.6637
🇺	-17.6637
ĉ	-17.6637
Ę	-17.6637
ĩ	-17.6637
Ő	-17.6637
ų	-17.6637
ǣ	-17.6637
ǽ	-17.6637
ɕ	-17.6637
ɚ	-17.6637
̂	-17.6637
ћ	-17.6637
ѣ	-17.6637
ף	-17.6637
ګ	-17.6637
ण	-17.6637
আ	-17.6637
শ	-17.6637
ு	-17.6637
గ	-17.6637
ల	-17.6637
ಣ	-17.6637
ര	-17.6637
ས	-17.6637
ც	-17.6637
ន	-17.6637
ở	-17.6637
ἕ	-17.6637
ὲ	-17.6637
ᾳ	-17.6637
‽	-17.6637
▰	-17.6637
▷	-17.6637
▻	-17.6637
♻	-17.6637
➤	-17.6637
⠀	-17.6637
ⱱ	-17.6637
ど	-17.6637
び	-17.6637
へ	-17.6637
み	-17.6637
ゅ	-17.6637
ア	-17.6637
カ	-17.6637
リ	-17.6637
体	-17.6637
兴	-17.6637
卖	-17.6637
原	-17.6637
厳	-17.6637
受	-17.6637
古	-17.6637
名	-17.6637
吧	-17.6637
威	-17.6637
学	-17.6637
忠	-17.6637
感	-17.6637
未	-17.6637
桥	-17.6637
機	-17.6637
永	-17.6637
波	-17.6637
犬	-17.6637
状	-17.6637
玄	-17.6637
琪	-17.6637
甲	-17.6637
着	-17.6637
祖	-17.6637
秘	-17.6637
號	-17.6637
記	-17.6637
課	-17.6637
谓	-17.6637
輯	-17.6637
酒	-17.6637
香	-17.6637
鬼	-17.6637
鹫	-17.6637
鹿	-17.6637
龙	-17.6637
ꙁ	-17.6637
건	-17.6637
과	-17.6637
들	-17.6637
려	-17.6637
명	-17.6637
발	-17.6637
신	-17.6637
야	-17.6637
온	-17.6637
입	-17.6637
작	-17.6637
제	-17.6637
질	-17.6637
추	-17.6637
출	-17.6637
🇧	-17.6637
💕	-17.6637
🔫	-17.6637
😭	-17.6637
🙌	-17.6637
Ō	-17.6637
ớ	-17.6637
套	-17.6637
🇦	-17.6637
ڑ	-17.6637
ె	-17.6637
☄	-17.6637
☼	-17.6637
ガ	-17.6637
七	-17.6637
動	-17.6637
响	-17.6637
應	-17.6637
撰	-17.6637
森	-17.6637
皇	-17.6637
親	-17.6637
観	-17.6637
魚	-17.6637
র	-17.6637
ᠯ	-17.6637
Ḵ	-17.6637
園	-17.6637
央	-17.6637
斷	-17.6637
虎	-17.6637
衛	-17.6637
被	-17.6637
關	-17.6637
院	-17.6637
キ	-17.6637
ར	-17.6637
ོ	-17.6637
ッ	-17.6637
万	-17.6637
而	-17.6637
奥	-17.6637
โ	-17.6637
久	-17.6637
ត	-17.6637
ស	-17.6637
介	-17.6637
光	-17.6637
压	-17.6637
向	-17.6637
控	-17.6637
效	-17.6637
震	-17.6637
ถ	-17.6637
戻	-17.6638
标	-17.6638
每	-17.6638
處	-17.6638
何	-17.6638
提	-17.6638
族	-17.6638
種	-17.6638
堂	-17.6638
技	-17.6638
它	-17.6638
叶	-17.6639
无	-17.6639
對	-17.6639
放	-17.6639
鐵	-17.6639
議	-17.6639
雪	-17.6639
难	-17.664
友	-17.664
引	-17.664
陶	-17.664
击	-17.664
功	-17.664
对	-17.6641
条	-17.6642
艾	-17.6643
类	-17.6643
起	-17.6644
蔣	-17.6644
芳	-17.6644
邵	-18.1624
孫	-18.1628
汪	-18.1628
耀	-18.1628
姜	-18.1629
深	-18.1629
叔	-18.1631
唐	-18.1631
宙	-18.1631
錫	-18.1632
龢	-18.1632
致	-18.1634
幸	-18.1634
望	-18.1634
樹	-18.1634
石	-18.1634
翔	-18.1634
馮	-18.1635
仁	-18.1636
余	-18.1636
坚	-18.1636
潘	-18.1636
管	-18.1636
舒	-18.1636
青	-18.1636
萃	-18.1636
封	-18.1636
模	-18.1636
洒	-18.1636
澤	-18.1636
獨	-18.1636
病	-18.1636
設	-18.1636
身	-18.1636
需	-18.1636
預	-18.1636
͏	-18.1636
判	-18.1636
聲	-18.1636
命	-18.1637
̡	-18.1637
͟	-18.1637
͢	-18.1637
令	-18.1637
們	-18.1637
參	-18.1637
振	-18.1637
淡	-18.1637
花	-18.1637
维	-18.1637
翻	-18.1637
བ	-18.1637
✪	-18.1637
亂	-18.1637
塔	-18.1637
懷	-18.1637
播	-18.1637
灣	-18.1637
聞	-18.1637
譯	-18.1637
进	-18.1637
門	-18.1637
Ɂ	-18.1637
ョ	-18.1637
̣	-18.1637
қ	-18.1637
ө	-18.1637
ौ	-18.1637
ঙ	-18.1637
ি	-18.1637
্	-18.1637
మ	-18.1637
వ	-18.1637
པ	-18.1637
ླ	-18.1637
ღ	-18.1637
ᠳ	-18.1637
ᴛ	-18.1637
Ἁ	-18.1637
傳	-18.1637
厌	-18.1637
吴	-18.1637
宴	-18.1637
川	-18.1637
帝	-18.1637
店	-18.1637
弟	-18.1637
怒	-18.1637
活	-18.1637
珍	-18.1637
省	-18.1637
细	-18.1637
讨	-18.1637
述	-18.1637
遷	-18.1637
黃	-18.1637
립	-18.1637
스	-18.1637
파	-18.1637
چ	-18.1637
ۈ	-18.1637
ँ	-18.1637
ध	-18.1637
అ	-18.1637
్	-18.1637
♫	-18.1637
为	-18.1637
充	-18.1637
关	-18.1637
坤	-18.1637
投	-18.1637
洋	-18.1637
相	-18.1637
繁	-18.1637
耶	-18.1637
補	-18.1637
认	-18.1637
谷	-18.1637
还	-18.1637
遗	-18.1637
鉄	-18.1637
鎮	-18.1637
식	-18.1637
언	-18.1637
업	-18.1637
여	-18.1637
🇷	-18.1637
ģ	-18.1637
Ṛ	-18.1637
♣	-18.1637
助	-18.1637
荘	-18.1637
請	-18.1637
论	-18.1637
陈	-18.1637
각	-18.1637
러	-18.1637
박	-18.1637
반	-18.1637
않	-18.1637
천	-18.1637
패	-18.1637
ċ	-18.1637
Ğ	-18.1637
ľ	-18.1637
ű	-18.1637
ȝ	-18.1637
ɖ	-18.1637
ɘ	-18.1637
ʙ	-18.1637
̥	-18.1637
̬	-18.1637
͡	-18.1637
Ζ	-18.1637
Ξ	-18.1637
ϗ	-18.1637
Ћ	-18.1637
Ъ	-18.1637
љ	-18.1637
Ғ	-18.1637
գ	-18.1637
ե	-18.1637
ծ	-18.1637
մ	-18.1637
յ	-18.1637
֖	-18.1637
־	-18.1637
ץ	-18.1637
׳	-18.1637
؛	-18.1637
١	-18.1637
٢	-18.1637
٣	-18.1637
ں	-18.1637
ۍ	-18.1637
ۚ	-18.1637
ন	-18.1637
হ	-18.1637
ட	-18.1637
ல	-18.1637
ள	-18.1637
ழ	-18.1637
ா	-18.1637
ே	-18.1637
௱	-18.1637
ప	-18.1637
ಮ	-18.1637
ರ	-18.1637
ೀ	-18.1637
ು	-18.1637
ೆ	-18.1637
ി	-18.1637
ീ	-18.1637
ผ	-18.1637
฿	-18.1637
သ	-18.1637
ာ	-18.1637
ိ	-18.1637
ေ	-18.1637
უ	-18.1637
ძ	-18.1637
ច	-18.1637
ជ	-18.1637
អ	-18.1637
ើ	-18.1637
ំ	-18.1637
ᠢ	-18.1637
ᠣ	-18.1637
ᠨ	-18.1637
ḕ	-18.1637
ễ	-18.1637
ồ	-18.1637
Ἐ	-18.1637
ὕ	-18.1637
℥	-18.1637
⊆	-18.1637
⊕	-18.1637
⋅	-18.1637
█	-18.1637
▫	-18.1637
☝	-18.1637
☽	-18.1637
♠	-18.1637
✅	-18.1637
❅	-18.1637
➝	-18.1637
➹	-18.1637
ぇ	-18.1637
ざ	-18.1637
ぼ	-18.1637
ゐ	-18.1637
ゑ	-18.1637
コ	-18.1637
サ	-18.1637
ナ	-18.1637
メ	-18.1637
ラ	-18.1637
ヽ	-18.1637
丘	-18.1637
乎	-18.1637
书	-18.1637
云	-18.1637
井	-18.1637
亡	-18.1637
件	-18.1637
僕	-18.1637
入	-18.1637
兰	-18.1637
具	-18.1637
冰	-18.1637
切	-18.1637
勇	-18.1637
勞	-18.1637
匠	-18.1637
升	-18.1637
博	-18.1637
危	-18.1637
及	-18.1637
口	-18.1637
号	-18.1637
味	-18.1637
嘉	-18.1637
型	-18.1637
妖	-18.1637
姉	-18.1637
媽	-18.1637
定	-18.1637
将	-18.1637
少	-18.1637
尤	-18.1637
屏	-18.1637
峯	-18.1637
干	-18.1637
幽	-18.1637
庙	-18.1637
延	-18.1637
怪	-18.1637
惟	-18.1637
想	-18.1637
承	-18.1637
拔	-18.1637
摒	-18.1637
数	-18.1637
昭	-18.1637
晋	-18.1637
更	-18.1637
朴	-18.1637
杀	-18.1637
栋	-18.1637
梨	-18.1637
検	-18.1637
欲	-18.1637
歌	-18.1637
武	-18.1637
死	-18.1637
毛	-18.1637
沉	-18.1637
沒	-18.1637
流	-18.1637
测	-18.1637
済	-18.1637
湖	-18.1637
溯	-18.1637
漏	-18.1637
灌	-18.1637
熱	-18.1637
狗	-18.1637
登	-18.1637
県	-18.1637
稣	-18.1637
窦	-18.1637
站	-18.1637
笔	-18.1637
箸	-18.1637
簡	-18.1637
籍	-18.1637
紀	-18.1637
納	-18.1637
縣	-18.1637
脅	-18.1637
般	-18.1637
菊	-18.1637
血	-18.1637
街	-18.1637
衡	-18.1637
袁	-18.1637
角	-18.1637
詠	-18.1637
警	-18.1637
达	-18.1637
迅	-18.1637
造	-18.1637
進	-18.1637
重	-18.1637
铁	-18.1637
错	-18.1637
隊	-18.1637
電	-18.1637
頁	-18.1637
頼	-18.1637
駭	-18.1637
魂	-18.1637
계	-18.1637
관	-18.1637
교	-18.1637
능	-18.1637
덕	-18.1637
동	-18.1637
드	-18.1637
론	-18.1637
루	-18.1637
만	-18.1637
메	-18.1637
면	-18.1637
비	-18.1637
세	-18.1637
실	-18.1637
유	-18.1637
을	-18.1637
있	-18.1637
재	-18.1637
절	-18.1637
크	-18.1637
횟	-18.1637
𐬀	-18.1637
🇳	-18.1637
🇸	-18.1637
🌎	-18.1637
🍪	-18.1637
🏻	-18.1637
👀	-18.1637
👌	-18.1637
📸	-18.1637
😁	-18.1637
🙁	-18.1637
🤞	-18.1637
Ć	-18.1637
ũ	-18.1637
ǰ	-18.1637
ʈ	-18.1637
̔	-18.1637
Ѕ	-18.1637
₫	-18.1637
加	-18.1637
卡	-18.1637
내	-18.1637
Œ	-18.1637
ھ	-18.1637
ವ	-18.1637
ხ	-18.1637
ᠦ	-18.1637
Ἕ	-18.1637
♂	-18.1637
ゞ	-18.1637
ヾ	-18.1637
么	-18.1637
围	-18.1637
圆	-18.1637
奕	-18.1637
岳	-18.1637
広	-18.1637
朝	-18.1637
样	-18.1637
測	-18.1637
纸	-18.1637
见	-18.1637
評	-18.1637
論	-18.1637
资	-18.1637
車	-18.1637
輪	-18.1637
酬	-18.1637
閣	-18.1637
鮮	-18.1637
범	-18.1637
석	-18.1637
위	-18.1637
🏽	-18.1637
💃	-18.1637
🙏	-18.1637
健	-18.1637
配	-18.1637
མ	-18.1637
က	-18.1637
စ	-18.1637
မ	-18.1637
ᠠ	-18.1637
ゝ	-18.1637
丹	-18.1637
凰	-18.1637
壁	-18.1637
季	-18.1637
尼	-18.1637
幕	-18.1637
旅	-18.1637
普	-18.1637
格	-18.1637
植	-18.1637
様	-18.1637
照	-18.1637
爱	-18.1637
申	-18.1637
町	-18.1637
米	-18.1637
鸦	-18.1637
항	-18.1637
ക	-18.1637
ച	-18.1637
ᠵ	-18.1637
̪	-18.1637
͆	-18.1637
ใ	-18.1637
ប	-18.1637
ិ	-18.1637
∂	-18.1637
与	-18.1637
務	-18.1637
司	-18.1637
告	-18.1637
喜	-18.1637
指	-18.1637
术	-18.1637
為	-18.1637
能	-18.1637
購	-18.1637
였	-18.1637
ដ	-18.1637
류	-18.1637
미	-18.1637
列	-18.1637
筆	-18.1637
ฝ	-18.1637
์	-18.1637
ヶ	-18.1637
俄	-18.1637
將	-18.1637
專	-18.1637
業	-18.1637
治	-18.1637
略	-18.1637
疾	-18.1637
豐	-18.1637
록	-18.1637
別	-18.1638
备	-18.1638
寧	-18.1638
您	-18.1638
玩	-18.1638
降	-18.1638
飞	-18.1638
恐	-18.1638
眾	-18.1638
著	-18.1638
丁	-18.1638
萬	-18.1638
貢	-18.1638
阮	-18.1638
今	-18.1639
侯	-18.1639
素	-18.1639
舱	-18.1639
酷	-18.1639
針	-18.1639
应	-18.1639
驶	-18.1639
驾	-18.1639
处	-18.1639
带	-18.1639
常	-18.1639
寒	-18.164
蘇	-18.164
器	-18.164
仿	-18.164
梅	-18.164
炳	-18.164
琴	-18.164
迹	-18.164
雅	-18.164
實	-18.164
狂	-18.164
风	-18.1641
遇	-18.1642
但	-18.1642
况	-18.1642
客	-18.1642
弼	-18.1642
擎	-18.1642
油	-18.1642
鸟	-18.1642
黎	-18.1642
量	-18.1642
研	-18.1643
禮	-18.1643
组	-18.1643
员	-18.1643
鍾	-18.1645
丐	-19.1621
俍	-19.1621
倪	-19.1621
僑	-19.1621
兆	-19.1621
勳	-19.1621
夏	-19.1621
奚	-19.1621
姚	-19.1621
孟	-19.1621
尊	-19.1621
弢	-19.1621
愈	-19.1621
持	-19.1621
揚	-19.1621
梓	-19.1621
棣	-19.1621
歐	-19.1621
洪	-19.1621
湜	-19.1621
燄	-19.1621
爽	-19.1621
琦	-19.1621
紹	-19.1621
范	-19.1621
融	-19.1621
越	-19.1621
農	-19.1621
還	-19.1621
邰	-19.1621
郁	-19.1621
陽	-19.1621
齋	-19.1621
彬	-19.1625
幟	-19.1629
旦	-19.1629
杜	-19.1629
樟	-19.1629
沫	-19.1629
琛	-19.1629
畢	-19.1629
翰	-19.1629
蕪	-19.1629
薰	-19.1629
輝	-19.1629
銘	-19.1629
鋼	-19.1629
馥	-19.1629
值	-19.1633
傑	-19.1633
凭	-19.1633
喬	-19.1633
嚑	-19.1633
培	-19.1633
庶	-19.1633
敏	-19.1633
敢	-19.1633
昌	-19.1633
潮	-19.1633
熊	-19.1633
璧	-19.1633
眞	-19.1633
綏	-19.1633
臧	-19.1633
蒯	-19.1633
蓴	-19.1633
謙	-19.1633
鐸	-19.1633
霽	-19.1633
靳	-19.1633
騷	-19.1633
塢	-19.1635
幻	-19.1635
攜	-19.1635
旨	-19.1635
產	-19.1635
節	-19.1635
舍	-19.1635
萊	-19.1635
複	-19.1635
試	-19.1635
調	-19.1635
̛	-19.1636
͝	-19.1636
ซ	-19.1636
๒	-19.1636
儉	-19.1636
呻	-19.1636
善	-19.1636
圭	-19.1636
惡	-19.1636
愛	-19.1636
數	-19.1636
桃	-19.1636
欠	-19.1636
穀	-19.1636
絵	-19.1636
罗	-19.1636
至	-19.1636
謎	-19.1636
顏	-19.1636
養	-19.1636
纹	-19.1636
雷	-19.1636
̢	-19.1637
ฟ	-19.1637
ァ	-19.1637
ェ	-19.1637
休	-19.1637
処	-19.1637
划	-19.1637
害	-19.1637
怨	-19.1637
斑	-19.1637
沙	-19.1637
災	-19.1637
皂	-19.1637
讓	-19.1637
ऋ	-19.1637
െ	-19.1637
ᠥ	-19.1637
ᠪ	-19.1637
ᠷ	-19.1637
Ἱ	-19.1637
並	-19.1637
僚	-19.1637
寨	-19.1637
恋	-19.1637
探	-19.1637
描	-19.1637
昔	-19.1637
汉	-19.1637
盟	-19.1637
遍	-19.1637
隶	-19.1637
ɳ	-19.1637
ɴ	-19.1637
ʀ	-19.1637
ΐ	-19.1637
ϊ	-19.1637
І	-19.1637
ң	-19.1637
ұ	-19.1637
դ	-19.1637
װ	-19.1637
ژ	-19.1637
ښ	-19.1637
ङ	-19.1637
छ	-19.1637
ఆ	-19.1637
ి	-19.1637
౦	-19.1637
ಕ	-19.1637
ಶ	-19.1637
ഡ	-19.1637
ფ	-19.1637
ჰ	-19.1637
Ṡ	-19.1637
ṡ	-19.1637
乾	-19.1637
准	-19.1637
圖	-19.1637
境	-19.1637
峪	-19.1637
崩	-19.1637
弱	-19.1637
根	-19.1637
満	-19.1637
燃	-19.1637
燈	-19.1637
環	-19.1637
窮	-19.1637
職	-19.1637
脫	-19.1637
萝	-19.1637
軌	-19.1637
転	-19.1637
軽	-19.1637
輿	-19.1637
辦	-19.1637
锦	-19.1637
隆	-19.1637
験	-19.1637
락	-19.1637
밴	-19.1637
삭	-19.1637
십	-19.1637
양	-19.1637
🇪	-19.1637
Ţ	-19.1637
ʜ	-19.1637
ԓ	-19.1637
Փ	-19.1637
ଋ	-19.1637
⏫	-19.1637
史	-19.1637
妈	-19.1637
宝	-19.1637
料	-19.1637
施	-19.1637
杨	-19.1637
牛	-19.1637
現	-19.1637
笑	-19.1637
筷	-19.1637
董	-19.1637
赤	-19.1637
逼	-19.1637
髪	-19.1637
급	-19.1637
무	-19.1637
붙	-19.1637
엉	-19.1637
임	-19.1637
창	-19.1637
🇶	-19.1637
💙	-19.1637
🖖	-19.1637
😇	-19.1637
Ċ	-19.1637
Ĕ	-19.1637
ĝ	-19.1637
Į	-19.1637
Ĺ	-19.1637
Ľ	-19.1637
Ņ	-19.1637
Ŋ	-19.1637
ŝ	-19.1637
Ť	-19.1637
Ɠ	-19.1637
Ư	-19.1637
Ʒ	-19.1637
ǃ	-19.1637
ǜ	-19.1637
ǝ	-19.1637
ǵ	-19.1637
Ȝ	-19.1637
ȯ	-19.1637
ɰ	-19.1637
ɵ	-19.1637
ɻ	-19.1637
ʂ	-19.1637
ʑ	-19.1637
ʢ	-19.1637
ʧ	-19.1637
ˉ	-19.1637
ˊ	-19.1637
̕	-19.1637
̴	-19.1637
̸	-19.1637
͘	-19.1637
Ϗ	-19.1637
ϝ	-19.1637
Ϣ	-19.1637
Ϯ	-19.1637
Ѝ	-19.1637
Ж	-19.1637
Ы	-19.1637
Ю	-19.1637
ђ	-19.1637
ғ	-19.1637
Ҙ	-19.1637
ҙ	-19.1637
ү	-19.1637
Ӕ	-19.1637
Ӡ	-19.1637
ӡ	-19.1637
Ԓ	-19.1637
Դ	-19.1637
Ո	-19.1637
զ	-19.1637
թ	-19.1637
հ	-19.1637
ղ	-19.1637
ն	-19.1637
ո	-19.1637
ײ	-19.1637
ؤ	-19.1637
٤	-19.1637
٥	-19.1637
ٰ	-19.1637
څ	-19.1637
ڈ	-19.1637
ډ	-19.1637
۩	-19.1637
ܐ	-19.1637
ܘ	-19.1637
ܛ	-19.1637
ܪ	-19.1637
ܬ	-19.1637
ई	-19.1637
उ	-19.1637
घ	-19.1637
ठ	-19.1637
ढ	-19.1637
थ	-19.1637
ই	-19.1637
ও	-19.1637
চ	-19.1637
প	-19.1637
স	-19.1637
ূ	-19.1637
દ	-19.1637
ી	-19.1637
ତ	-19.1637
ୁ	-19.1637
அ	-19.1637
க	-19.1637
ன	-19.1637
ப	-19.1637
ர	-19.1637
ெ	-19.1637
ோ	-19.1637
ఁ	-19.1637
బ	-19.1637
ಗ	-19.1637
ಚ	-19.1637
ಡ	-19.1637
ದ	-19.1637
ಷ	-19.1637
ಿ	-19.1637
ೇ	-19.1637
ೋ	-19.1637
യ	-19.1637
വ	-19.1637
സ	-19.1637
്	-19.1637
ං	-19.1637
ප	-19.1637
ර	-19.1637
ල	-19.1637
ු	-19.1637
ฉ	-19.1637
ภ	-19.1637
ฤ	-19.1637
ษ	-19.1637
ດ	-19.1637
ລ	-19.1637
ະ	-19.1637
ູ	-19.1637
ན	-19.1637
ཕ	-19.1637
ཚ	-19.1637
འ	-19.1637
ལ	-19.1637
ྒ	-19.1637
ྱ	-19.1637
ྲ	-19.1637
ခ	-19.1637
င	-19.1637
ါ	-19.1637
ု	-19.1637
း	-19.1637
ြ	-19.1637
ႏ	-19.1637
ზ	-19.1637
თ	-19.1637
ჟ	-19.1637
შ	-19.1637
ჩ	-19.1637
წ	-19.1637
ᄇ	-19.1637
ᅡ	-19.1637
ូ	-19.1637
ᠡ	-19.1637
ᠭ	-19.1637
ᠰ	-19.1637
ᶇ	-19.1637
Ḡ	-19.1637
ḫ	-19.1637
ḱ	-19.1637
ḿ	-19.1637
ṯ	-19.1637
Ạ	-19.1637
ẻ	-19.1637
Ế	-19.1637
Ề	-19.1637
Ể	-19.1637
ể	-19.1637
ỉ	-19.1637
Ọ	-19.1637
ỏ	-19.1637
ủ	-19.1637
ừ	-19.1637
ỹ	-19.1637
ἵ	-19.1637
ἷ	-19.1637
ὃ	-19.1637
Ὀ	-19.1637
ὓ	-19.1637
ὼ	-19.1637
ᾧ	-19.1637
⁖	-19.1637
₤	-19.1637
₽	-19.1637
↱	-19.1637
↴	-19.1637
↵	-19.1637
∇	-19.1637
∝	-19.1637
∧	-19.1637
⊗	-19.1637
⌋	-19.1637
⌘	-19.1637
⌚	-19.1637
⏰	-19.1637
⑆	-19.1637
⑇	-19.1637
⑈	-19.1637
⑉	-19.1637
╒	-19.1637
╔	-19.1637
░	-19.1637
◆	-19.1637
☮	-19.1637
☻	-19.1637
♀	-19.1637
♔	-19.1637
⚠	-19.1637
✍	-19.1637
❌	-19.1637
❞	-19.1637
❧	-19.1637
➡	-19.1637
➶	-19.1637
⩾	-19.1637
⭐	-19.1637
ⳤ	-19.1637
々	-19.1637
ぃ	-19.1637
ぬ	-19.1637
ひ	-19.1637
ふ	-19.1637
や	-19.1637
ダ	-19.1637
チ	-19.1637
ネ	-19.1637
パ	-19.1637
ヘ	-19.1637
ヤ	-19.1637
ロ	-19.1637
ワ	-19.1637
业	-19.1637
丞	-19.1637
両	-19.1637
临	-19.1637
乐	-19.1637
于	-19.1637
交	-19.1637
享	-19.1637
什	-19.1637
仆	-19.1637
仏	-19.1637
伦	-19.1637
伽	-19.1637
住	-19.1637
佐	-19.1637
來	-19.1637
価	-19.1637
係	-19.1637
俺	-19.1637
倉	-19.1637
倫	-19.1637
備	-19.1637
僧	-19.1637
價	-19.1637
兒	-19.1637
兩	-19.1637
兼	-19.1637
再	-19.1637
军	-19.1637
冬	-19.1637
冶	-19.1637
冷	-19.1637
凯	-19.1637
别	-19.1637
削	-19.1637
劃	-19.1637
劇	-19.1637
劍	-19.1637
务	-19.1637
势	-19.1637
勋	-19.1637
勤	-19.1637
勾	-19.1637
千	-19.1637
午	-19.1637
华	-19.1637
協	-19.1637
卢	-19.1637
卿	-19.1637
厢	-19.1637
双	-19.1637
吃	-19.1637
否	-19.1637
含	-19.1637
呉	-19.1637
哪	-19.1637
唷	-19.1637
商	-19.1637
啲	-19.1637
嗎	-19.1637
址	-19.1637
坊	-19.1637
坏	-19.1637
坠	-19.1637
堺	-19.1637
塘	-19.1637
壇	-19.1637
壑	-19.1637
外	-19.1637
奈	-19.1637
奧	-19.1637
妹	-19.1637
妻	-19.1637
姆	-19.1637
姥	-19.1637
娘	-19.1637
娟	-19.1637
嬰	-19.1637
孩	-19.1637
宁	-19.1637
宋	-19.1637
宏	-19.1637
宪	-19.1637
寄	-19.1637
寮	-19.1637
寻	-19.1637
尔	-19.1637
尚	-19.1637
尽	-19.1637
尾	-19.1637
岩	-19.1637
島	-19.1637
崇	-19.1637
州	-19.1637
巡	-19.1637
己	-19.1637
已	-19.1637
巳	-19.1637
布	-19.1637
帶	-19.1637
帽	-19.1637
幺	-19.1637
庄	-19.1637
库	-19.1637
庭	-19.1637
廟	-19.1637
廬	-19.1637
廷	-19.1637
开	-19.1637
弃	-19.1637
弖	-19.1637
弥	-19.1637
当	-19.1637
彪	-19.1637
彭	-19.1637
影	-19.1637
徒	-19.1637
微	-19.1637
徳	-19.1637
忧	-19.1637
快	-19.1637
恒	-19.1637
悉	-19.1637
悲	-19.1637
惕	-19.1637
惣	-19.1637
慧	-19.1637
憂	-19.1637
憈	-19.1637
憧	-19.1637
憼	-19.1637
戈	-19.1637
戊	-19.1637
戎	-19.1637
戰	-19.1637
戲	-19.1637
戸	-19.1637
找	-19.1637
折	-19.1637
拉	-19.1637
拓	-19.1637
拙	-19.1637
拿	-19.1637
按	-19.1637
挖	-19.1637
挹	-19.1637
排	-19.1637
掘	-19.1637
採	-19.1637
揆	-19.1637
撤	-19.1637
操	-19.1637
據	-19.1637
敵	-19.1637
於	-19.1637
旧	-19.1637
昆	-19.1637
昏	-19.1637
春	-19.1637
显	-19.1637
晴	-19.1637
曲	-19.1637
會	-19.1637
札	-19.1637
权	-19.1637
束	-19.1637
架	-19.1637
柱	-19.1637
案	-19.1637
桌	-19.1637
棉	-19.1637
棋	-19.1637
棠	-19.1637
楓	-19.1637
楠	-19.1637
槃	-19.1637
樓	-19.1637
橋	-19.1637
欽	-19.1637
歡	-19.1637
步	-19.1637
歸	-19.1637
汽	-19.1637
没	-19.1637
況	-19.1637
泄	-19.1637
泰	-19.1637
洁	-19.1637
洞	-19.1637
津	-19.1637
洱	-19.1637
浪	-19.1637
涅	-19.1637
涵	-19.1637
減	-19.1637
渡	-19.1637
温	-19.1637
港	-19.1637
湯	-19.1637
滇	-19.1637
滝	-19.1637
滞	-19.1637
漆	-19.1637
潭	-19.1637
灯	-19.1637
炼	-19.1637
烈	-19.1637
烏	-19.1637
熙	-19.1637
熹	-19.1637
燕	-19.1637
犀	-19.1637
狐	-19.1637
猜	-19.1637
献	-19.1637
猾	-19.1637
獸	-19.1637
珂	-19.1637
琅	-19.1637
瑞	-19.1637
甚	-19.1637
男	-19.1637
界	-19.1637
痒	-19.1637
癢	-19.1637
真	-19.1637
眼	-19.1637
确	-19.1637
碑	-19.1637
碗	-19.1637
碩	-19.1637
祷	-19.1637
祺	-19.1637
福	-19.1637
禪	-19.1637
离	-19.1637
積	-19.1637
穩	-19.1637
穴	-19.1637
究	-19.1637
窃	-19.1637
竊	-19.1637
童	-19.1637
等	-19.1637
篇	-19.1637
粉	-19.1637
粽	-19.1637
精	-19.1637
約	-19.1637
経	-19.1637
絕	-19.1637
絡	-19.1637
続	-19.1637
綠	-19.1637
綫	-19.1637
綱	-19.1637
綽	-19.1637
繰	-19.1637
红	-19.1637
级	-19.1637
线	-19.1637
结	-19.1637
给	-19.1637
绿	-19.1637
置	-19.1637
群	-19.1637
羽	-19.1637
考	-19.1637
耳	-19.1637
联	-19.1637
聖	-19.1637
聚	-19.1637
聯	-19.1637
胎	-19.1637
胥	-19.1637
脀	-19.1637
脑	-19.1637
脳	-19.1637
興	-19.1637
舌	-19.1637
船	-19.1637
芥	-19.1637
芦	-19.1637
芬	-19.1637
芭	-19.1637
苑	-19.1637
苓	-19.1637
茶	-19.1637
荸	-19.1637
莲	-19.1637
蒐	-19.1637
蒙	-19.1637
薇	-19.1637
薪	-19.1637
薺	-19.1637
藍	-19.1637
藏	-19.1637
藓	-19.1637
蚌	-19.1637
蛇	-19.1637
蠡	-19.1637
衆	-19.1637
观	-19.1637
览	-19.1637
訂	-19.1637
談	-19.1637
諸	-19.1637
講	-19.1637
證	-19.1637
識	-19.1637
讀	-19.1637
讒	-19.1637
让	-19.1637
许	-19.1637
设	-19.1637
识	-19.1637
试	-19.1637
诗	-19.1637
诞	-19.1637
该	-19.1637
语	-19.1637
谁	-19.1637
谢	-19.1637
貌	-19.1637
貞	-19.1637
貴	-19.1637
買	-19.1637
貽	-19.1637
贡	-19.1637
责	-19.1637
贪	-19.1637
贵	-19.1637
超	-19.1637
趣	-19.1637
跟	-19.1637
踊	-19.1637
蹄	-19.1637
軫	-19.1637
輛	-19.1637
轴	-19.1637
载	-19.1637
辭	-19.1637
辰	-19.1637
迎	-19.1637
运	-19.1637
返	-19.1637
远	-19.1637
追	-19.1637
透	-19.1637
逗	-19.1637
速	-19.1637
連	-19.1637
遊	-19.1637
過	-19.1637
遮	-19.1637
遺	-19.1637
邓	-19.1637
郑	-19.1637
郡	-19.1637
釋	-19.1637
鈴	-19.1637
钟	-19.1637
钱	-19.1637
键	-19.1637
镇	-19.1637
関	-19.1637
门	-19.1637
阁	-19.1637
阳	-19.1637
附	-19.1637
陕	-19.1637
除	-19.1637
险	-19.1637
陵	-19.1637
階	-19.1637
隻	-19.1637
雀	-19.1637
霖	-19.1637
露	-19.1637
韻	-19.1637
響	-19.1637
顯	-19.1637
顶	-19.1637
飛	-19.1637
飯	-19.1637
飲	-19.1637
館	-19.1637
騙	-19.1637
驛	-19.1637
骇	-19.1637
髄	-19.1637
鬧	-19.1637
鳌	-19.1637
鳥	-19.1637
鴉	-19.1637
鴛	-19.1637
鴻	-19.1637
鸿	-19.1637
麟	-19.1637
鼻	-19.1637
ꙑ	-19.1637
걸	-19.1637
결	-19.1637
괴	-19.1637
굴	-19.1637
귀	-19.1637
금	-19.1637
길	-19.1637
김	-19.1637
까	-19.1637
년	-19.1637
념	-19.1637
뉴	-19.1637
늘	-19.1637
데	-19.1637
델	-19.1637
돈	-19.1637
될	-19.1637
됩	-19.1637
두	-19.1637
따	-19.1637
땅	-19.1637
때	-19.1637
떻	-19.1637
람	-19.1637
래	-19.1637
럼	-19.1637
료	-19.1637
르	-19.1637
른	-19.1637
를	-19.1637
망	-19.1637
맨	-19.1637
못	-19.1637
물	-19.1637
배	-19.1637
버	-19.1637
벌	-19.1637
변	-19.1637
별	-19.1637
볼	-19.1637
불	-19.1637
브	-19.1637
삯	-19.1637
삼	-19.1637
샘	-19.1637
설	-19.1637
쇄	-19.1637
숨	-19.1637
쉬	-19.1637
썼	-19.1637
쏘	-19.1637
쏠	-19.1637
알	-19.1637
았	-19.1637
앞	-19.1637
액	-19.1637
역	-19.1637
연	-19.1637
와	-19.1637
웅	-19.1637
워	-19.1637
월	-19.1637
윤	-19.1637
으	-19.1637
일	-19.1637
잡	-19.1637
적	-19.1637
전	-19.1637
족	-19.1637
좀	-19.1637
종	-19.1637
죠	-19.1637
중	-19.1637
줬	-19.1637
직	-19.1637
찍	-19.1637
채	-19.1637
책	-19.1637
청	-19.1637
체	-19.1637
최	-19.1637
츠	-19.1637
치	-19.1637
컨	-19.1637
쿠	-19.1637
쿼	-19.1637
탑	-19.1637
텐	-19.1637
팔	-19.1637
폐	-19.1637
폭	-19.1637
품	-19.1637
학	-19.1637
합	-19.1637
행	-19.1637
현	-19.1637
효	-19.1637
￼	-19.1637
𐬊	-19.1637
𐬨	-19.1637
𐬵	-19.1637
𒀭	-19.1637
🌋	-19.1637
🌐	-19.1637
🌟	-19.1637
🌨	-19.1637
🌴	-19.1637
🌸	-19.1637
🌹	-19.1637
🍴	-19.1637
🎥	-19.1637
🏆	-19.1637
🐉	-19.1637
🐦	-19.1637
👉	-19.1637
👏	-19.1637
👠	-19.1637
💡	-19.1637
💫	-19.1637
📖	-19.1637
📡	-19.1637
📩	-19.1637
📰	-19.1637
📺	-19.1637
🔥	-19.1637
🔴	-19.1637
🔵	-19.1637
🕐	-19.1637
🕑	-19.1637
🕒	-19.1637
🕓	-19.1637
🕔	-19.1637
🕕	-19.1637
🕖	-19.1637
🕗	-19.1637
🕘	-19.1637
🕙	-19.1637
🕚	-19.1637
🕛	-19.1637
🗺	-19.1637
😀	-19.1637
😈	-19.1637
😍	-19.1637
😎	-19.1637
😔	-19.1637
😕	-19.1637
😘	-19.1637
😚	-19.1637
😟	-19.1637
😤	-19.1637
😬	-19.1637
😱	-19.1637
😹	-19.1637
🛰	-19.1637
֏	-19.1637
ᔥ	-19.1637
ἦ	-19.1637
∠	-19.1637
⌊	-19.1637
⚔	-19.1637
拾	-19.1637
皮	-19.1637
舰	-19.1637
菟	-19.1637
통	-19.1637
판	-19.1637
̞	-19.1637
̩	-19.1637
ॉ	-19.1637
ં	-19.1637
േ	-19.1637
ქ	-19.1637
ᠼ	-19.1637
❖	-19.1637
ぢ	-19.1637
ミ	-19.1637
丽	-19.1637
乌	-19.1637
乡	-19.1637
凤	-19.1637
割	-19.1637
劳	-19.1637
勒	-19.1637
垄	-19.1637
堡	-19.1637
壟	-19.1637
婆	-19.1637
寫	-19.1637
廂	-19.1637
怎	-19.1637
批	-19.1637
报	-19.1637
浅	-19.1637
浜	-19.1637
溫	-19.1637
烧	-19.1637
燮	-19.1637
発	-19.1637
瞧	-19.1637
紙	-19.1637
罷	-19.1637
莓	-19.1637
菅	-19.1637
釗	-19.1637
饼	-19.1637
鳳	-19.1637
널	-19.1637
손	-19.1637
톤	-19.1637
🎓	-19.1637
👨	-19.1637
👩	-19.1637
լ	-19.1637
ચ	-19.1637
ા	-19.1637
പ	-19.1637
ല	-19.1637
ശ	-19.1637
ാ	-19.1637
ൈ	-19.1637
ක	-19.1637
ා	-19.1637
တ	-19.1637
်	-19.1637
争	-19.1637
俗	-19.1637
彌	-19.1637
括	-19.1637
挡	-19.1637
敦	-19.1637
檔	-19.1637
欢	-19.1637
游	-19.1637
煌	-19.1637
爆	-19.1637
现	-19.1637
産	-19.1637
競	-19.1637
織	-19.1637
艺	-19.1637
议	-19.1637
込	-19.1637
顾	-19.1637
馳	-19.1637
麼	-19.1637
갈	-19.1637
올	-19.1637
차	-19.1637
테	-19.1637
훈	-19.1637
달	-19.1637
҉	-19.1638
ཡ	-19.1638
ཧ	-19.1638
ི	-19.1638
ទ	-19.1638
ព	-19.1638
ម	-19.1638
ហ	-19.1638
ា	-19.1638
ះ	-19.1638
់	-19.1638
ベ	-19.1638
几	-19.1638
厥	-19.1638
反	-19.1638
塞	-19.1638
戶	-19.1638
才	-19.1638
暗	-19.1638
権	-19.1638
淹	-19.1638
牖	-19.1638
犯	-19.1638
礼	-19.1638
称	-19.1638
绕	-19.1638
罪	-19.1638
胁	-19.1638
节	-19.1638
護	-19.1638
閉	-19.1638
须	-19.1638
완	-19.1638
충	-19.1638
乘	-19.1638
仪	-19.1638
侵	-19.1638
兵	-19.1638
域	-19.1638
寶	-19.1638
尺	-19.1638
建	-19.1638
愷	-19.1638
慈	-19.1638
慑	-19.1638
搭	-19.1638
斩	-19.1638
既	-19.1638
殘	-19.1638
溃	-19.1638
準	-19.1638
燾	-19.1638
猶	-19.1638
獲	-19.1638
異	-19.1638
當	-19.1638
硯	-19.1638
確	-19.1638
竦	-19.1638
莫	-19.1638
讲	-19.1638
贼	-19.1638
迪	-19.1638
騫	-19.1638
鶴	-19.1638
默	-19.1638
齡	-19.1638
丈	-19.1639
单	-19.1639
哈	-19.1639
场	-19.1639
往	-19.1639
怖	-19.1639
恩	-19.1639
洽	-19.1639
淑	-19.1639
舊	-19.1639
詢	-19.1639
誤	-19.1639
话	-19.1639
負	-19.1639
責	-19.1639
逊	-19.1639
項	-19.1639
倡	-19.164
嘅	-19.164
慌	-19.164
獻	-19.164
發	-19.164
专	-19.1641
从	-19.1641
低	-19.1641
候	-19.1641
圓	-19.1641
希	-19.1641
式	-19.1641
彦	-19.1641
徑	-19.1641
恙	-19.1641
撑	-19.1641
樊	-19.1641
求	-19.1641
澜	-19.1641
猛	-19.1641
种	-19.1641
终	-19.1641
绝	-19.1641
背	-19.1641
裕	-19.1641
鄧	-19.1641
里	-19.1641
魏	-19.1641
魯	-19.1641
供	-19.1643
吹	-19.1643
片	-19.1643
腹	-19.1643
转	-19.1643
乃	-19.1645
冀	-19.1645
嗣	-19.1645
塵	-19.1645
岑	-19.1645
席	-19.1645
庸	-19.1645
弩	-19.1645
懋	-19.1645
扶	-19.1645
挽	-19.1645
樂	-19.1645
滌	-19.1645
盧	-19.1645
穆	-19.1645
紺	-19.1645
聶	-19.1645
肖	-19.1645
蔚	-19.1645
藕	-19.1645
衣	-19.1645
质	-19.1645
輔	-19.1645
郎	-19.1645
韶	-19.1645
初	-19.1649
慕	-19.1649
暉	-19.1649
灭	-19.1649
芙	-19.1649
逸	-19.1649
遭	-19.1649
錦	-19.1649
鏡	-19.1649
吾	-19.1653
緗	-19.1653
闻	-19.1653
ḗ	-19.166
兹	-19.1661
組	-19.1661
誼	-19.1661
彙	-19.1661
ŵ	-19.1662
ķ	-19.1663
ペ	-19.1664
Ἀ	-19.1665
ュ	-19.1666
ệ	-19.1667
₦	-19.1668
̈	-19.1669
冠	-19.1669
薌	-19.1669
